{
  "version": "1.0",
  "truncation": null,
  "padding": null,
  "added_tokens": [
    {
      "id": 0,
      "content": "<pad>",
      "single_word": false,
      "lstrip": false,
      "rstrip": false,
      "normalized": false,
      "special": true
    },
    {
      "id": 1,
      "content": "<s>",
      "single_word": false,
      "lstrip": false,
      "rstrip": false,
      "normalized": false,
      "special": true
    },
    {
      "id": 2,
      "content": "</s>",
      "single_word": false,
      "lstrip": false,
      "rstrip": false,
      "normalized": false,
      "special": true
    },
    {
      "id": 3,
      "content": "<unk>",
      "single_word": false,
      "lstrip": false,
      "rstrip": false,
      "normalized": false,
      "special": true
    },
    {
      "id": 5,
      "content": "\n",
      "single_word": false,
      "lstrip": false,
      "rstrip": false,
      "normalized": true,
      "special": false
    },
    {
      "id": 47,
      "content": "cos",
      "single_word": false,
      "lstrip": false,
      "rstrip": false,
      "normalized": true,
      "special": false
    },
    {
      "id": 56,
      "content": "log",
      "single_word": false,
      "lstrip": false,
      "rstrip": false,
      "normalized": true,
      "special": false
    },
    {
      "id": 13330,
      "content": ":",
      "single_word": false,
      "lstrip": false,
      "rstrip": false,
      "normalized": true,
      "special": false
    },
    {
      "id": 22677,
      "content": "<mml:msub>",
      "single_word": false,
      "lstrip": false,
      "rstrip": false,
      "normalized": true,
      "special": false
    },
    {
      "id": 22678,
      "content": "<mml:msqrt>",
      "single_word": false,
      "lstrip": false,
      "rstrip": false,
      "normalized": true,
      "special": false
    },
    {
      "id": 22679,
      "content": "</mml:mfenced>",
      "single_word": false,
      "lstrip": false,
      "rstrip": false,
      "normalized": true,
      "special": false
    },
    {
      "id": 22680,
      "content": "<mml:mi>",
      "single_word": false,
      "lstrip": false,
      "rstrip": false,
      "normalized": true,
      "special": false
    },
    {
      "id": 22681,
      "content": "</mml:msup>",
      "single_word": false,
      "lstrip": false,
      "rstrip": false,
      "normalized": true,
      "special": false
    },
    {
      "id": 22682,
      "content": "<mml:mfenced>",
      "single_word": false,
      "lstrip": false,
      "rstrip": false,
      "normalized": true,
      "special": false
    },
    {
      "id": 22683,
      "content": "</mml:msqrt>",
      "single_word": false,
      "lstrip": false,
      "rstrip": false,
      "normalized": true,
      "special": false
    },
    {
      "id": 22684,
      "content": "</mml:msubsup>",
      "single_word": false,
      "lstrip": false,
      "rstrip": false,
      "normalized": true,
      "special": false
    },
    {
      "id": 22685,
      "content": "<mml:mfrac>",
      "single_word": false,
      "lstrip": false,
      "rstrip": false,
      "normalized": true,
      "special": false
    },
    {
      "id": 22686,
      "content": "<mml:msubsup>",
      "single_word": false,
      "lstrip": false,
      "rstrip": false,
      "normalized": true,
      "special": false
    },
    {
      "id": 22687,
      "content": "<mml:mn>",
      "single_word": false,
      "lstrip": false,
      "rstrip": false,
      "normalized": true,
      "special": false
    },
    {
      "id": 22688,
      "content": "</mml:mfrac>",
      "single_word": false,
      "lstrip": false,
      "rstrip": false,
      "normalized": true,
      "special": false
    },
    {
      "id": 22689,
      "content": "<mml:mo>",
      "single_word": false,
      "lstrip": false,
      "rstrip": false,
      "normalized": true,
      "special": false
    },
    {
      "id": 22690,
      "content": "<mml:munderover>",
      "single_word": false,
      "lstrip": false,
      "rstrip": false,
      "normalized": true,
      "special": false
    },
    {
      "id": 22691,
      "content": "</mml:munderover>",
      "single_word": false,
      "lstrip": false,
      "rstrip": false,
      "normalized": true,
      "special": false
    },
    {
      "id": 22692,
      "content": "</mml:mrow>",
      "single_word": false,
      "lstrip": false,
      "rstrip": false,
      "normalized": true,
      "special": false
    },
    {
      "id": 22693,
      "content": "</mml:msub>",
      "single_word": false,
      "lstrip": false,
      "rstrip": false,
      "normalized": true,
      "special": false
    },
    {
      "id": 22694,
      "content": "<mml:msup>",
      "single_word": false,
      "lstrip": false,
      "rstrip": false,
      "normalized": true,
      "special": false
    },
    {
      "id": 22695,
      "content": "</mml:mo>",
      "single_word": false,
      "lstrip": false,
      "rstrip": false,
      "normalized": true,
      "special": false
    },
    {
      "id": 22696,
      "content": "</mml:mtext>",
      "single_word": false,
      "lstrip": false,
      "rstrip": false,
      "normalized": true,
      "special": false
    },
    {
      "id": 22697,
      "content": "<mml:mrow>",
      "single_word": false,
      "lstrip": false,
      "rstrip": false,
      "normalized": true,
      "special": false
    },
    {
      "id": 22698,
      "content": "Symbol",
      "single_word": false,
      "lstrip": false,
      "rstrip": false,
      "normalized": true,
      "special": false
    },
    {
      "id": 22699,
      "content": "Eq",
      "single_word": false,
      "lstrip": false,
      "rstrip": false,
      "normalized": true,
      "special": false
    },
    {
      "id": 22700,
      "content": "exp",
      "single_word": false,
      "lstrip": false,
      "rstrip": false,
      "normalized": true,
      "special": false
    },
    {
      "id": 22701,
      "content": "sin",
      "single_word": false,
      "lstrip": false,
      "rstrip": false,
      "normalized": true,
      "special": false
    },
    {
      "id": 22702,
      "content": "tan",
      "single_word": false,
      "lstrip": false,
      "rstrip": false,
      "normalized": true,
      "special": false
    },
    {
      "id": 22703,
      "content": "diff",
      "single_word": false,
      "lstrip": false,
      "rstrip": false,
      "normalized": true,
      "special": false
    },
    {
      "id": 22704,
      "content": "Sum",
      "single_word": false,
      "lstrip": false,
      "rstrip": false,
      "normalized": true,
      "special": false
    },
    {
      "id": 22705,
      "content": "Derivative",
      "single_word": false,
      "lstrip": false,
      "rstrip": false,
      "normalized": true,
      "special": false
    },
    {
      "id": 22706,
      "content": "Integral",
      "single_word": false,
      "lstrip": false,
      "rstrip": false,
      "normalized": true,
      "special": false
    },
    {
      "id": 22707,
      "content": "\r",
      "single_word": false,
      "lstrip": false,
      "rstrip": false,
      "normalized": true,
      "special": false
    },
    {
      "id": 22708,
      "content": "translate",
      "single_word": false,
      "lstrip": false,
      "rstrip": false,
      "normalized": true,
      "special": false
    },
    {
      "id": 22709,
      "content": "MathML",
      "single_word": false,
      "lstrip": false,
      "rstrip": false,
      "normalized": true,
      "special": false
    },
    {
      "id": 22710,
      "content": "to",
      "single_word": false,
      "lstrip": false,
      "rstrip": false,
      "normalized": true,
      "special": false
    },
    {
      "id": 22711,
      "content": "Python",
      "single_word": false,
      "lstrip": false,
      "rstrip": false,
      "normalized": true,
      "special": false
    },
    {
      "id": 22712,
      "content": "<extra_id_0>",
      "single_word": false,
      "lstrip": false,
      "rstrip": false,
      "normalized": false,
      "special": true
    },
    {
      "id": 22713,
      "content": "<extra_id_1>",
      "single_word": false,
      "lstrip": false,
      "rstrip": false,
      "normalized": false,
      "special": true
    },
    {
      "id": 22714,
      "content": "<extra_id_2>",
      "single_word": false,
      "lstrip": false,
      "rstrip": false,
      "normalized": false,
      "special": true
    },
    {
      "id": 22715,
      "content": "<extra_id_3>",
      "single_word": false,
      "lstrip": false,
      "rstrip": false,
      "normalized": false,
      "special": true
    },
    {
      "id": 22716,
      "content": "<extra_id_4>",
      "single_word": false,
      "lstrip": false,
      "rstrip": false,
      "normalized": false,
      "special": true
    },
    {
      "id": 22717,
      "content": "<extra_id_5>",
      "single_word": false,
      "lstrip": false,
      "rstrip": false,
      "normalized": false,
      "special": true
    },
    {
      "id": 22718,
      "content": "<extra_id_6>",
      "single_word": false,
      "lstrip": false,
      "rstrip": false,
      "normalized": false,
      "special": true
    },
    {
      "id": 22719,
      "content": "<extra_id_7>",
      "single_word": false,
      "lstrip": false,
      "rstrip": false,
      "normalized": false,
      "special": true
    },
    {
      "id": 22720,
      "content": "<extra_id_8>",
      "single_word": false,
      "lstrip": false,
      "rstrip": false,
      "normalized": false,
      "special": true
    },
    {
      "id": 22721,
      "content": "<extra_id_9>",
      "single_word": false,
      "lstrip": false,
      "rstrip": false,
      "normalized": false,
      "special": true
    },
    {
      "id": 22722,
      "content": "<extra_id_10>",
      "single_word": false,
      "lstrip": false,
      "rstrip": false,
      "normalized": false,
      "special": true
    },
    {
      "id": 22723,
      "content": "<extra_id_11>",
      "single_word": false,
      "lstrip": false,
      "rstrip": false,
      "normalized": false,
      "special": true
    },
    {
      "id": 22724,
      "content": "<extra_id_12>",
      "single_word": false,
      "lstrip": false,
      "rstrip": false,
      "normalized": false,
      "special": true
    },
    {
      "id": 22725,
      "content": "<extra_id_13>",
      "single_word": false,
      "lstrip": false,
      "rstrip": false,
      "normalized": false,
      "special": true
    },
    {
      "id": 22726,
      "content": "<extra_id_14>",
      "single_word": false,
      "lstrip": false,
      "rstrip": false,
      "normalized": false,
      "special": true
    },
    {
      "id": 22727,
      "content": "<extra_id_15>",
      "single_word": false,
      "lstrip": false,
      "rstrip": false,
      "normalized": false,
      "special": true
    },
    {
      "id": 22728,
      "content": "<extra_id_16>",
      "single_word": false,
      "lstrip": false,
      "rstrip": false,
      "normalized": false,
      "special": true
    },
    {
      "id": 22729,
      "content": "<extra_id_17>",
      "single_word": false,
      "lstrip": false,
      "rstrip": false,
      "normalized": false,
      "special": true
    },
    {
      "id": 22730,
      "content": "<extra_id_18>",
      "single_word": false,
      "lstrip": false,
      "rstrip": false,
      "normalized": false,
      "special": true
    },
    {
      "id": 22731,
      "content": "<extra_id_19>",
      "single_word": false,
      "lstrip": false,
      "rstrip": false,
      "normalized": false,
      "special": true
    },
    {
      "id": 22732,
      "content": "<extra_id_20>",
      "single_word": false,
      "lstrip": false,
      "rstrip": false,
      "normalized": false,
      "special": true
    },
    {
      "id": 22733,
      "content": "<extra_id_21>",
      "single_word": false,
      "lstrip": false,
      "rstrip": false,
      "normalized": false,
      "special": true
    },
    {
      "id": 22734,
      "content": "<extra_id_22>",
      "single_word": false,
      "lstrip": false,
      "rstrip": false,
      "normalized": false,
      "special": true
    },
    {
      "id": 22735,
      "content": "<extra_id_23>",
      "single_word": false,
      "lstrip": false,
      "rstrip": false,
      "normalized": false,
      "special": true
    },
    {
      "id": 22736,
      "content": "<extra_id_24>",
      "single_word": false,
      "lstrip": false,
      "rstrip": false,
      "normalized": false,
      "special": true
    },
    {
      "id": 22737,
      "content": "<extra_id_25>",
      "single_word": false,
      "lstrip": false,
      "rstrip": false,
      "normalized": false,
      "special": true
    },
    {
      "id": 22738,
      "content": "<extra_id_26>",
      "single_word": false,
      "lstrip": false,
      "rstrip": false,
      "normalized": false,
      "special": true
    },
    {
      "id": 22739,
      "content": "<extra_id_27>",
      "single_word": false,
      "lstrip": false,
      "rstrip": false,
      "normalized": false,
      "special": true
    },
    {
      "id": 22740,
      "content": "<extra_id_28>",
      "single_word": false,
      "lstrip": false,
      "rstrip": false,
      "normalized": false,
      "special": true
    },
    {
      "id": 22741,
      "content": "<extra_id_29>",
      "single_word": false,
      "lstrip": false,
      "rstrip": false,
      "normalized": false,
      "special": true
    },
    {
      "id": 22742,
      "content": "<extra_id_30>",
      "single_word": false,
      "lstrip": false,
      "rstrip": false,
      "normalized": false,
      "special": true
    },
    {
      "id": 22743,
      "content": "<extra_id_31>",
      "single_word": false,
      "lstrip": false,
      "rstrip": false,
      "normalized": false,
      "special": true
    },
    {
      "id": 22744,
      "content": "<extra_id_32>",
      "single_word": false,
      "lstrip": false,
      "rstrip": false,
      "normalized": false,
      "special": true
    },
    {
      "id": 22745,
      "content": "<extra_id_33>",
      "single_word": false,
      "lstrip": false,
      "rstrip": false,
      "normalized": false,
      "special": true
    },
    {
      "id": 22746,
      "content": "<extra_id_34>",
      "single_word": false,
      "lstrip": false,
      "rstrip": false,
      "normalized": false,
      "special": true
    },
    {
      "id": 22747,
      "content": "<extra_id_35>",
      "single_word": false,
      "lstrip": false,
      "rstrip": false,
      "normalized": false,
      "special": true
    },
    {
      "id": 22748,
      "content": "<extra_id_36>",
      "single_word": false,
      "lstrip": false,
      "rstrip": false,
      "normalized": false,
      "special": true
    },
    {
      "id": 22749,
      "content": "<extra_id_37>",
      "single_word": false,
      "lstrip": false,
      "rstrip": false,
      "normalized": false,
      "special": true
    },
    {
      "id": 22750,
      "content": "<extra_id_38>",
      "single_word": false,
      "lstrip": false,
      "rstrip": false,
      "normalized": false,
      "special": true
    },
    {
      "id": 22751,
      "content": "<extra_id_39>",
      "single_word": false,
      "lstrip": false,
      "rstrip": false,
      "normalized": false,
      "special": true
    },
    {
      "id": 22752,
      "content": "<extra_id_40>",
      "single_word": false,
      "lstrip": false,
      "rstrip": false,
      "normalized": false,
      "special": true
    },
    {
      "id": 22753,
      "content": "<extra_id_41>",
      "single_word": false,
      "lstrip": false,
      "rstrip": false,
      "normalized": false,
      "special": true
    },
    {
      "id": 22754,
      "content": "<extra_id_42>",
      "single_word": false,
      "lstrip": false,
      "rstrip": false,
      "normalized": false,
      "special": true
    },
    {
      "id": 22755,
      "content": "<extra_id_43>",
      "single_word": false,
      "lstrip": false,
      "rstrip": false,
      "normalized": false,
      "special": true
    },
    {
      "id": 22756,
      "content": "<extra_id_44>",
      "single_word": false,
      "lstrip": false,
      "rstrip": false,
      "normalized": false,
      "special": true
    },
    {
      "id": 22757,
      "content": "<extra_id_45>",
      "single_word": false,
      "lstrip": false,
      "rstrip": false,
      "normalized": false,
      "special": true
    },
    {
      "id": 22758,
      "content": "<extra_id_46>",
      "single_word": false,
      "lstrip": false,
      "rstrip": false,
      "normalized": false,
      "special": true
    },
    {
      "id": 22759,
      "content": "<extra_id_47>",
      "single_word": false,
      "lstrip": false,
      "rstrip": false,
      "normalized": false,
      "special": true
    },
    {
      "id": 22760,
      "content": "<extra_id_48>",
      "single_word": false,
      "lstrip": false,
      "rstrip": false,
      "normalized": false,
      "special": true
    },
    {
      "id": 22761,
      "content": "<extra_id_49>",
      "single_word": false,
      "lstrip": false,
      "rstrip": false,
      "normalized": false,
      "special": true
    },
    {
      "id": 22762,
      "content": "<extra_id_50>",
      "single_word": false,
      "lstrip": false,
      "rstrip": false,
      "normalized": false,
      "special": true
    },
    {
      "id": 22763,
      "content": "<extra_id_51>",
      "single_word": false,
      "lstrip": false,
      "rstrip": false,
      "normalized": false,
      "special": true
    },
    {
      "id": 22764,
      "content": "<extra_id_52>",
      "single_word": false,
      "lstrip": false,
      "rstrip": false,
      "normalized": false,
      "special": true
    },
    {
      "id": 22765,
      "content": "<extra_id_53>",
      "single_word": false,
      "lstrip": false,
      "rstrip": false,
      "normalized": false,
      "special": true
    },
    {
      "id": 22766,
      "content": "<extra_id_54>",
      "single_word": false,
      "lstrip": false,
      "rstrip": false,
      "normalized": false,
      "special": true
    },
    {
      "id": 22767,
      "content": "<extra_id_55>",
      "single_word": false,
      "lstrip": false,
      "rstrip": false,
      "normalized": false,
      "special": true
    },
    {
      "id": 22768,
      "content": "<extra_id_56>",
      "single_word": false,
      "lstrip": false,
      "rstrip": false,
      "normalized": false,
      "special": true
    },
    {
      "id": 22769,
      "content": "<extra_id_57>",
      "single_word": false,
      "lstrip": false,
      "rstrip": false,
      "normalized": false,
      "special": true
    },
    {
      "id": 22770,
      "content": "<extra_id_58>",
      "single_word": false,
      "lstrip": false,
      "rstrip": false,
      "normalized": false,
      "special": true
    },
    {
      "id": 22771,
      "content": "<extra_id_59>",
      "single_word": false,
      "lstrip": false,
      "rstrip": false,
      "normalized": false,
      "special": true
    },
    {
      "id": 22772,
      "content": "<extra_id_60>",
      "single_word": false,
      "lstrip": false,
      "rstrip": false,
      "normalized": false,
      "special": true
    },
    {
      "id": 22773,
      "content": "<extra_id_61>",
      "single_word": false,
      "lstrip": false,
      "rstrip": false,
      "normalized": false,
      "special": true
    },
    {
      "id": 22774,
      "content": "<extra_id_62>",
      "single_word": false,
      "lstrip": false,
      "rstrip": false,
      "normalized": false,
      "special": true
    },
    {
      "id": 22775,
      "content": "<extra_id_63>",
      "single_word": false,
      "lstrip": false,
      "rstrip": false,
      "normalized": false,
      "special": true
    },
    {
      "id": 22776,
      "content": "<extra_id_64>",
      "single_word": false,
      "lstrip": false,
      "rstrip": false,
      "normalized": false,
      "special": true
    },
    {
      "id": 22777,
      "content": "<extra_id_65>",
      "single_word": false,
      "lstrip": false,
      "rstrip": false,
      "normalized": false,
      "special": true
    },
    {
      "id": 22778,
      "content": "<extra_id_66>",
      "single_word": false,
      "lstrip": false,
      "rstrip": false,
      "normalized": false,
      "special": true
    },
    {
      "id": 22779,
      "content": "<extra_id_67>",
      "single_word": false,
      "lstrip": false,
      "rstrip": false,
      "normalized": false,
      "special": true
    },
    {
      "id": 22780,
      "content": "<extra_id_68>",
      "single_word": false,
      "lstrip": false,
      "rstrip": false,
      "normalized": false,
      "special": true
    },
    {
      "id": 22781,
      "content": "<extra_id_69>",
      "single_word": false,
      "lstrip": false,
      "rstrip": false,
      "normalized": false,
      "special": true
    },
    {
      "id": 22782,
      "content": "<extra_id_70>",
      "single_word": false,
      "lstrip": false,
      "rstrip": false,
      "normalized": false,
      "special": true
    },
    {
      "id": 22783,
      "content": "<extra_id_71>",
      "single_word": false,
      "lstrip": false,
      "rstrip": false,
      "normalized": false,
      "special": true
    },
    {
      "id": 22784,
      "content": "<extra_id_72>",
      "single_word": false,
      "lstrip": false,
      "rstrip": false,
      "normalized": false,
      "special": true
    },
    {
      "id": 22785,
      "content": "<extra_id_73>",
      "single_word": false,
      "lstrip": false,
      "rstrip": false,
      "normalized": false,
      "special": true
    },
    {
      "id": 22786,
      "content": "<extra_id_74>",
      "single_word": false,
      "lstrip": false,
      "rstrip": false,
      "normalized": false,
      "special": true
    },
    {
      "id": 22787,
      "content": "<extra_id_75>",
      "single_word": false,
      "lstrip": false,
      "rstrip": false,
      "normalized": false,
      "special": true
    },
    {
      "id": 22788,
      "content": "<extra_id_76>",
      "single_word": false,
      "lstrip": false,
      "rstrip": false,
      "normalized": false,
      "special": true
    },
    {
      "id": 22789,
      "content": "<extra_id_77>",
      "single_word": false,
      "lstrip": false,
      "rstrip": false,
      "normalized": false,
      "special": true
    },
    {
      "id": 22790,
      "content": "<extra_id_78>",
      "single_word": false,
      "lstrip": false,
      "rstrip": false,
      "normalized": false,
      "special": true
    },
    {
      "id": 22791,
      "content": "<extra_id_79>",
      "single_word": false,
      "lstrip": false,
      "rstrip": false,
      "normalized": false,
      "special": true
    },
    {
      "id": 22792,
      "content": "<extra_id_80>",
      "single_word": false,
      "lstrip": false,
      "rstrip": false,
      "normalized": false,
      "special": true
    },
    {
      "id": 22793,
      "content": "<extra_id_81>",
      "single_word": false,
      "lstrip": false,
      "rstrip": false,
      "normalized": false,
      "special": true
    },
    {
      "id": 22794,
      "content": "<extra_id_82>",
      "single_word": false,
      "lstrip": false,
      "rstrip": false,
      "normalized": false,
      "special": true
    },
    {
      "id": 22795,
      "content": "<extra_id_83>",
      "single_word": false,
      "lstrip": false,
      "rstrip": false,
      "normalized": false,
      "special": true
    },
    {
      "id": 22796,
      "content": "<extra_id_84>",
      "single_word": false,
      "lstrip": false,
      "rstrip": false,
      "normalized": false,
      "special": true
    },
    {
      "id": 22797,
      "content": "<extra_id_85>",
      "single_word": false,
      "lstrip": false,
      "rstrip": false,
      "normalized": false,
      "special": true
    },
    {
      "id": 22798,
      "content": "<extra_id_86>",
      "single_word": false,
      "lstrip": false,
      "rstrip": false,
      "normalized": false,
      "special": true
    },
    {
      "id": 22799,
      "content": "<extra_id_87>",
      "single_word": false,
      "lstrip": false,
      "rstrip": false,
      "normalized": false,
      "special": true
    },
    {
      "id": 22800,
      "content": "<extra_id_88>",
      "single_word": false,
      "lstrip": false,
      "rstrip": false,
      "normalized": false,
      "special": true
    },
    {
      "id": 22801,
      "content": "<extra_id_89>",
      "single_word": false,
      "lstrip": false,
      "rstrip": false,
      "normalized": false,
      "special": true
    },
    {
      "id": 22802,
      "content": "<extra_id_90>",
      "single_word": false,
      "lstrip": false,
      "rstrip": false,
      "normalized": false,
      "special": true
    },
    {
      "id": 22803,
      "content": "<extra_id_91>",
      "single_word": false,
      "lstrip": false,
      "rstrip": false,
      "normalized": false,
      "special": true
    },
    {
      "id": 22804,
      "content": "<extra_id_92>",
      "single_word": false,
      "lstrip": false,
      "rstrip": false,
      "normalized": false,
      "special": true
    },
    {
      "id": 22805,
      "content": "<extra_id_93>",
      "single_word": false,
      "lstrip": false,
      "rstrip": false,
      "normalized": false,
      "special": true
    },
    {
      "id": 22806,
      "content": "<extra_id_94>",
      "single_word": false,
      "lstrip": false,
      "rstrip": false,
      "normalized": false,
      "special": true
    },
    {
      "id": 22807,
      "content": "<extra_id_95>",
      "single_word": false,
      "lstrip": false,
      "rstrip": false,
      "normalized": false,
      "special": true
    },
    {
      "id": 22808,
      "content": "<extra_id_96>",
      "single_word": false,
      "lstrip": false,
      "rstrip": false,
      "normalized": false,
      "special": true
    },
    {
      "id": 22809,
      "content": "<extra_id_97>",
      "single_word": false,
      "lstrip": false,
      "rstrip": false,
      "normalized": false,
      "special": true
    },
    {
      "id": 22810,
      "content": "<extra_id_98>",
      "single_word": false,
      "lstrip": false,
      "rstrip": false,
      "normalized": false,
      "special": true
    },
    {
      "id": 22811,
      "content": "<extra_id_99>",
      "single_word": false,
      "lstrip": false,
      "rstrip": false,
      "normalized": false,
      "special": true
    }
  ],
  "normalizer": {
    "type": "Sequence",
    "normalizers": [
      {
        "type": "NFKC"
      }
    ]
  },
  "pre_tokenizer": {
    "type": "Split",
    "pattern": {
      "Regex": "<[^>]+>|\"\"\"[^\"]*\"\"\"|'''[^']*'''|\"[^\"]*\"|'[^']*'|\\bdef\\b|\\bclass\\b|\\bfor\\b|\\bwhile\\b|\\bif\\b|\\belif\\b|\\belse\\b|\\breturn\\b|\\bimport\\b|\\bfrom\\b|\\bas\\b|\\bwith\\b|\\btry\\b|\\bexcept\\b|==|!=|<=|>=|\\+=|-=|\\*=|/=|=>|->|\\bSymbol\\b|\\bEq\\b|\\bexp\\b|\\bsin\\b|\\bcos\\b|\\btan\\b|\\bdiff\\b|^\\s+|\\s+"
    },
    "behavior": "Isolated",
    "invert": false
  },
  "post_processor": null,
  "decoder": null,
  "model": {
    "type": "Unigram",
    "unk_id": null,
    "vocab": [
      [
        "<pad>",
        0.0
      ],
      [
        "<s>",
        0.0
      ],
      [
        "</s>",
        0.0
      ],
      [
        "<unk>",
        0.0
      ],
      [
        ">",
        -1.8462464891879833
      ],
      [
        "\n",
        -2.0949129221938563
      ],
      [
        "o",
        -2.7417403433963425
      ],
      [
        "<mml:m",
        -2.8836259608597583
      ],
      [
        " ",
        -2.948460411159667
      ],
      [
        "r",
        -3.319294926436818
      ],
      [
        "</mml:m",
        -3.371381223403917
      ],
      [
        "w",
        -3.411926437368765
      ],
      [
        "</mml:mi",
        -3.5368749667810313
      ],
      [
        "e",
        -3.5522260785633755
      ],
      [
        "i",
        -3.639463329653953
      ],
      [
        "=",
        -3.891456400234077
      ],
      [
        "'",
        -4.005177047868376
      ],
      [
        "(",
        -4.120095407755159
      ],
      [
        "n",
        -4.139505163394826
      ],
      [
        ")",
        -4.191028447744852
      ],
      [
        "d",
        -4.2949977847811205
      ],
      [
        "l",
        -4.320431236212656
      ],
      [
        "S",
        -4.326258162792781
      ],
      [
        "y",
        -4.34925062225059
      ],
      [
        "m",
        -4.3578353663734966
      ],
      [
        "b",
        -4.37949774296715
      ],
      [
        "c",
        -4.7057922149194
      ],
      [
        "<",
        -4.860856741382715
      ],
      [
        "</mml:mf",
        -4.890236648013159
      ],
      [
        ",",
        -4.892442289861677
      ],
      [
        "<mml:mf",
        -4.892607641792122
      ],
      [
        "mml:mi",
        -4.903132464705175
      ],
      [
        "nc",
        -5.0187500602215405
      ],
      [
        "p",
        -5.11893539217578
      ],
      [
        "</mml:msub",
        -5.2118436051605315
      ],
      [
        "<mml:msub",
        -5.213205240185101
      ],
      [
        "ra",
        -5.537101129298895
      ],
      [
        "q",
        -5.56244535063616
      ],
      [
        "+",
        -5.604049976693428
      ],
      [
        "E",
        -5.6077460976926545
      ],
      [
        "t",
        -5.624030208743099
      ],
      [
        "s",
        -5.78262426684846
      ],
      [
        "x",
        -5.835922193067946
      ],
      [
        "ow",
        -5.930173714187855
      ],
      [
        "-",
        -6.012211455772102
      ],
      [
        "</mml:msu",
        -6.035773682085187
      ],
      [
        "<mml:msu",
        -6.037387423382205
      ],
      [
        "cos",
        -6.097764711126548
      ],
      [
        "sqrt",
        -6.167492843332816
      ],
      [
        "te",
        -6.169265567508679
      ],
      [
        "xp",
        -6.233633911792799
      ],
      [
        "ro",
        -6.367449330197148
      ],
      [
        "ta",
        -6.390349996476681
      ],
      [
        "ve",
        -6.641918303655185
      ],
      [
        "∂",
        -6.700437258110039
      ],
      [
        "u",
        -6.715436455180029
      ],
      [
        "log",
        -6.754259163285729
      ],
      [
        "2",
        -7.152155469878331
      ],
      [
        "a",
        -7.199482584426151
      ],
      [
        "bo",
        -7.244536665017922
      ],
      [
        "∫",
        -7.290838805415656
      ],
      [
        "∑",
        -7.313659267849336
      ],
      [
        "un",
        -7.366837753753112
      ],
      [
        "8",
        -7.396785819797051
      ],
      [
        "4",
        -7.414276633732207
      ],
      [
        "5",
        -7.423182830072408
      ],
      [
        "6",
        -7.43307471542005
      ],
      [
        "9",
        -7.437959088364844
      ],
      [
        "3",
        -7.438369142676606
      ],
      [
        "er",
        -7.45589386287601
      ],
      [
        "7",
        -7.486248353674036
      ],
      [
        ")))",
        -7.511303034438373
      ],
      [
        "1",
        -7.5694566199071325
      ],
      [
        "f",
        -7.611450196761135
      ],
      [
        "ym",
        -7.662412230267389
      ],
      [
        "))",
        -7.832945486603069
      ],
      [
        "ω",
        -7.833669944489863
      ],
      [
        "ψ",
        -7.8640145739864735
      ],
      [
        "Ν",
        -7.868651354777142
      ],
      [
        "Derivative(",
        -7.876248862837346
      ],
      [
        "Γ",
        -7.8855734724251105
      ],
      [
        "Σ",
        -7.886513406791582
      ],
      [
        "ρ",
        -7.888886666768193
      ],
      [
        "R",
        -7.889673932106283
      ],
      [
        "Δ",
        -7.892178070174486
      ],
      [
        "Κ",
        -7.894294742269824
      ],
      [
        "Υ",
        -7.895792233511262
      ],
      [
        "Α",
        -7.900825511248905
      ],
      [
        "ν",
        -7.902858617694179
      ],
      [
        "h",
        -7.904554767321385
      ],
      [
        "D",
        -7.905192879289846
      ],
      [
        "Y",
        -7.905630652523935
      ],
      [
        "Ξ",
        -7.905799976820955
      ],
      [
        "Χ",
        -7.9094169382706445
      ],
      [
        "v",
        -7.909899604112328
      ],
      [
        "J",
        -7.911190477846947
      ],
      [
        "Μ",
        -7.91148866999925
      ],
      [
        "Τ",
        -7.91313244485978
      ],
      [
        "δ",
        -7.913464126765216
      ],
      [
        "α",
        -7.917596672734375
      ],
      [
        "Ε",
        -7.917765027891986
      ],
      [
        "λ",
        -7.920895092115496
      ],
      [
        "θ",
        -7.922612841271316
      ],
      [
        "W",
        -7.923321649628709
      ],
      [
        "Β",
        -7.92415311380811
      ],
      [
        "U",
        -7.925699786413592
      ],
      [
        "γ",
        -7.928645941331606
      ],
      [
        "V",
        -7.929782335622484
      ],
      [
        "κ",
        -7.930910016869464
      ],
      [
        "H",
        -7.931248687488993
      ],
      [
        "Π",
        -7.931588279560284
      ],
      [
        "Ζ",
        -7.932586616339061
      ],
      [
        "ε",
        -7.932704403247231
      ],
      [
        "F",
        -7.934929130456363
      ],
      [
        "Λ",
        -7.936213135498912
      ],
      [
        "Ρ",
        -7.93684816863182
      ],
      [
        "Ι",
        -7.939525615945779
      ],
      [
        "υ",
        -7.940182687945272
      ],
      [
        "Sum(",
        -7.941307813614081
      ],
      [
        "j",
        -7.943008438895154
      ],
      [
        "β",
        -7.943893265081496
      ],
      [
        "A",
        -7.94588377401482
      ],
      [
        "Θ",
        -7.946147546590151
      ],
      [
        "Ω",
        -7.947058803698197
      ],
      [
        "z",
        -7.950333518007565
      ],
      [
        "ζ",
        -7.9544941077035505
      ],
      [
        "k",
        -7.954900489557439
      ],
      [
        "η",
        -7.956847365131188
      ],
      [
        "L",
        -7.95779979788547
      ],
      [
        "M",
        -7.959756109609435
      ],
      [
        "T",
        -7.963807057449096
      ],
      [
        "Integral(",
        -7.966124386546053
      ],
      [
        "su",
        -7.966658780524722
      ],
      [
        "Ψ",
        -7.968624554838831
      ],
      [
        "C",
        -7.968928597303488
      ],
      [
        "ο",
        -7.9699429548169505
      ],
      [
        "χ",
        -7.970322489885421
      ],
      [
        "X",
        -7.97157505691139
      ],
      [
        "g",
        -7.971921723628807
      ],
      [
        "P",
        -7.973791251617594
      ],
      [
        "φ",
        -7.975418386280139
      ],
      [
        "σ",
        -7.977257803319819
      ],
      [
        "τ",
        -7.977724955997442
      ],
      [
        "ξ",
        -7.9783834196488765
      ],
      [
        "an",
        -7.981015547126555
      ],
      [
        "G",
        -7.982834410964395
      ],
      [
        "Η",
        -7.984761569176731
      ],
      [
        "K",
        -7.987518267640544
      ],
      [
        "B",
        -7.9915981283281985
      ],
      [
        "Ο",
        -7.991750008457613
      ],
      [
        "ι",
        -8.004206078100545
      ],
      [
        "Φ",
        -8.00844213345584
      ],
      [
        "Z",
        -8.009752004035647
      ],
      [
        "μ",
        -8.023891240121038
      ],
      [
        "up",
        -8.157563760099972
      ],
      [
        "mb",
        -8.33151882022984
      ],
      [
        "Q",
        -8.363754050726373
      ],
      [
        "N",
        -8.372922627769722
      ],
      [
        "O",
        -8.416096421202202
      ],
      [
        "I",
        -8.433797097122067
      ],
      [
        "ex",
        -8.472994115576629
      ],
      [
        ")*",
        -8.551301133252771
      ],
      [
        "ol",
        -8.665274258349317
      ],
      [
        "mml:m",
        -8.80644829375257
      ],
      [
        "/",
        -8.857893666165634
      ],
      [
        ")**",
        -9.074299629870756
      ],
      [
        "log(",
        -9.115878020720118
      ],
      [
        "nd",
        -9.128765342674384
      ],
      [
        "*",
        -9.141923821551885
      ],
      [
        "'ω",
        -9.264968570825488
      ],
      [
        "'Y",
        -9.267599790991842
      ],
      [
        "Derivative(sqrt(",
        -9.284031890388611
      ],
      [
        "'Α",
        -9.293066151376504
      ],
      [
        "'Ν",
        -9.300352411225331
      ],
      [
        "'Χ",
        -9.326501084658371
      ],
      [
        "'ν",
        -9.32740680433962
      ],
      [
        "'R",
        -9.337275165271254
      ],
      [
        "'α",
        -9.337286310167269
      ],
      [
        "'θ",
        -9.348762489847283
      ],
      [
        "'Ε",
        -9.353379327552323
      ],
      [
        "'D",
        -9.354103112469032
      ],
      [
        "'Γ",
        -9.354626600650894
      ],
      [
        "'Σ",
        -9.355677568519544
      ],
      [
        "'ψ",
        -9.355772483429607
      ],
      [
        "'Ζ",
        -9.35605483979247
      ],
      [
        "'H",
        -9.356816638390717
      ],
      [
        "'ρ",
        -9.358401718994184
      ],
      [
        "'Κ",
        -9.358754290030312
      ],
      [
        "'Ρ",
        -9.361142807502905
      ],
      [
        "'h",
        -9.362220072170798
      ],
      [
        "'C",
        -9.368314303458517
      ],
      [
        "'Τ",
        -9.368774327771536
      ],
      [
        "'Β",
        -9.36897755181747
      ],
      [
        "'J",
        -9.37408171351828
      ],
      [
        "'υ",
        -9.376346213378538
      ],
      [
        "'Ξ",
        -9.377664070938028
      ],
      [
        "'γ",
        -9.380723129683316
      ],
      [
        ")/",
        -9.382318889824807
      ],
      [
        "'Μ",
        -9.38584705006074
      ],
      [
        "'U",
        -9.389805212351472
      ],
      [
        "'z",
        -9.39163806506193
      ],
      [
        "'V",
        -9.392127328389163
      ],
      [
        "'A",
        -9.399700316106166
      ],
      [
        "'Π",
        -9.400518875200165
      ],
      [
        "'Υ",
        -9.40294640515612
      ],
      [
        "'χ",
        -9.403135468793792
      ],
      [
        "'Ω",
        -9.403716151133116
      ],
      [
        "'Ι",
        -9.407753994367924
      ],
      [
        "'β",
        -9.408562197495163
      ],
      [
        "'Θ",
        -9.416768625753177
      ],
      [
        "'j",
        -9.416809107463166
      ],
      [
        "'σ",
        -9.41837402797858
      ],
      [
        "'λ",
        -9.41860346147009
      ],
      [
        "'ξ",
        -9.418958803717327
      ],
      [
        "'φ",
        -9.42304888691287
      ],
      [
        "'ε",
        -9.424376817854212
      ],
      [
        "'Δ",
        -9.424602036178625
      ],
      [
        "'δ",
        -9.431698953630995
      ],
      [
        "'W",
        -9.43368027745706
      ],
      [
        "'τ",
        -9.438999063964271
      ],
      [
        "'η",
        -9.440820360437892
      ],
      [
        "'Λ",
        -9.446127373342756
      ],
      [
        "'Z",
        -9.447521691128314
      ],
      [
        "'ζ",
        -9.449233004951092
      ],
      [
        "'F",
        -9.451322682380328
      ],
      [
        "'P",
        -9.452004895614408
      ],
      [
        "'ο",
        -9.457408629101977
      ],
      [
        "'K",
        -9.46013008962922
      ],
      [
        "'k",
        -9.461192878214
      ],
      [
        "'X",
        -9.461769297731664
      ],
      [
        "'Ο",
        -9.463767305455306
      ],
      [
        "'Η",
        -9.46573445576252
      ],
      [
        "'ι",
        -9.473638890290973
      ],
      [
        "'L",
        -9.47578759146752
      ],
      [
        "'g",
        -9.484813349646457
      ],
      [
        "'κ",
        -9.485429580888804
      ],
      [
        "'μ",
        -9.488708000924074
      ],
      [
        "'T",
        -9.489040966905772
      ],
      [
        "'M",
        -9.492997974239062
      ],
      [
        "'Φ",
        -9.495264867023728
      ],
      [
        "'G",
        -9.501503351147973
      ],
      [
        "'B",
        -9.509760409642707
      ],
      [
        "Derivative(-",
        -9.51857192492324
      ],
      [
        "'v",
        -9.5465398599617
      ],
      [
        "'Ψ",
        -9.546939893485096
      ],
      [
        "sqrt(",
        -9.559569891080312
      ],
      [
        "'f",
        -9.59392615014725
      ],
      [
        "Integral(-",
        -9.711734933042823
      ],
      [
        "Sum(-",
        -9.809987714069369
      ],
      [
        "5)))",
        -9.950219884394413
      ],
      [
        "2)",
        -9.972072478568933
      ],
      [
        "Derivative(log(",
        -9.978769276317337
      ],
      [
        "Integral(sqrt(",
        -10.012124623565937
      ],
      [
        "4)))",
        -10.057692320827702
      ],
      [
        "/mml:m",
        -10.061289420285526
      ],
      [
        "(Y",
        -10.064833367605708
      ],
      [
        "'a",
        -10.07741736224089
      ],
      [
        "1))",
        -10.101853888527094
      ],
      [
        "**",
        -10.106396187641462
      ],
      [
        "'x",
        -10.142697068547898
      ],
      [
        "3))",
        -10.147916480031013
      ],
      [
        "2))",
        -10.168961541386194
      ],
      [
        "(J",
        -10.175493290146472
      ],
      [
        "(Α",
        -10.175662176816392
      ],
      [
        "(H",
        -10.183153602287636
      ],
      [
        "'q",
        -10.194977461701486
      ],
      [
        "(R",
        -10.195887241813333
      ],
      [
        "/mml:mi",
        -10.206821307008994
      ],
      [
        "**(",
        -10.230238227167174
      ],
      [
        "(V",
        -10.230347472227194
      ],
      [
        "'u",
        -10.233710177905158
      ],
      [
        "Integral(log(",
        -10.238427148456092
      ],
      [
        "8))",
        -10.245066296769828
      ],
      [
        "(A",
        -10.25800964167108
      ],
      [
        "Sum(sqrt(",
        -10.28208974555221
      ],
      [
        "(Κ",
        -10.285366941765677
      ],
      [
        "(Ν",
        -10.290584448042514
      ],
      [
        "(ψ",
        -10.304363818162267
      ],
      [
        "(T",
        -10.31115747812676
      ],
      [
        "(ξ",
        -10.312026197455276
      ],
      [
        "(Z",
        -10.315553761762676
      ],
      [
        "(Β",
        -10.329384546461906
      ],
      [
        "(Τ",
        -10.330709442092145
      ],
      [
        "(Ι",
        -10.330879483041842
      ],
      [
        "(P",
        -10.332626893839276
      ],
      [
        "(Ξ",
        -10.336181950359212
      ],
      [
        "7)",
        -10.338467457858457
      ],
      [
        "1)",
        -10.340169950129065
      ],
      [
        "(-",
        -10.34030870287603
      ],
      [
        "'N",
        -10.347812257569249
      ],
      [
        "(U",
        -10.350330717069896
      ],
      [
        "(Υ",
        -10.361681028477197
      ],
      [
        "(D",
        -10.365554177781345
      ],
      [
        "(Σ",
        -10.36650438227386
      ],
      [
        "(z",
        -10.369783865265685
      ],
      [
        "(ω",
        -10.373499670066682
      ],
      [
        "(Θ",
        -10.376009226275006
      ],
      [
        "(L",
        -10.380530221052265
      ],
      [
        "Sum(log(",
        -10.385417003174584
      ],
      [
        "(N",
        -10.387850682106262
      ],
      [
        "(υ",
        -10.390890390686328
      ],
      [
        "(h",
        -10.39371980278253
      ],
      [
        "(k",
        -10.396007710920156
      ],
      [
        "(Ζ",
        -10.396940310379666
      ],
      [
        "(j",
        -10.399948664283738
      ],
      [
        "6))",
        -10.401116819596124
      ],
      [
        "(B",
        -10.40281675023229
      ],
      [
        "(W",
        -10.404149656601476
      ],
      [
        "(Δ",
        -10.4048199773292
      ],
      [
        "(Μ",
        -10.40502851396927
      ],
      [
        "ml:mi",
        -10.40852464806458
      ],
      [
        "(Χ",
        -10.409546897811635
      ],
      [
        "(δ",
        -10.414890257386848
      ],
      [
        "(μ",
        -10.415075788618584
      ],
      [
        "9)",
        -10.415487662865669
      ],
      [
        "(G",
        -10.41758770433609
      ],
      [
        "(C",
        -10.418744090688104
      ],
      [
        "'t",
        -10.420353467422624
      ],
      [
        "(ζ",
        -10.423692279628645
      ],
      [
        "5)",
        -10.424015053564004
      ],
      [
        "7))",
        -10.425980823608402
      ],
      [
        "3)",
        -10.42981585849882
      ],
      [
        "(Ο",
        -10.436096471233292
      ],
      [
        "(θ",
        -10.437937430221291
      ],
      [
        "(α",
        -10.44212474881052
      ],
      [
        "(ν",
        -10.443089691560898
      ],
      [
        "9))",
        -10.44515922755695
      ],
      [
        "(γ",
        -10.445733038116128
      ],
      [
        "(Η",
        -10.453737117454416
      ],
      [
        "(Π",
        -10.468156256795886
      ],
      [
        "(ρ",
        -10.470191278427365
      ],
      [
        "4)",
        -10.482398614308412
      ],
      [
        "(K",
        -10.482642442781168
      ],
      [
        "(χ",
        -10.488099856679352
      ],
      [
        "(Λ",
        -10.491558974617806
      ],
      [
        "(Γ",
        -10.492639351204549
      ],
      [
        "'Q",
        -10.49524492179298
      ],
      [
        "(Ω",
        -10.50404007733487
      ],
      [
        "(ε",
        -10.513685254703308
      ],
      [
        "'p",
        -10.514868463813077
      ],
      [
        "(X",
        -10.517808460104986
      ],
      [
        "(τ",
        -10.52181646293918
      ],
      [
        "(Ε",
        -10.522120747437226
      ],
      [
        "(F",
        -10.522753159100256
      ],
      [
        "(ι",
        -10.527328959252236
      ],
      [
        "(β",
        -10.532147428310315
      ],
      [
        "(φ",
        -10.550031938419131
      ],
      [
        "(M",
        -10.550601633177177
      ],
      [
        "6)",
        -10.561459098131778
      ],
      [
        "(κ",
        -10.5643215886511
      ],
      [
        "(σ",
        -10.56692279549829
      ],
      [
        "(g",
        -10.569739377561238
      ],
      [
        "8)",
        -10.574118682807242
      ],
      [
        "(ο",
        -10.592613526875605
      ],
      [
        "(Ρ",
        -10.596447689057406
      ],
      [
        "(η",
        -10.608312491635669
      ],
      [
        "(Q",
        -10.60871297425854
      ],
      [
        "(λ",
        -10.61074117441052
      ],
      [
        ")/2)",
        -10.646488055219544
      ],
      [
        "(v",
        -10.648638857106125
      ],
      [
        "(Ψ",
        -10.6730848288423
      ],
      [
        "'I",
        -10.684509499585936
      ],
      [
        "'s",
        -10.695433961199782
      ],
      [
        "(f",
        -10.737345946668777
      ],
      [
        "'O",
        -10.748046987594272
      ],
      [
        "(Φ",
        -10.79425062501154
      ],
      [
        "(I",
        -10.816202840827486
      ],
      [
        "mml:mf",
        -10.868303288507336
      ],
      [
        "(O",
        -10.87576763840764
      ],
      [
        "/2)",
        -10.902146048664694
      ],
      [
        "Σ))",
        -10.991454500074564
      ],
      [
        "ψ))",
        -11.0223713143448
      ],
      [
        "Ω))",
        -11.0503810618039
      ],
      [
        "(j)",
        -11.07397830100897
      ],
      [
        "ρ))",
        -11.082190566565314
      ],
      [
        "(Ν)",
        -11.104539578775606
      ],
      [
        "(η)",
        -11.12160865348897
      ],
      [
        ")/log(",
        -11.122613794472691
      ],
      [
        ")**(sqrt(",
        -11.129405612945718
      ],
      [
        "Τ))",
        -11.13367771159533
      ],
      [
        "j))",
        -11.136119730969927
      ],
      [
        "Π))",
        -11.144127789102283
      ],
      [
        "(z)",
        -11.149003124582135
      ],
      [
        "Χ))",
        -11.15300005477347
      ],
      [
        "mml:msub",
        -11.154732538080136
      ],
      [
        "(s",
        -11.163140347818446
      ],
      [
        "β))",
        -11.165130277305131
      ],
      [
        "'d",
        -11.16744970869424
      ],
      [
        "(ω)",
        -11.182509155712289
      ],
      [
        "(v)",
        -11.18603287191694
      ],
      [
        "/8)",
        -11.187983105824488
      ],
      [
        "(Ε)",
        -11.19640047007173
      ],
      [
        "Α))",
        -11.197951502052462
      ],
      [
        "Η))",
        -11.200785669963327
      ],
      [
        "Ε))",
        -11.205050532296005
      ],
      [
        "(t)",
        -11.206514098248768
      ],
      [
        "(Φ)",
        -11.207693606107208
      ],
      [
        "γ))",
        -11.211592726936995
      ],
      [
        "-sqrt(",
        -11.215974257929274
      ],
      [
        ")/sqrt(",
        -11.216404535026951
      ],
      [
        "ω))",
        -11.222051847521625
      ],
      [
        "F))",
        -11.230998210089387
      ],
      [
        "(Y)",
        -11.24634976564403
      ],
      [
        "φ))",
        -11.25819023344054
      ],
      [
        "z))",
        -11.259480038646052
      ],
      [
        ")*log(",
        -11.26130594553289
      ],
      [
        "λ))",
        -11.269703268793045
      ],
      [
        ")/2))",
        -11.271844485558612
      ],
      [
        "(D)",
        -11.276572404657996
      ],
      [
        "(χ)",
        -11.2820872240351
      ],
      [
        "ν))",
        -11.287257995457642
      ],
      [
        "(g)",
        -11.301350010374325
      ],
      [
        "(ρ)",
        -11.303142877652723
      ],
      [
        "Ξ))",
        -11.303948784762309
      ],
      [
        "η))",
        -11.306101457416489
      ],
      [
        "(F)",
        -11.308265989792016
      ],
      [
        "(E)",
        -11.315378984409
      ],
      [
        "(q",
        -11.315621553952226
      ],
      [
        "(x",
        -11.322026083346843
      ],
      [
        "(s)",
        -11.33433202770674
      ],
      [
        "(σ)",
        -11.336438694270388
      ],
      [
        "ε))",
        -11.339439863523976
      ],
      [
        "5))",
        -11.348772886830655
      ],
      [
        "(Χ)",
        -11.356718689539834
      ],
      [
        "δ))",
        -11.361535513151804
      ],
      [
        "(a)",
        -11.363020126242292
      ],
      [
        "(u)",
        -11.36471428286084
      ],
      [
        "(C)",
        -11.367263189742612
      ],
      [
        "Υ))",
        -11.368479514616396
      ],
      [
        "V))",
        -11.36966735115508
      ],
      [
        "(θ)",
        -11.37016028926888
      ],
      [
        "μ))",
        -11.372568983942308
      ],
      [
        "Δ))",
        -11.373866757734772
      ],
      [
        "(u",
        -11.375324330860431
      ],
      [
        "(f)",
        -11.375956020739508
      ],
      [
        "Sum(-sqrt(",
        -11.37731342682006
      ],
      [
        "(a",
        -11.37865404572711
      ],
      [
        "(J)",
        -11.379366134792974
      ],
      [
        ")**log(",
        -11.38247080962622
      ],
      [
        "**Rational(",
        -11.383054448633494
      ],
      [
        "(μ)",
        -11.387009994978508
      ],
      [
        "/9)",
        -11.387137621096588
      ],
      [
        "U))",
        -11.395039295353296
      ],
      [
        "(λ)",
        -11.39599316425867
      ],
      [
        "D))",
        -11.397315457937797
      ],
      [
        "B))",
        -11.400567366470543
      ],
      [
        "(Ρ)",
        -11.405178947164597
      ],
      [
        "(Ζ)",
        -11.405911514526018
      ],
      [
        "(Δ)",
        -11.406976532794424
      ],
      [
        "Ι))",
        -11.408121812137148
      ],
      [
        "(8*",
        -11.411135087300403
      ],
      [
        "(Μ)",
        -11.413751214577404
      ],
      [
        "(h)",
        -11.41587527480458
      ],
      [
        "Ρ))",
        -11.415935005608508
      ],
      [
        "Ο))",
        -11.416632002368688
      ],
      [
        "(X)",
        -11.418019819339522
      ],
      [
        "σ))",
        -11.418586202674174
      ],
      [
        "(Τ)",
        -11.422400311706935
      ],
      [
        "(Α)",
        -11.427806069989115
      ],
      [
        "Κ))",
        -11.43565031561135
      ],
      [
        "ξ))",
        -11.436744824394774
      ],
      [
        "Integral(-sqrt(",
        -11.437071317035114
      ],
      [
        "/5)",
        -11.43786752926384
      ],
      [
        "υ))",
        -11.442949482639383
      ],
      [
        "k))",
        -11.443117300829815
      ],
      [
        "Γ))",
        -11.443387121135911
      ],
      [
        "(ν)",
        -11.443508964056546
      ],
      [
        "h))",
        -11.443686521827225
      ],
      [
        "(Η)",
        -11.444375951968626
      ],
      [
        "κ))",
        -11.446039627338507
      ],
      [
        "'y",
        -11.449318015559651
      ],
      [
        "ο))",
        -11.452530013285651
      ],
      [
        "θ))",
        -11.454043085365797
      ],
      [
        "Ζ))",
        -11.45942920195042
      ],
      [
        "(T)",
        -11.461103830470268
      ],
      [
        "(U)",
        -11.465024771160143
      ],
      [
        "(d)",
        -11.465123683522558
      ],
      [
        "(ψ)",
        -11.466383567526393
      ],
      [
        "(4*",
        -11.475200884152931
      ],
      [
        "M))",
        -11.476328850754804
      ],
      [
        "Λ))",
        -11.477258161328642
      ],
      [
        "g))",
        -11.479934760928575
      ],
      [
        "(ζ)",
        -11.480754992551422
      ],
      [
        "(τ)",
        -11.486112254484858
      ],
      [
        "'c",
        -11.486754808896809
      ],
      [
        "(ξ)",
        -11.488554855530866
      ],
      [
        "**2)",
        -11.489759575609916
      ],
      [
        "χ))",
        -11.49197116690928
      ],
      [
        "(Ξ)",
        -11.492001012824137
      ],
      [
        "(Γ)",
        -11.49401434941462
      ],
      [
        "(ο)",
        -11.501374896181442
      ],
      [
        "τ))",
        -11.50245661181515
      ],
      [
        "Φ))",
        -11.50443922221758
      ],
      [
        "(υ)",
        -11.507245047861264
      ],
      [
        "(p)",
        -11.514093557547536
      ],
      [
        "(Β)",
        -11.51464504293031
      ],
      [
        "Μ))",
        -11.51692897834752
      ],
      [
        "W))",
        -11.517614349870474
      ],
      [
        "**6)",
        -11.519464531118553
      ],
      [
        "(K)",
        -11.519700601809404
      ],
      [
        "(Π)",
        -11.522804501497754
      ],
      [
        "ι))",
        -11.52467336567836
      ],
      [
        "(k)",
        -11.525474057640835
      ],
      [
        "(7*",
        -11.52600490384176
      ],
      [
        "(H)",
        -11.527969497937656
      ],
      [
        "Β))",
        -11.531660527355609
      ],
      [
        "(φ)",
        -11.53490534610615
      ],
      [
        "(γ)",
        -11.53492857596846
      ],
      [
        "(Υ)",
        -11.542342137839428
      ],
      [
        "(ε)",
        -11.54361180597849
      ],
      [
        "Θ))",
        -11.54726080556076
      ],
      [
        "Ν))",
        -11.55407904031068
      ],
      [
        "(Σ)",
        -11.554991949302876
      ],
      [
        "(Ο)",
        -11.555340334491532
      ],
      [
        "K))",
        -11.558515963668938
      ],
      [
        "(c)",
        -11.560634424098732
      ],
      [
        "(A)",
        -11.560817725128684
      ],
      [
        "T))",
        -11.562048261774375
      ],
      [
        "(l)",
        -11.56279627948544
      ],
      [
        "(W)",
        -11.565891317403368
      ],
      [
        "R))",
        -11.569905717711588
      ],
      [
        ")**(",
        -11.570008554886718
      ],
      [
        "/mml:mf",
        -11.573847556452815
      ],
      [
        "t))",
        -11.579530056515193
      ],
      [
        "(κ)",
        -11.580453247333384
      ],
      [
        "(p",
        -11.583343253332584
      ],
      [
        "(V)",
        -11.583748709097891
      ],
      [
        "L))",
        -11.589627741075368
      ],
      [
        "v))",
        -11.591702932546095
      ],
      [
        "4*",
        -11.60534807593473
      ],
      [
        "(Ω)",
        -11.608712534782075
      ],
      [
        "(M)",
        -11.611739553749514
      ],
      [
        "H))",
        -11.617787246960477
      ],
      [
        "(5*",
        -11.621142715337504
      ],
      [
        "6*",
        -11.623711162690824
      ],
      [
        "(Κ)",
        -11.626294146452423
      ],
      [
        "G))",
        -11.627797308679726
      ],
      [
        "(Ψ)",
        -11.632466624599084
      ],
      [
        "Y))",
        -11.637205927231582
      ],
      [
        "**4)",
        -11.63747332635854
      ],
      [
        "(b)",
        -11.639050764107632
      ],
      [
        "(ι)",
        -11.639079241606282
      ],
      [
        "'b",
        -11.639231293633568
      ],
      [
        "Ψ))",
        -11.643179006428152
      ],
      [
        "5*",
        -11.645138239391732
      ],
      [
        "(9*",
        -11.64761845364227
      ],
      [
        "3*",
        -11.650698824311782
      ],
      [
        "J))",
        -11.656716806326608
      ],
      [
        "7*",
        -11.659253317848956
      ],
      [
        "P))",
        -11.6607214660332
      ],
      [
        "(R)",
        -11.660773825603826
      ],
      [
        "(β)",
        -11.660983704592285
      ],
      [
        "ζ))",
        -11.663835350441202
      ],
      [
        "u))",
        -11.66871284545405
      ],
      [
        "(G)",
        -11.675992309648432
      ],
      [
        "(Z)",
        -11.679399865251614
      ],
      [
        "**5)",
        -11.681033112094074
      ],
      [
        "(P)",
        -11.685013666320833
      ],
      [
        "X))",
        -11.690444298904904
      ],
      [
        "Z))",
        -11.691424951092385
      ],
      [
        "(y)",
        -11.692814316520158
      ],
      [
        "(3*",
        -11.693685357900335
      ],
      [
        "(δ)",
        -11.697900588467675
      ],
      [
        "(6*",
        -11.701837940867794
      ],
      [
        "2)*",
        -11.70826640449507
      ],
      [
        "f))",
        -11.719404029018795
      ],
      [
        "a))",
        -11.724497885630816
      ],
      [
        "(Λ)",
        -11.728027907755422
      ],
      [
        "α))",
        -11.740113156306542
      ],
      [
        ")/3",
        -11.742097691512765
      ],
      [
        "Derivative(-log(",
        -11.742955226301872
      ],
      [
        "*log(",
        -11.74813759104106
      ],
      [
        "9*",
        -11.75770261650106
      ],
      [
        "**9)",
        -11.760343874434966
      ],
      [
        ")/6",
        -11.761812062205877
      ],
      [
        "(t",
        -11.766027213578646
      ],
      [
        "(α)",
        -11.767819987739326
      ],
      [
        "A))",
        -11.774283613629212
      ],
      [
        "**8)",
        -11.780307972027844
      ],
      [
        "C))",
        -11.783882249894456
      ],
      [
        "2*",
        -11.786148841926323
      ],
      [
        "cosh",
        -11.787345588771174
      ],
      [
        "/3)",
        -11.805058732552933
      ],
      [
        "(x)",
        -11.809902739350491
      ],
      [
        "Integral(-log(",
        -11.816591445824647
      ],
      [
        "(q)",
        -11.8311337823337
      ],
      [
        "/7)",
        -11.833142322010149
      ],
      [
        "8*",
        -11.83519093616207
      ],
      [
        "**(sqrt(",
        -11.850626670593476
      ],
      [
        "(B)",
        -11.851965118440695
      ],
      [
        "/2))",
        -11.866227721790686
      ],
      [
        "(ζ))",
        -11.866277677733386
      ],
      [
        "-log(",
        -11.872423014672943
      ],
      [
        "/mml:msub",
        -11.873598508069518
      ],
      [
        "/6)",
        -11.877202111482244
      ],
      [
        "4))",
        -11.89474337739948
      ],
      [
        "Sum(-log(",
        -11.897065387477738
      ],
      [
        "(n)",
        -11.923900436518286
      ],
      [
        ")/5",
        -11.92729053997916
      ],
      [
        "(2*",
        -11.934773929167196
      ],
      [
        "(E",
        -11.943611208741164
      ],
      [
        "**(log(",
        -11.954848899464508
      ],
      [
        "(o)",
        -11.967609560327077
      ],
      [
        "4)*",
        -11.96998643052753
      ],
      [
        "(w)",
        -11.989873751199752
      ],
      [
        "'E",
        -11.994638597529704
      ],
      [
        "Φ)))",
        -12.007298854792127
      ],
      [
        "**3)",
        -12.00908040044267
      ],
      [
        "mml:msu",
        -12.011131312826343
      ],
      [
        "(Θ)",
        -12.017754061976923
      ],
      [
        "R)))",
        -12.021213305683858
      ],
      [
        "'Β_",
        -12.028412758943828
      ],
      [
        "(f))",
        -12.032149258230817
      ],
      [
        "/4)",
        -12.035793280623905
      ],
      [
        "(ι))",
        -12.040121796819523
      ],
      [
        "(c))",
        -12.04698447674379
      ],
      [
        "**7)",
        -12.055691768276642
      ],
      [
        "*sqrt(",
        -12.064732392364007
      ],
      [
        "(Ι)",
        -12.065044602287346
      ],
      [
        "(i)",
        -12.081784903525207
      ],
      [
        "(r)",
        -12.087269194342936
      ],
      [
        "**6))",
        -12.090325842776542
      ],
      [
        "_",
        -12.090422661073406
      ],
      [
        "3)*",
        -12.101361356690674
      ],
      [
        "8)*",
        -12.111440521636306
      ],
      [
        "(F)*",
        -12.11914357418949
      ],
      [
        "(Ξ))",
        -12.121371025490824
      ],
      [
        "(L)",
        -12.1224234943649
      ],
      [
        "(m)",
        -12.128563479264551
      ],
      [
        ")/8",
        -12.132202830299567
      ],
      [
        ")/4",
        -12.150261067835686
      ],
      [
        "(τ))",
        -12.150397225806977
      ],
      [
        "α)))",
        -12.155105795750174
      ],
      [
        "(β))",
        -12.156030224331875
      ],
      [
        "κ)",
        -12.171526072698748
      ],
      [
        "**9))",
        -12.173825159709104
      ],
      [
        "(Χ))",
        -12.176942775915652
      ],
      [
        "(ο))",
        -12.179607419226546
      ],
      [
        "p))",
        -12.182671131984495
      ],
      [
        "'n",
        -12.187379550551585
      ],
      [
        "qrt",
        -12.19669740017062
      ],
      [
        "6)*",
        -12.214295733037718
      ],
      [
        "(Ζ))",
        -12.21682304603693
      ],
      [
        "(λ))",
        -12.223644505376177
      ],
      [
        "(D))",
        -12.225565082510323
      ],
      [
        ")/7",
        -12.228197976687252
      ],
      [
        "(q)**",
        -12.247043395561246
      ],
      [
        "Ν)))",
        -12.267859536715717
      ],
      [
        "(W))",
        -12.274449918862382
      ],
      [
        "(ε))",
        -12.2773513486955
      ],
      [
        "Integral(4*",
        -12.292878854625789
      ],
      [
        "'Σ_",
        -12.303298130321233
      ],
      [
        "log(-",
        -12.304126515465654
      ],
      [
        "(θ))",
        -12.305322719616916
      ],
      [
        "c))",
        -12.308834530743486
      ],
      [
        "Ρ)))",
        -12.311205367293326
      ],
      [
        "(d",
        -12.31218390365238
      ],
      [
        "q))",
        -12.312486447926888
      ],
      [
        "'r_",
        -12.315397901793048
      ],
      [
        "(σ))",
        -12.318430536003063
      ],
      [
        "(b)**",
        -12.323420104490522
      ],
      [
        "'l_",
        -12.32649528926131
      ],
      [
        "(Μ)**",
        -12.331894315311503
      ],
      [
        "ρ)",
        -12.332510376099572
      ],
      [
        ")/9",
        -12.333010077072204
      ],
      [
        "'τ_",
        -12.335381070667152
      ],
      [
        "'S_",
        -12.34053124277344
      ],
      [
        "(Ω)**",
        -12.342328853634244
      ],
      [
        "'p_",
        -12.34601978470737
      ],
      [
        ")**7",
        -12.351313480304484
      ],
      [
        "(κ))",
        -12.363757438236092
      ],
      [
        "(Y)**",
        -12.3650514210392
      ],
      [
        "(E))",
        -12.3652661786973
      ],
      [
        "(Ν))",
        -12.365339453141148
      ],
      [
        "(h))",
        -12.36674217030749
      ],
      [
        "s))",
        -12.370326746905295
      ],
      [
        "9)*",
        -12.370742495223638
      ],
      [
        "(F))",
        -12.372889926215972
      ],
      [
        "</mml:ms",
        -12.37306460765846
      ],
      [
        "C)))",
        -12.403348561714957
      ],
      [
        "(X))",
        -12.413038219454698
      ],
      [
        "θ)))",
        -12.414007866054773
      ],
      [
        "'Ω_",
        -12.42120153867982
      ],
      [
        "d))",
        -12.42609989496192
      ],
      [
        "(Τ))",
        -12.431176240122952
      ],
      [
        "(X)/",
        -12.4382718956161
      ],
      [
        "'y_",
        -12.441144833262646
      ],
      [
        "(ν)**",
        -12.44150345111175
      ],
      [
        "(Κ))",
        -12.445852093026703
      ],
      [
        "'M_",
        -12.449165707077466
      ],
      [
        "(Υ))",
        -12.449220672608536
      ],
      [
        "(Ρ_",
        -12.450341341514749
      ],
      [
        "(β)**",
        -12.4503913145556
      ],
      [
        ")**3",
        -12.451649934883736
      ],
      [
        "y))",
        -12.455188203749069
      ],
      [
        "<mml:ms",
        -12.456048403274355
      ],
      [
        "(ω))",
        -12.456248161367215
      ],
      [
        "(z))",
        -12.45633330708191
      ],
      [
        "'ψ_",
        -12.463319270793068
      ],
      [
        "Λ)",
        -12.466997651939591
      ],
      [
        "(Β))",
        -12.468761043250234
      ],
      [
        "5)*",
        -12.472469473032406
      ],
      [
        "(Ζ)*",
        -12.475126582571704
      ],
      [
        "(n))",
        -12.479084811680732
      ],
      [
        "log(v)",
        -12.482551852386848
      ],
      [
        "'O_",
        -12.484253310050722
      ],
      [
        "(μ))",
        -12.493798165372532
      ],
      [
        "'f_",
        -12.499234284816357
      ],
      [
        "x))",
        -12.506065969274625
      ],
      [
        "(b))",
        -12.508487000695364
      ],
      [
        "'ε_",
        -12.511280679761096
      ],
      [
        "'i_",
        -12.511935278786904
      ],
      [
        "'Ι_",
        -12.512020926865588
      ],
      [
        "(Ι))",
        -12.512664784067203
      ],
      [
        "'Γ_",
        -12.524622526674666
      ],
      [
        "(Ψ)**",
        -12.526539581438204
      ],
      [
        "'d_",
        -12.526798965762154
      ],
      [
        "(k))",
        -12.5300186662455
      ],
      [
        "(g)/",
        -12.531960204656976
      ],
      [
        "(A)**",
        -12.53782346913372
      ],
      [
        "Sum(5*",
        -12.538207616142016
      ],
      [
        "(j)**",
        -12.539202423456432
      ],
      [
        "'A_",
        -12.544917347594126
      ],
      [
        "'α_",
        -12.545881622915903
      ],
      [
        "Sum(3*",
        -12.548637750291988
      ],
      [
        "(δ)**",
        -12.552363146490244
      ],
      [
        "(P)**",
        -12.552960444159313
      ],
      [
        "'ν_",
        -12.554969303637886
      ],
      [
        "'g_",
        -12.557862861474211
      ],
      [
        "'K_",
        -12.561625473253589
      ],
      [
        ")/3)",
        -12.564850168303316
      ],
      [
        "ε)",
        -12.568316802578195
      ],
      [
        "Κ)",
        -12.574762121274611
      ],
      [
        "(ν))",
        -12.583180651819488
      ],
      [
        "**8))",
        -12.585165452509113
      ],
      [
        "(γ))",
        -12.585660121542247
      ],
      [
        ")/4)",
        -12.594381741166783
      ],
      [
        ")/(log(",
        -12.594440492999317
      ],
      [
        "**2",
        -12.599698019954111
      ],
      [
        "(δ))",
        -12.608161633388525
      ],
      [
        "'Ν_",
        -12.608393050144889
      ],
      [
        "'η_",
        -12.610592116393304
      ],
      [
        "(Σ)**",
        -12.611894450687734
      ],
      [
        "(Z))",
        -12.614416940358224
      ],
      [
        "ψ)",
        -12.616450542250377
      ],
      [
        "16",
        -12.619550636167876
      ],
      [
        "(c)/",
        -12.620174677557474
      ],
      [
        "α)",
        -12.622233601948087
      ],
      [
        "Α)",
        -12.62562566244782
      ],
      [
        "(Ω))",
        -12.627799306839895
      ],
      [
        "(O_",
        -12.62824595616548
      ],
      [
        "'Χ_",
        -12.628866157969243
      ],
      [
        "(H))",
        -12.629533254222595
      ],
      [
        "Derivative(9*",
        -12.631241280738642
      ],
      [
        "/2)*",
        -12.632127619509838
      ],
      [
        "(Ι_",
        -12.63377981644838
      ],
      [
        "'R_",
        -12.634374475922083
      ],
      [
        "'Θ_",
        -12.636398762377882
      ],
      [
        "'o_",
        -12.637864138864774
      ],
      [
        "**3))",
        -12.639887568948732
      ],
      [
        "(ι)/",
        -12.641387960275829
      ],
      [
        "4)**",
        -12.642926671113372
      ],
      [
        "(φ))",
        -12.64894939250907
      ],
      [
        "(J)**",
        -12.651154885301525
      ],
      [
        "sqrt(δ)",
        -12.651896388864635
      ],
      [
        "(A))",
        -12.654654360541391
      ],
      [
        "'ρ_",
        -12.656442217933574
      ],
      [
        ")/5)",
        -12.656623299549652
      ],
      [
        "'U_",
        -12.657572862964988
      ],
      [
        ")**6",
        -12.65782275246075
      ],
      [
        "sqrt(5)*sqrt(",
        -12.660780163412626
      ],
      [
        "(Δ)/",
        -12.66404359576076
      ],
      [
        "q)))",
        -12.665496836008804
      ],
      [
        "(ρ))",
        -12.66890811177332
      ],
      [
        "1)*",
        -12.673026658683598
      ],
      [
        "(d))",
        -12.673495710962042
      ],
      [
        "log(U)",
        -12.677857321216784
      ],
      [
        ")/2",
        -12.678126359751037
      ],
      [
        "'υ_",
        -12.68105129231476
      ],
      [
        "(ψ)**",
        -12.685144979649603
      ],
      [
        "(α_",
        -12.686387339873557
      ],
      [
        "(ψ_",
        -12.688031553284976
      ],
      [
        "(Ψ)/",
        -12.6881766083775
      ],
      [
        "'P_",
        -12.689068496748614
      ],
      [
        "(p))",
        -12.689591673739717
      ],
      [
        "(λ)**",
        -12.690639897336906
      ],
      [
        "'Ξ_",
        -12.692449212385077
      ],
      [
        "(y",
        -12.69676336591204
      ],
      [
        "/log(",
        -12.700004831239667
      ],
      [
        "(q))",
        -12.704759594309811
      ],
      [
        "(Ι)**",
        -12.70591462518992
      ],
      [
        "log(δ)",
        -12.706740262834678
      ],
      [
        "Μ_k",
        -12.707302358382211
      ],
      [
        "(τ_",
        -12.7075168880189
      ],
      [
        "(Θ))",
        -12.7078232046602
      ],
      [
        "(Λ)/",
        -12.718464756760188
      ],
      [
        "(o))",
        -12.718478471045454
      ],
      [
        "'Μ_",
        -12.71958484022562
      ],
      [
        "12",
        -12.719898278780144
      ],
      [
        "log(Μ)",
        -12.727001467308892
      ],
      [
        "E_K",
        -12.72882687441973
      ],
      [
        "/7))",
        -12.730608023241787
      ],
      [
        "log(w)",
        -12.73147555824852
      ],
      [
        "'Λ_",
        -12.732443894344922
      ],
      [
        ")**2",
        -12.733050735859376
      ],
      [
        "sqrt(3)*sqrt(",
        -12.733197516423951
      ],
      [
        "'T_",
        -12.733884600854042
      ],
      [
        "Ω)",
        -12.73458608039265
      ],
      [
        "(Γ)**",
        -12.736152530178202
      ],
      [
        ")/7)",
        -12.739192142131648
      ],
      [
        "(Y)/",
        -12.740263131441871
      ],
      [
        "log(G)",
        -12.74031604229227
      ],
      [
        "(ο)**",
        -12.74151490328608
      ],
      [
        "(Β_",
        -12.741611994181469
      ],
      [
        "/mml:msu",
        -12.742886597414032
      ],
      [
        "(L))",
        -12.745830856139742
      ],
      [
        "'s_",
        -12.747552612981837
      ],
      [
        "(U_",
        -12.74783395287288
      ],
      [
        "log(z)",
        -12.747893267155163
      ],
      [
        "'L_",
        -12.748042123625725
      ],
      [
        "(Κ)**",
        -12.748836409285763
      ],
      [
        "Integral(9*",
        -12.74914122134579
      ],
      [
        "(μ)/",
        -12.749248998439947
      ],
      [
        "Integral(2*",
        -12.74950195876545
      ],
      [
        "(W)*",
        -12.750823731733847
      ],
      [
        "(Ε)/",
        -12.750961734583022
      ],
      [
        "(D)/",
        -12.751972694481026
      ],
      [
        "(W)**",
        -12.752350842818016
      ],
      [
        "'Ψ_",
        -12.75283278096991
      ],
      [
        "(a)**",
        -12.753235916565238
      ],
      [
        "(v_",
        -12.754307444726145
      ],
      [
        "'H_",
        -12.755517128253675
      ],
      [
        "7)*",
        -12.757018788923082
      ],
      [
        ")/6)",
        -12.760527002157042
      ],
      [
        "(χ))",
        -12.76394623031077
      ],
      [
        "_Ψ",
        -12.766577754345686
      ],
      [
        "I_Φ",
        -12.76869999911176
      ],
      [
        "**4))",
        -12.769666650901144
      ],
      [
        "sqrt(D)",
        -12.77251084130266
      ],
      [
        "ζ)",
        -12.774628554865046
      ],
      [
        "log(Η)",
        -12.77915726774439
      ],
      [
        "'Ρ_",
        -12.781976051385053
      ],
      [
        "(ζ)/",
        -12.783367496373176
      ],
      [
        "(r)*",
        -12.784330008295774
      ],
      [
        "Sum(4*",
        -12.785747570174346
      ],
      [
        "Σ)",
        -12.788148384932038
      ],
      [
        "(M)/",
        -12.789076749438337
      ],
      [
        "(H_",
        -12.790027620435444
      ],
      [
        "(η)**",
        -12.7922914460093
      ],
      [
        "(Μ))",
        -12.792768129727168
      ],
      [
        "(g_",
        -12.793451188885976
      ],
      [
        "_b))",
        -12.798931712756058
      ],
      [
        "(Π)**",
        -12.800938459803351
      ],
      [
        "(Σ_",
        -12.801397018298466
      ],
      [
        "(u)*",
        -12.80251799563294
      ],
      [
        "Derivative(2*",
        -12.80297340067946
      ],
      [
        "_γ",
        -12.80322128545892
      ],
      [
        "(Rational(",
        -12.803683965886442
      ],
      [
        "δ)",
        -12.804465896980863
      ],
      [
        "ε_h",
        -12.807323519860194
      ],
      [
        "ω)",
        -12.807611370112154
      ],
      [
        "(b",
        -12.810673534861191
      ],
      [
        "Ο_Η",
        -12.811671799316626
      ],
      [
        ")/2)/",
        -12.813781879800324
      ],
      [
        "(Κ_",
        -12.814505268664671
      ],
      [
        "(c",
        -12.81456175443753
      ],
      [
        "**4",
        -12.815296741310778
      ],
      [
        "(Χ)/",
        -12.816405431924034
      ],
      [
        "(P))",
        -12.819334505700493
      ],
      [
        "/6))",
        -12.822824180427858
      ],
      [
        "'w",
        -12.823570535728722
      ],
      [
        "log(p)",
        -12.824015012240077
      ],
      [
        "'ω_",
        -12.824057420147046
      ],
      [
        "'n_",
        -12.82435364803667
      ],
      [
        "log(x)",
        -12.825957163626404
      ],
      [
        "(τ)/",
        -12.82724611560802
      ],
      [
        "(ρ)/",
        -12.829992050023218
      ],
      [
        "(Θ)**",
        -12.832410493026522
      ],
      [
        "(Η)**",
        -12.832634221035196
      ],
      [
        "log(Σ)",
        -12.83284390668254
      ],
      [
        "(G)**",
        -12.834947979832371
      ],
      [
        "Ν)",
        -12.840183131084366
      ],
      [
        "'D_",
        -12.841013281437569
      ],
      [
        "log(Θ)",
        -12.84220956455474
      ],
      [
        "(Δ)**",
        -12.843078694981878
      ],
      [
        "log(t)",
        -12.844367932475905
      ],
      [
        "'E_",
        -12.84468588140523
      ],
      [
        "(B))",
        -12.845436652214048
      ],
      [
        "log(8*",
        -12.846536007230116
      ],
      [
        "log(Α)",
        -12.84680663352919
      ],
      [
        "'N_",
        -12.847216662909936
      ],
      [
        "(σ)/",
        -12.847257969084149
      ],
      [
        "y_Ο",
        -12.849062692319764
      ],
      [
        "'J_",
        -12.84994007392992
      ],
      [
        "sqrt(γ)",
        -12.853667460228412
      ],
      [
        "sqrt(f)",
        -12.854069287416896
      ],
      [
        "log(h)",
        -12.855394123725755
      ],
      [
        "(α))",
        -12.85647852645092
      ],
      [
        "ο_U",
        -12.859640647101504
      ],
      [
        "(V))",
        -12.860142290170735
      ],
      [
        "(Ρ)/",
        -12.8612732499045
      ],
      [
        "(Α)**",
        -12.86165626761765
      ],
      [
        "(b_",
        -12.861672162476118
      ],
      [
        "(x)*",
        -12.861868783872318
      ],
      [
        "(Γ))",
        -12.861937881137218
      ],
      [
        "(Λ))",
        -12.862291142784072
      ],
      [
        "(Μ)/",
        -12.863034870895426
      ],
      [
        "(Ο)/",
        -12.863173770358678
      ],
      [
        "(V)**",
        -12.865481015067823
      ],
      [
        "(n)/",
        -12.868639535409766
      ],
      [
        "(P_",
        -12.86872825237886
      ],
      [
        "'ξ_",
        -12.86952610740375
      ],
      [
        "υ)",
        -12.869714010572675
      ],
      [
        "(M)**",
        -12.870003108107577
      ],
      [
        "'Κ_",
        -12.870991502678812
      ],
      [
        "Sum(9*",
        -12.871363921174108
      ],
      [
        "*Ω)",
        -12.871495481443429
      ],
      [
        "f*",
        -12.871688120236112
      ],
      [
        "'I_",
        -12.872921129820872
      ],
      [
        ")**6)",
        -12.872981093738089
      ],
      [
        "(v)*",
        -12.87407291065978
      ],
      [
        ")/(",
        -12.87411108863854
      ],
      [
        "Ζ)",
        -12.8748577416017
      ],
      [
        "(U)**",
        -12.875432253252647
      ],
      [
        "(Β)**",
        -12.875865679491902
      ],
      [
        "'Y_",
        -12.877753490549878
      ],
      [
        "(Ν_",
        -12.878958640774838
      ],
      [
        "Derivative(8*",
        -12.87967893300402
      ],
      [
        "(q)/",
        -12.879999080067616
      ],
      [
        "(Α))",
        -12.880170197424016
      ],
      [
        "(B)**",
        -12.880222939681923
      ],
      [
        "(R)*",
        -12.880846570123593
      ],
      [
        "(a)*",
        -12.88138067657374
      ],
      [
        "**3",
        -12.881491763944728
      ],
      [
        "Sum(6*",
        -12.881894149193968
      ],
      [
        "'k_",
        -12.882358270300362
      ],
      [
        "(R_",
        -12.882510234274031
      ],
      [
        "Derivative(4*",
        -12.884439056002332
      ],
      [
        "log(Π)",
        -12.885907575007476
      ],
      [
        "(h)**",
        -12.887468425420478
      ],
      [
        "sqrt(7)*sqrt(",
        -12.88940188224747
      ],
      [
        "(ο)/",
        -12.890140152471371
      ],
      [
        "'Δ_",
        -12.891399829028137
      ],
      [
        "(υ)/",
        -12.89202487430222
      ],
      [
        "β)",
        -12.893296472561106
      ],
      [
        "(Χ)*",
        -12.894628551920398
      ],
      [
        "Φ)*",
        -12.895934898146407
      ],
      [
        "(y_",
        -12.896298004432024
      ],
      [
        "/2)/",
        -12.897149471775354
      ],
      [
        "log(V)",
        -12.89838044202054
      ],
      [
        "sqrt(λ)",
        -12.898893067566108
      ],
      [
        "**5))",
        -12.89928128774997
      ],
      [
        "(κ_",
        -12.899810447279666
      ],
      [
        "ω_ζ",
        -12.900468331835263
      ],
      [
        "(θ)**",
        -12.901862845853044
      ],
      [
        "(m)*",
        -12.90210726557683
      ],
      [
        ")/2)*",
        -12.902493873075343
      ],
      [
        "(α)**",
        -12.902616640510953
      ],
      [
        "(ε_",
        -12.904077398755408
      ],
      [
        "log(Ζ)",
        -12.904862678565696
      ],
      [
        ")**9",
        -12.90490929784992
      ],
      [
        "**2))",
        -12.905099125390326
      ],
      [
        "(ξ)**",
        -12.908120120232995
      ],
      [
        "(ω)/",
        -12.908550311629435
      ],
      [
        "(R)**",
        -12.909184801202748
      ],
      [
        "(t)*",
        -12.909389028924066
      ],
      [
        "(u)/",
        -12.912862019190818
      ],
      [
        "(s_",
        -12.91688945705108
      ],
      [
        "*φ)",
        -12.917235263811628
      ],
      [
        "(W)/",
        -12.918771684976369
      ],
      [
        "Sum(8*",
        -12.918773099644536
      ],
      [
        "log(W)",
        -12.918830379680534
      ],
      [
        "Integral(7*",
        -12.919490739998178
      ],
      [
        "(n_",
        -12.92225686951345
      ],
      [
        "(Z)**",
        -12.929315069278148
      ],
      [
        "ω)*",
        -12.929957303504594
      ],
      [
        "(υ_",
        -12.93003029677974
      ],
      [
        "(κ)**",
        -12.93034807303174
      ],
      [
        "(Ν)**",
        -12.93050856062682
      ],
      [
        "_1",
        -12.930523157312871
      ],
      [
        "(Ξ)**",
        -12.932601111762176
      ],
      [
        ")**5",
        -12.93425955545367
      ],
      [
        "(x))",
        -12.937780932431972
      ],
      [
        "'X_",
        -12.938457596315216
      ],
      [
        "(I_",
        -12.93867664292547
      ],
      [
        "ν)",
        -12.939507422476634
      ],
      [
        "(W_",
        -12.939930607894455
      ],
      [
        ")**4",
        -12.941905071061504
      ],
      [
        "(Ο_",
        -12.942498202130809
      ],
      [
        "Μ)*",
        -12.945090528933688
      ],
      [
        "'j_",
        -12.945972844973166
      ],
      [
        "(E_",
        -12.946983381293537
      ],
      [
        "(ξ)/",
        -12.950506725543503
      ],
      [
        "(M_",
        -12.950744350792563
      ],
      [
        "(i_",
        -12.953934679808356
      ],
      [
        "_φ",
        -12.957489385522504
      ],
      [
        "(l)*",
        -12.960082643838952
      ],
      [
        "'i",
        -12.961595052132294
      ],
      [
        "(L)/",
        -12.962550878930738
      ],
      [
        "(θ)/",
        -12.963296596176924
      ],
      [
        "u_Λ",
        -12.964030867376664
      ],
      [
        "Ι)",
        -12.964415950934487
      ],
      [
        "'r",
        -12.96445459262507
      ],
      [
        "(Ε))",
        -12.964743151663493
      ],
      [
        "'ζ_",
        -12.965316640799818
      ],
      [
        "(i)*",
        -12.96563716371026
      ],
      [
        "r))",
        -12.9668489069562
      ],
      [
        "(l_",
        -12.96753297358555
      ],
      [
        "(D)**",
        -12.968772041533322
      ],
      [
        "θ)*",
        -12.968801399143862
      ],
      [
        "'w_",
        -12.970107989366802
      ],
      [
        "**Γ)",
        -12.970231766952647
      ],
      [
        "(Ρ))",
        -12.970330944169651
      ],
      [
        "(φ)**",
        -12.970952981718588
      ],
      [
        "log(Υ)",
        -12.971138204055306
      ],
      [
        "/9))",
        -12.972767260632224
      ],
      [
        "(Θ_",
        -12.974428844880068
      ],
      [
        "(X_",
        -12.975144245791792
      ],
      [
        "'b_",
        -12.976346834892365
      ],
      [
        "(J_",
        -12.977957964586196
      ],
      [
        "sqrt(U)",
        -12.979029327048677
      ],
      [
        "(A_",
        -12.980768420921448
      ],
      [
        "_Χ",
        -12.981734395284343
      ],
      [
        "i_ω",
        -12.982212182564412
      ],
      [
        "(f_",
        -12.983491699065857
      ],
      [
        "'Α_",
        -12.983988613216429
      ],
      [
        "(G)/",
        -12.98600275560252
      ],
      [
        "(p_",
        -12.988177712051838
      ],
      [
        "(Ε)**",
        -12.990311931484213
      ],
      [
        "(Ω_",
        -12.993291053593149
      ],
      [
        "(Α)/",
        -12.99408772973377
      ],
      [
        "_Ν",
        -12.997486101114951
      ],
      [
        "(i))",
        -12.99806715940298
      ],
      [
        ")**8",
        -12.99843458441722
      ],
      [
        "'v_",
        -12.999974498801086
      ],
      [
        "(x)**",
        -13.000313862235153
      ],
      [
        "τ)",
        -13.000509025711349
      ],
      [
        "(ψ)*",
        -13.000911955322216
      ],
      [
        "(g))",
        -13.002902981523826
      ],
      [
        "(R))",
        -13.00562598286366
      ],
      [
        "(C))",
        -13.00864233746726
      ],
      [
        "(Χ)**",
        -13.01261704984244
      ],
      [
        "'V_",
        -13.01473076258788
      ],
      [
        "(k)/",
        -13.018087346629626
      ],
      [
        "φ)",
        -13.018489098605848
      ],
      [
        "'Υ_",
        -13.018871531825528
      ],
      [
        "Ξ_Q",
        -13.019767956253228
      ],
      [
        "(Θ)*",
        -13.02005897202988
      ],
      [
        "(ε)/",
        -13.020702251838449
      ],
      [
        "b))",
        -13.02162749575706
      ],
      [
        "U_E",
        -13.021747328016852
      ],
      [
        "(η)/",
        -13.022778593826644
      ],
      [
        "Γ)",
        -13.024255689191968
      ],
      [
        "'m_",
        -13.024964358642253
      ],
      [
        "'Τ_",
        -13.025430608886486
      ],
      [
        "_ξ",
        -13.026294715124097
      ],
      [
        "(M)*",
        -13.02676836320794
      ],
      [
        "T_I",
        -13.028580466179298
      ],
      [
        "(a))",
        -13.02890623207468
      ],
      [
        "(υ)*",
        -13.02897828259552
      ],
      [
        "'B_",
        -13.030733673166376
      ],
      [
        "Ε)",
        -13.031074777573998
      ],
      [
        "(Ξ)/",
        -13.031993029388902
      ],
      [
        "h)",
        -13.032241586500678
      ],
      [
        "Θ)*",
        -13.033904284609394
      ],
      [
        "Π)",
        -13.034704848295732
      ],
      [
        "(Ξ_",
        -13.03493220426316
      ],
      [
        "'β_",
        -13.035158834209458
      ],
      [
        "μ)*",
        -13.03819818173701
      ],
      [
        "ρ_Ω",
        -13.03874102099879
      ],
      [
        "(c)*",
        -13.039595208709684
      ],
      [
        "(Ε)*",
        -13.041179608631891
      ],
      [
        "(u)**",
        -13.04292195966863
      ],
      [
        "(η)*",
        -13.04319959519708
      ],
      [
        "i))",
        -13.043791367446648
      ],
      [
        "(Τ)/",
        -13.043876685223676
      ],
      [
        "Θ)",
        -13.045808856903504
      ],
      [
        "Ξ)",
        -13.046093355180473
      ],
      [
        "sqrt(Φ)",
        -13.04633652418151
      ],
      [
        "(Π/",
        -13.047880986375688
      ],
      [
        "(x_",
        -13.04856678559044
      ],
      [
        "_ρ))",
        -13.048734221368669
      ],
      [
        "'q_",
        -13.048844564029157
      ],
      [
        "(α)/",
        -13.05016321905346
      ],
      [
        "s_ρ",
        -13.050553980994424
      ],
      [
        "sqrt(Σ)",
        -13.051161811958776
      ],
      [
        "(o_",
        -13.05143416652966
      ],
      [
        "'Ο_",
        -13.052544857191693
      ],
      [
        "(Λ_",
        -13.052847019549468
      ],
      [
        "Ρ_V",
        -13.054491472548165
      ],
      [
        "(A)/",
        -13.056450170506409
      ],
      [
        "W_υ",
        -13.061350693539426
      ],
      [
        "(ι)**",
        -13.065667255512896
      ],
      [
        "μ)",
        -13.066578997097553
      ],
      [
        "Ψ)",
        -13.066622405273408
      ],
      [
        "'φ_",
        -13.066722031734662
      ],
      [
        "(-1))",
        -13.06711667231876
      ],
      [
        "**log(",
        -13.06883115461678
      ],
      [
        "(ρ_",
        -13.068894089205893
      ],
      [
        "C_A",
        -13.071666689329842
      ],
      [
        "(j)/",
        -13.072185796154285
      ],
      [
        "Θ*",
        -13.073988106405675
      ],
      [
        "_N",
        -13.07627563323841
      ],
      [
        "log(M)",
        -13.077266207541742
      ],
      [
        "d_α",
        -13.079376957906415
      ],
      [
        "3)/",
        -13.079786472841874
      ],
      [
        "(f*",
        -13.08255180616217
      ],
      [
        "(m)/",
        -13.08818814545066
      ],
      [
        "'G_",
        -13.08823887308132
      ],
      [
        "(υ)**",
        -13.090139184301988
      ],
      [
        "log(H)",
        -13.093158688018509
      ],
      [
        "(Γ_",
        -13.09527586359382
      ],
      [
        "(J*",
        -13.096508256694117
      ],
      [
        "(i)/",
        -13.09845096748912
      ],
      [
        "'h_",
        -13.101811979225104
      ],
      [
        "(Χ_",
        -13.103355934408103
      ],
      [
        "_Ο",
        -13.108734750370346
      ],
      [
        "(Ι)/",
        -13.11014846887779
      ],
      [
        "log(d)",
        -13.110478159495829
      ],
      [
        "(l",
        -13.112353523939856
      ],
      [
        "'u_",
        -13.112561959765385
      ],
      [
        "cosh(1)",
        -13.113631121118404
      ],
      [
        "log(Κ)",
        -13.115032638758828
      ],
      [
        "(Θ/",
        -13.11518052568292
      ],
      [
        "sqrt(Ε)",
        -13.11536176173708
      ],
      [
        "'a_",
        -13.115719499169291
      ],
      [
        "4**",
        -13.116676623012058
      ],
      [
        "q_υ",
        -13.11957274925058
      ],
      [
        "(P*",
        -13.120795189424085
      ],
      [
        "(F_",
        -13.121395481498237
      ],
      [
        "(m)**",
        -13.125168048597764
      ],
      [
        "(P)/",
        -13.126393318280773
      ],
      [
        "Β)",
        -13.126667738195646
      ],
      [
        "log(η)",
        -13.127861282248524
      ],
      [
        "Sum(2*",
        -13.127902695555326
      ],
      [
        "(Q_",
        -13.128155288137478
      ],
      [
        "(f)/",
        -13.128881386022076
      ],
      [
        "p_p",
        -13.129110195093183
      ],
      [
        "n_Χ",
        -13.129821297600152
      ],
      [
        "ο)",
        -13.130078298460065
      ],
      [
        "(Η_",
        -13.130415303071766
      ],
      [
        "(B)/",
        -13.130814960696291
      ],
      [
        "(J))",
        -13.131346231966724
      ],
      [
        "**8)*",
        -13.133696730552725
      ],
      [
        "η)",
        -13.133926453968742
      ],
      [
        "(Χ/",
        -13.13820892415994
      ],
      [
        "**Λ)",
        -13.139064629497852
      ],
      [
        "_δ",
        -13.139138683314023
      ],
      [
        "(ξ)*",
        -13.139192020507265
      ],
      [
        "(v)**",
        -13.140669209856698
      ],
      [
        "Ν_6",
        -13.141845759529147
      ],
      [
        "'z_",
        -13.141932824004304
      ],
      [
        "'δ_",
        -13.142793084368884
      ],
      [
        "log(Ι)",
        -13.144903439521222
      ],
      [
        "(Ξ)*",
        -13.14780519566939
      ],
      [
        "7)**",
        -13.148692480969904
      ],
      [
        "K)*",
        -13.15016327178245
      ],
      [
        "*Υ)",
        -13.151873866285095
      ],
      [
        "log(θ)",
        -13.152190754757084
      ],
      [
        "(ψ)/",
        -13.152680701122794
      ],
      [
        "log(ν)",
        -13.155115833496824
      ],
      [
        "(η_",
        -13.155961527208705
      ],
      [
        "**9)*",
        -13.157699501589958
      ],
      [
        "_μ",
        -13.157787946218011
      ],
      [
        "(ν)*",
        -13.159772892902744
      ],
      [
        "σ)",
        -13.15988290315255
      ],
      [
        "log(υ)",
        -13.160537994962532
      ],
      [
        "Derivative(3*",
        -13.161160351161618
      ],
      [
        "(p)/",
        -13.162471531812937
      ],
      [
        "υ_Θ",
        -13.162638736637977
      ],
      [
        "(Δ_",
        -13.16316258381495
      ],
      [
        "(Φ_",
        -13.16404282556324
      ],
      [
        "σ_8",
        -13.16465403042392
      ],
      [
        "'λ_",
        -13.165455901922574
      ],
      [
        "sqrt(ν)",
        -13.16648144531094
      ],
      [
        "log(α)",
        -13.166525964043
      ],
      [
        "_Δ",
        -13.166819124987306
      ],
      [
        "Δ)",
        -13.167125436921037
      ],
      [
        "u_χ",
        -13.169971069469812
      ],
      [
        "k_Γ",
        -13.176570800711572
      ],
      [
        "K)",
        -13.177081526944042
      ],
      [
        "sqrt(s)",
        -13.178193812031047
      ],
      [
        "(C)**",
        -13.178482101469182
      ],
      [
        ")**8)",
        -13.17963640280024
      ],
      [
        "κ_X",
        -13.17993407305548
      ],
      [
        "/Θ)",
        -13.181047176000511
      ],
      [
        "(γ)*",
        -13.18119545131014
      ],
      [
        "Derivative(7*",
        -13.18265797568977
      ],
      [
        "256",
        -13.183354633035515
      ],
      [
        "w_sο",
        -13.184128375949236
      ],
      [
        "(C)*",
        -13.184867707943226
      ],
      [
        "(L)**",
        -13.185872918539312
      ],
      [
        "(θ)*",
        -13.186590835156284
      ],
      [
        "(X)*",
        -13.187444610197694
      ],
      [
        "(ζ)*",
        -13.187460736821976
      ],
      [
        "(E)/",
        -13.187794229025087
      ],
      [
        "(Y/",
        -13.189587755855149
      ],
      [
        "ι_ο",
        -13.190136611164949
      ],
      [
        "(κ)*",
        -13.190162075699778
      ],
      [
        "(J)*",
        -13.191396814560497
      ],
      [
        "log(b)",
        -13.19154402738882
      ],
      [
        "α_Κ",
        -13.192911374465227
      ],
      [
        "Υ)*",
        -13.193651164499215
      ],
      [
        "sqrt(d)",
        -13.193962278216684
      ],
      [
        "(p)**",
        -13.195632021256648
      ],
      [
        "ι)*",
        -13.196139617312753
      ],
      [
        "(N_",
        -13.196147905646692
      ],
      [
        "_σ",
        -13.196384385361542
      ],
      [
        "_Γ",
        -13.197467386086847
      ],
      [
        "(U)/",
        -13.198174484630387
      ],
      [
        "(t)**",
        -13.200178890639078
      ],
      [
        "(Z)/",
        -13.200269679965489
      ],
      [
        "Integral(6*",
        -13.200839933009837
      ],
      [
        "log(B)",
        -13.200924549535616
      ],
      [
        "sqrt(Ι)",
        -13.201013054819745
      ],
      [
        "(λ/",
        -13.20155654479948
      ],
      [
        "(Τ_",
        -13.202606292004644
      ],
      [
        "V)*",
        -13.203665389047252
      ],
      [
        "(g)**",
        -13.204926469898226
      ],
      [
        "(Ψ_",
        -13.205353710285326
      ],
      [
        "(ν_",
        -13.20598539491509
      ],
      [
        "-sqrt(6)*sqrt(",
        -13.206271590301215
      ],
      [
        "Μ)",
        -13.207023022213134
      ],
      [
        "'ι_",
        -13.207339389889068
      ],
      [
        "log(F)",
        -13.207835190925366
      ],
      [
        "log(φ)",
        -13.208412080009456
      ],
      [
        "I_U",
        -13.208443132251084
      ],
      [
        "g)",
        -13.209564789977891
      ],
      [
        "'x_",
        -13.209696592005804
      ],
      [
        "B_Σ",
        -13.210489124286788
      ],
      [
        "(Φ)**",
        -13.211678845043505
      ],
      [
        "λ)**",
        -13.213087546755306
      ],
      [
        "24",
        -13.21493680722023
      ],
      [
        "log(ο)",
        -13.215491085446008
      ],
      [
        "O_Β",
        -13.215663590329696
      ],
      [
        "log(Β)",
        -13.215714314335818
      ],
      [
        "φ_ι",
        -13.216695520703167
      ],
      [
        "Y_γ",
        -13.216924298882542
      ],
      [
        "log(n)",
        -13.217203619848448
      ],
      [
        "η_F",
        -13.217926415230767
      ],
      [
        "λ_N",
        -13.218273756829507
      ],
      [
        "J_Λ",
        -13.21873317983205
      ],
      [
        "Ρ_I",
        -13.219181191456824
      ],
      [
        "Γ_Y",
        -13.21937419873851
      ],
      [
        "2)/",
        -13.219886034574364
      ],
      [
        "log(Γ)",
        -13.22120978950679
      ],
      [
        "γ_δ",
        -13.221540505779144
      ],
      [
        "(δ)/",
        -13.22199854846496
      ],
      [
        "sqrt(W)",
        -13.223029993494704
      ],
      [
        "G_X",
        -13.22356835261403
      ],
      [
        "f_σ",
        -13.223856016918315
      ],
      [
        "_D",
        -13.224409980846502
      ],
      [
        "Α_k",
        -13.22508192296066
      ],
      [
        "Γ_Ν",
        -13.225389428450724
      ],
      [
        "X_K",
        -13.226775732061874
      ],
      [
        "'μ_",
        -13.227122330731568
      ],
      [
        "Λ_α",
        -13.227871893041856
      ],
      [
        "(a)/",
        -13.227948428108393
      ],
      [
        "J_Y",
        -13.228240031437108
      ],
      [
        "Δ_h",
        -13.229546546970663
      ],
      [
        "(K)/",
        -13.229548871936656
      ],
      [
        "(s)**",
        -13.229730201055528
      ],
      [
        "sqrt(2)*sqrt(",
        -13.229934565918372
      ],
      [
        "K_N",
        -13.231505242644024
      ],
      [
        "t_ζ",
        -13.232500829435446
      ],
      [
        "(Ζ_",
        -13.234122272161027
      ],
      [
        "(λ_",
        -13.235479470279213
      ],
      [
        "A_Ι",
        -13.235865705332923
      ],
      [
        "'Ε_",
        -13.23636935456238
      ],
      [
        "(C)/",
        -13.236518843643823
      ],
      [
        "O_V",
        -13.236698903658176
      ],
      [
        "h_R",
        -13.237083251483432
      ],
      [
        "k_R",
        -13.237466443987378
      ],
      [
        "'θ_",
        -13.23771670450394
      ],
      [
        "(j_",
        -13.237866327883228
      ],
      [
        "φ_Μ",
        -13.237937578867957
      ],
      [
        "α_τ",
        -13.238552847154937
      ],
      [
        "E_Q",
        -13.24009260199412
      ],
      [
        "ν)*",
        -13.240519826621354
      ],
      [
        "5)**",
        -13.24102145676646
      ],
      [
        "φ_R",
        -13.241567531689048
      ],
      [
        "*ν)",
        -13.241600921849482
      ],
      [
        "(ν**",
        -13.241884830808338
      ],
      [
        "σ_O",
        -13.242074837771153
      ],
      [
        "6)/",
        -13.242093388477674
      ],
      [
        "/6)*",
        -13.24278199957098
      ],
      [
        "Τ)",
        -13.242939278819511
      ],
      [
        "B_Ι",
        -13.24353825391466
      ],
      [
        "j)",
        -13.244864630469872
      ],
      [
        "D_k",
        -13.245225854291762
      ],
      [
        "γ_Κ",
        -13.245443545270252
      ],
      [
        "Θ_",
        -13.246590816337928
      ],
      [
        "(o)**",
        -13.248060048931498
      ],
      [
        "sqrt(L)*",
        -13.248837570403404
      ],
      [
        "Χ)",
        -13.249084091773572
      ],
      [
        "'Z_",
        -13.24937357379515
      ],
      [
        "ξ)*",
        -13.249385605268465
      ],
      [
        "(K))",
        -13.249807206427938
      ],
      [
        "(β_",
        -13.250130622630792
      ],
      [
        "Q_C",
        -13.250321248789332
      ],
      [
        "Ζ_L",
        -13.25076741473167
      ],
      [
        "F_Ξ",
        -13.251430518639864
      ],
      [
        "C_g",
        -13.252018394318428
      ],
      [
        "(Y_",
        -13.252943552511129
      ],
      [
        "R_Φ",
        -13.254021235214193
      ],
      [
        "Integral(sqrt(H)",
        -13.254165389542006
      ],
      [
        "Ο)",
        -13.25755232678778
      ],
      [
        "(Λ)*",
        -13.258197482221464
      ],
      [
        "A_Y",
        -13.260011329591917
      ],
      [
        "P_A",
        -13.260248675023796
      ],
      [
        "q_h",
        -13.26044988855139
      ],
      [
        "P_σ",
        -13.2616856904711
      ],
      [
        "I_6",
        -13.261824789770872
      ],
      [
        "Ι_B",
        -13.262126051223165
      ],
      [
        "(Η)*",
        -13.262292336724595
      ],
      [
        "(r_",
        -13.262481058226042
      ],
      [
        "Υ_D",
        -13.263779569855023
      ],
      [
        "(H)**",
        -13.265312130848836
      ],
      [
        "ρ_Π",
        -13.266063719341108
      ],
      [
        "k_h",
        -13.266133701366552
      ],
      [
        "sqrt(m)*",
        -13.26620483712724
      ],
      [
        "Χ_ρ",
        -13.26663732357978
      ],
      [
        "(T_",
        -13.267216527333668
      ],
      [
        "'Ζ_",
        -13.267259376457728
      ],
      [
        "E))",
        -13.268675683081169
      ],
      [
        "sqrt(q)",
        -13.269334784381089
      ],
      [
        "log(u)",
        -13.269605474330188
      ],
      [
        "Λ_γ",
        -13.270185370560768
      ],
      [
        "ε_L",
        -13.271287351282886
      ],
      [
        "Sum(7*",
        -13.271689835294568
      ],
      [
        "(T**",
        -13.27322439111608
      ],
      [
        "'S",
        -13.27510056739027
      ],
      [
        "(Ω)/",
        -13.27652846322156
      ],
      [
        "log(μ)",
        -13.276693517037524
      ],
      [
        "ξ_9",
        -13.276724688606048
      ],
      [
        "R_ω",
        -13.277053052197155
      ],
      [
        "log(6*",
        -13.277225334134394
      ],
      [
        "Ι_j",
        -13.27768532503893
      ],
      [
        "F_ξ",
        -13.277826599732428
      ],
      [
        "(Φ)*",
        -13.27788596408845
      ],
      [
        "Θ_U",
        -13.279753767183994
      ],
      [
        "**C)",
        -13.280200292849416
      ],
      [
        "sqrt(h)",
        -13.282682871313815
      ],
      [
        "X_Θ",
        -13.282869134778975
      ],
      [
        "sqrt(ζ)",
        -13.282925127097592
      ],
      [
        "(ω)**",
        -13.28385391919554
      ],
      [
        "(L_",
        -13.283940695897249
      ],
      [
        "sqrt(Δ)",
        -13.285605497677311
      ],
      [
        "'σ_",
        -13.286376858040317
      ],
      [
        "sqrt(6)*sqrt(",
        -13.286484640532072
      ],
      [
        "Β_Κ",
        -13.28794701428649
      ],
      [
        "sqrt(Κ)",
        -13.289053314716622
      ],
      [
        "_1))",
        -13.290567781106608
      ],
      [
        "_s",
        -13.291313648915123
      ],
      [
        "sqrt(g)*",
        -13.291833952246296
      ],
      [
        "log(ε)",
        -13.292046985721242
      ],
      [
        "sqrt(η)",
        -13.293682139383634
      ],
      [
        "Ρ)*",
        -13.297436461290223
      ],
      [
        "log(Τ)",
        -13.297537310387296
      ],
      [
        "Σ_1",
        -13.298563715613804
      ],
      [
        "_ω",
        -13.299328531125088
      ],
      [
        "log(R",
        -13.29996820501132
      ],
      [
        "(β)/",
        -13.30007308940623
      ],
      [
        "(H)*",
        -13.300246959635246
      ],
      [
        "k_Η",
        -13.300705947005394
      ],
      [
        "α)**",
        -13.300853579971184
      ],
      [
        "'W_",
        -13.30170037034244
      ],
      [
        "Λ_8",
        -13.302995315134591
      ],
      [
        "Ω)*",
        -13.304122043831384
      ],
      [
        "(V_",
        -13.30430821657125
      ],
      [
        "Β)*",
        -13.304404279878352
      ],
      [
        "n_α",
        -13.305764339765297
      ],
      [
        "'Φ_",
        -13.30614580702328
      ],
      [
        "/t)",
        -13.30661129617797
      ],
      [
        "E_7",
        -13.306878586128654
      ],
      [
        "'F_",
        -13.306896760593418
      ],
      [
        "'Η_",
        -13.30836154414289
      ],
      [
        "1)**",
        -13.30937588140123
      ],
      [
        "Z_b",
        -13.309805502656255
      ],
      [
        "log(y)",
        -13.309922771638448
      ],
      [
        "_ζ",
        -13.31127337882678
      ],
      [
        "Rational(-",
        -13.31310340997276
      ],
      [
        ")**2)",
        -13.313917090289694
      ],
      [
        "sqrt(t)",
        -13.31562548927007
      ],
      [
        "(Β)/",
        -13.316506710590632
      ],
      [
        "3)**",
        -13.316629560661406
      ],
      [
        "_N)",
        -13.317414859138747
      ],
      [
        "Ζ*",
        -13.320223487524794
      ],
      [
        "w_ι",
        -13.320887689390734
      ],
      [
        "(Β**",
        -13.325584171573546
      ],
      [
        "(Γ)/",
        -13.325974641152069
      ],
      [
        "*Κ)",
        -13.326441424171517
      ],
      [
        "log(σ)",
        -13.32698614217072
      ],
      [
        "3*log(",
        -13.329535900892704
      ],
      [
        "(τ)**",
        -13.330018236943769
      ],
      [
        "(s)/",
        -13.330255619277944
      ],
      [
        "(σ)**",
        -13.33156427943322
      ],
      [
        "Ρ)",
        -13.33225000751512
      ],
      [
        "log(ω)",
        -13.332890423815645
      ],
      [
        "(φ)/",
        -13.334358695433057
      ],
      [
        "/Η)",
        -13.334362257986715
      ],
      [
        "'Q_",
        -13.33600503825486
      ],
      [
        "1/",
        -13.3363846775583
      ],
      [
        ")*sqrt(",
        -13.337287202392694
      ],
      [
        "Τ_v",
        -13.338467561875426
      ],
      [
        "(Λ**",
        -13.340089545858657
      ],
      [
        "(Ψ)*",
        -13.340583417046004
      ],
      [
        "y_ζ",
        -13.34173646785531
      ],
      [
        "Ζ)*",
        -13.341773565809742
      ],
      [
        "(Y)*",
        -13.343309009956272
      ],
      [
        "_W",
        -13.344615821429578
      ],
      [
        "(Υ)/",
        -13.344896407663402
      ],
      [
        "log(D)**",
        -13.345648507753006
      ],
      [
        "Ο_Θ",
        -13.346302052591986
      ],
      [
        "Integral(3*",
        -13.34699373166058
      ],
      [
        "'χ_",
        -13.347384441720877
      ],
      [
        "σ)*",
        -13.347840638458392
      ],
      [
        "Τ_B",
        -13.347871445737066
      ],
      [
        "log(Ψ)",
        -13.350430363654556
      ],
      [
        "sqrt(υ)*",
        -13.350438811585285
      ],
      [
        "(d_",
        -13.350891382262162
      ],
      [
        "n))",
        -13.351049841398144
      ],
      [
        "*Β)",
        -13.351247664187568
      ],
      [
        "(V)/",
        -13.35132404158326
      ],
      [
        "/Ζ)",
        -13.351898342329898
      ],
      [
        "(τ/",
        -13.354499359559536
      ],
      [
        "Λ_2",
        -13.354740507888646
      ],
      [
        "_λ))",
        -13.355637551183372
      ],
      [
        "B_4",
        -13.356014199155496
      ],
      [
        "(Z_",
        -13.357567574757944
      ],
      [
        "ν_x",
        -13.35815603664273
      ],
      [
        "sqrt(Ρ)",
        -13.360557351378576
      ],
      [
        "(E)*",
        -13.360659945251973
      ],
      [
        "h_mB",
        -13.36168979558975
      ],
      [
        "_Θ",
        -13.36194810166158
      ],
      [
        ")*log(Β)",
        -13.36304295302244
      ],
      [
        "sqrt(Τ)",
        -13.363491510812628
      ],
      [
        "(ο_",
        -13.36432951888864
      ],
      [
        "K_G",
        -13.364434987653956
      ],
      [
        "log(Φ)",
        -13.365014319346177
      ],
      [
        "**f)",
        -13.366068334719396
      ],
      [
        "_M))",
        -13.367541717868924
      ],
      [
        "(z_",
        -13.367580583631
      ],
      [
        "Φ*",
        -13.368655361880446
      ],
      [
        "(Ο))",
        -13.368842454594134
      ],
      [
        "_K",
        -13.369218245625028
      ],
      [
        "(Π**",
        -13.370792581440936
      ],
      [
        "ρ)*",
        -13.371599754383997
      ],
      [
        "M_",
        -13.371788917174136
      ],
      [
        "M)*",
        -13.371941265301942
      ],
      [
        "_g",
        -13.37235430384504
      ],
      [
        "/α)",
        -13.37486067394882
      ],
      [
        "'Ε_Β",
        -13.375036677184385
      ],
      [
        "M_Ν",
        -13.375220916863377
      ],
      [
        "Sum(sqrt(χ)",
        -13.376474579188123
      ],
      [
        "(L)*",
        -13.376568044761983
      ],
      [
        "W)",
        -13.377420953526045
      ],
      [
        "Χ_β",
        -13.378755028304644
      ],
      [
        "(Θ)/",
        -13.379182190564286
      ],
      [
        "Τ_ζ",
        -13.38133788035188
      ],
      [
        "K_h",
        -13.38144574411676
      ],
      [
        "ο_ξυ",
        -13.382620668355411
      ],
      [
        "Q_ω",
        -13.383000605160772
      ],
      [
        "sqrt(X)",
        -13.383494694616804
      ],
      [
        "Β_",
        -13.383712107446753
      ],
      [
        "sqrt(J)",
        -13.384923364968008
      ],
      [
        "_7",
        -13.384963668141022
      ],
      [
        "N_ω",
        -13.38499012179961
      ],
      [
        "*ρ)",
        -13.385346192368608
      ],
      [
        "(Ρ)**",
        -13.38576981819217
      ],
      [
        "Υ)",
        -13.385770988869169
      ],
      [
        "(A)*",
        -13.386273837047806
      ],
      [
        "(K)**",
        -13.38644439688124
      ],
      [
        "/ω)",
        -13.386706793991207
      ],
      [
        "(G)*",
        -13.387244429868565
      ],
      [
        "(f)*",
        -13.388076797719265
      ],
      [
        "(ε)*",
        -13.388778346568916
      ],
      [
        "sqrt(v)",
        -13.389214581770922
      ],
      [
        "(P)*",
        -13.389556956527484
      ],
      [
        "(Τ)*",
        -13.389921944416315
      ],
      [
        "Λ_ρ",
        -13.392168319228766
      ],
      [
        "ζ*",
        -13.392469927877327
      ],
      [
        "log(P)",
        -13.39325750044239
      ],
      [
        "/7)*",
        -13.394297910941264
      ],
      [
        "Χ_Γ",
        -13.394559521442227
      ],
      [
        "(b)*",
        -13.395849706185228
      ],
      [
        "d_",
        -13.396731376446752
      ],
      [
        "(H)/log(",
        -13.397377737520811
      ],
      [
        "D_",
        -13.398062036504507
      ],
      [
        "τ)*",
        -13.39821961995694
      ],
      [
        "log(D)",
        -13.398668906356097
      ],
      [
        "(Μ)*",
        -13.398875815950372
      ],
      [
        ")/sqrt(ρ)",
        -13.399103150076495
      ],
      [
        "(b*",
        -13.399702093126605
      ],
      [
        "(χ)**",
        -13.399729956600895
      ],
      [
        "/3)**",
        -13.400037009844366
      ],
      [
        "(n",
        -13.40024543430206
      ],
      [
        "G_N",
        -13.400782835365847
      ],
      [
        "(Β)*",
        -13.40304936238097
      ],
      [
        "Sum(sqrt(Ω)",
        -13.405574233819012
      ],
      [
        "h_ι",
        -13.406299582797203
      ],
      [
        "(w)**",
        -13.407404899199529
      ],
      [
        "log(φ)/",
        -13.407751629826002
      ],
      [
        "log(5*",
        -13.40924355224744
      ],
      [
        "*σ)",
        -13.40982389304518
      ],
      [
        "sqrt(T)",
        -13.410283444759337
      ],
      [
        "Τ)/",
        -13.410402486447389
      ],
      [
        "ι_Ζ",
        -13.41078667298642
      ],
      [
        "(z)/",
        -13.411747629262258
      ],
      [
        "sqrt(Γ)",
        -13.41221481502317
      ],
      [
        "ξ)",
        -13.41226166473415
      ],
      [
        "δ_",
        -13.41242860485296
      ],
      [
        "Ν_L",
        -13.412939409686642
      ],
      [
        "ω_E",
        -13.413014700184805
      ],
      [
        "θ)",
        -13.413058578602758
      ],
      [
        "n_ξ",
        -13.413101038146452
      ],
      [
        "X_Β",
        -13.413174492022126
      ],
      [
        "V_Ρ",
        -13.414676941194362
      ],
      [
        "F_φ",
        -13.41526441869139
      ],
      [
        "(δ_",
        -13.415430184584055
      ],
      [
        "O_R",
        -13.41619063257891
      ],
      [
        "D_β",
        -13.417517962890267
      ],
      [
        "ι)",
        -13.417758484801652
      ],
      [
        "log(χ)",
        -13.41831044382191
      ],
      [
        "S_ω",
        -13.418517291345706
      ],
      [
        "Η_R",
        -13.418622684396263
      ],
      [
        "h_z",
        -13.419747516114956
      ],
      [
        "sqrt(τ)/",
        -13.420182153405165
      ],
      [
        "(k_",
        -13.421285008123409
      ],
      [
        "_ρ",
        -13.421532266612376
      ],
      [
        "(ζ_",
        -13.422629557432272
      ],
      [
        "Ρ_γ",
        -13.423738397421134
      ],
      [
        "γ_M",
        -13.423748619748972
      ],
      [
        "Λ_Δ",
        -13.423775392556903
      ],
      [
        "log(φ))",
        -13.424362639822748
      ],
      [
        "Β_f",
        -13.425101916802532
      ],
      [
        "(Α_",
        -13.425794653141091
      ],
      [
        "Z_Ζ",
        -13.425812930632157
      ],
      [
        "8)/",
        -13.425832005324562
      ],
      [
        "(μ)**",
        -13.426460862320512
      ],
      [
        "λ_9",
        -13.426495378616016
      ],
      [
        "Υ_9",
        -13.426501086865327
      ],
      [
        "α_β",
        -13.426598072118257
      ],
      [
        "**B)",
        -13.426858674485253
      ],
      [
        "(b)/",
        -13.426977234650114
      ],
      [
        "Q_Ο",
        -13.427495936667064
      ],
      [
        "*θ)",
        -13.428086113652688
      ],
      [
        "(f)**",
        -13.428219473384893
      ],
      [
        "Ν_",
        -13.428221820606948
      ],
      [
        "u_Η",
        -13.42914295584912
      ],
      [
        "Y_σ",
        -13.434631521030015
      ],
      [
        "log(ρ)",
        -13.434784074639394
      ],
      [
        "D)*",
        -13.435589476515457
      ],
      [
        "*υ)*",
        -13.436369090227387
      ],
      [
        "Θ_λ",
        -13.437331278840109
      ],
      [
        "(h/",
        -13.437536533696012
      ],
      [
        "K_δ",
        -13.437785674787104
      ],
      [
        "S_7",
        -13.438684439412953
      ],
      [
        "log(Ν)",
        -13.43951464534392
      ],
      [
        "(A*",
        -13.439549659178894
      ],
      [
        "Derivative(5*",
        -13.4395921393223
      ],
      [
        "s_z",
        -13.43966898329897
      ],
      [
        "(v)/",
        -13.445194527206612
      ],
      [
        "(χ)/",
        -13.445219126174138
      ],
      [
        "sqrt(P)",
        -13.445980016363212
      ],
      [
        "Μ*",
        -13.448494489486396
      ],
      [
        "f_λ",
        -13.449540339686388
      ],
      [
        "log(c)",
        -13.449669835833935
      ],
      [
        "K_Η",
        -13.450518148530254
      ],
      [
        "15",
        -13.450698171634723
      ],
      [
        "q_Τ",
        -13.452391001776936
      ],
      [
        "log(r)",
        -13.452574532390734
      ],
      [
        "sqrt(M)",
        -13.453923542060185
      ],
      [
        "Χ)*",
        -13.455005729793138
      ],
      [
        "sqrt(Π)",
        -13.455745551138024
      ],
      [
        "/λ)",
        -13.455819775139092
      ],
      [
        "_Z",
        -13.457538696612447
      ],
      [
        "(d)**",
        -13.457639898382329
      ],
      [
        "sqrt(ρ)",
        -13.457777024402851
      ],
      [
        "**δ)",
        -13.4580343326694
      ],
      [
        "_ψ))",
        -13.4593688940857
      ],
      [
        "Ι)*",
        -13.45946815994962
      ],
      [
        "ι_ε",
        -13.460841773997211
      ],
      [
        "Ε_a",
        -13.461107368514494
      ],
      [
        "(Μ**",
        -13.46123269675861
      ],
      [
        "X*",
        -13.4616813872556
      ],
      [
        "(x)/",
        -13.46223309801652
      ],
      [
        "ε_Μ",
        -13.46365717348609
      ],
      [
        "log(γ_",
        -13.4642554609883
      ],
      [
        "_3",
        -13.4649313478147
      ],
      [
        "Ι_",
        -13.46499103160941
      ],
      [
        "g_ν",
        -13.466148363673996
      ],
      [
        "Ν_G",
        -13.46655060918584
      ],
      [
        "(y)/",
        -13.467985270010862
      ],
      [
        "V_Μ",
        -13.467985871656182
      ],
      [
        "Sum(sqrt(Φ)",
        -13.468868855707004
      ],
      [
        "sqrt(ψ)",
        -13.46931550759758
      ],
      [
        "sqrt(H)",
        -13.471376599946856
      ],
      [
        "w_Υ",
        -13.47144992666002
      ],
      [
        "'γ_",
        -13.47250151738718
      ],
      [
        "_Λ",
        -13.475015128641129
      ],
      [
        ")/(sqrt(",
        -13.476715602297633
      ],
      [
        "**9)/2)",
        -13.476718800630032
      ],
      [
        "-4**",
        -13.47909553119274
      ],
      [
        "_Υ",
        -13.479163860206018
      ],
      [
        "log(τ)",
        -13.479669215072697
      ],
      [
        "(χ/",
        -13.479930683899942
      ],
      [
        "r_Z",
        -13.483029211859243
      ],
      [
        "(d)*",
        -13.483870557514976
      ],
      [
        "(Τ)**",
        -13.48436020605708
      ],
      [
        "_O",
        -13.484885378748306
      ],
      [
        "(Δ)*",
        -13.485450935603485
      ],
      [
        "4)/",
        -13.486418785640984
      ],
      [
        "Integral(sqrt(Ι)",
        -13.488114004241067
      ],
      [
        "A)",
        -13.489720621501172
      ],
      [
        "(ι/",
        -13.491298554723848
      ],
      [
        "(Υ_",
        -13.492781933635074
      ],
      [
        "Φ_D",
        -13.493921302449486
      ],
      [
        "A_ε",
        -13.495366985714348
      ],
      [
        "(γ)**",
        -13.49543513427126
      ],
      [
        "Sum(sqrt(-",
        -13.495466978603682
      ],
      [
        "Ψ)*",
        -13.497889818599605
      ],
      [
        "Integral(sqrt(B)",
        -13.498252605191194
      ],
      [
        "/4))",
        -13.499097623706408
      ],
      [
        "sqrt(Α)",
        -13.50058024564383
      ],
      [
        "(Π_",
        -13.503074351215632
      ],
      [
        "sqrt(-",
        -13.503696860467276
      ],
      [
        "(ρ)**",
        -13.503897370370632
      ],
      [
        "(a**",
        -13.50514631570799
      ],
      [
        "(c)**",
        -13.50555519101782
      ],
      [
        "χ_Ρ",
        -13.505611967653476
      ],
      [
        "_q))",
        -13.505764887089
      ],
      [
        "(A**",
        -13.50916244144894
      ],
      [
        "(T*",
        -13.510013189332266
      ],
      [
        "μ_υ",
        -13.510490059180446
      ],
      [
        "*χ)",
        -13.51120676991465
      ],
      [
        "h_A",
        -13.511586158504096
      ],
      [
        "(τ**",
        -13.514969830964668
      ],
      [
        "log(J)**",
        -13.515907168230273
      ],
      [
        "log(f)",
        -13.516442563228608
      ],
      [
        "Derivative(log(Σ",
        -13.517392959256652
      ],
      [
        "sqrt(D_",
        -13.51769167271422
      ],
      [
        "_W)**",
        -13.51894499775936
      ],
      [
        "(k)**",
        -13.51918359942492
      ],
      [
        "log(β)",
        -13.52169638374734
      ],
      [
        "ν_2",
        -13.522355150577368
      ],
      [
        "sqrt(Ξ)",
        -13.523195143497375
      ],
      [
        "Κ)*",
        -13.525616636880832
      ],
      [
        "log(ζ)",
        -13.526253871963654
      ],
      [
        ")**7)",
        -13.528409969589465
      ],
      [
        "(F)**",
        -13.530824784776678
      ],
      [
        "Derivative(log(μ",
        -13.531692341080504
      ],
      [
        ")/(7*sqrt(",
        -13.5324749974998
      ],
      [
        "(Λ)**",
        -13.53289756499024
      ],
      [
        "Rational(",
        -13.53297335861452
      ],
      [
        "Δ_v",
        -13.534230742068328
      ],
      [
        "Ξ_",
        -13.535060483145129
      ],
      [
        "Z)*",
        -13.535652684461056
      ],
      [
        "y_7",
        -13.535827892335549
      ],
      [
        "(γ**",
        -13.535885269091342
      ],
      [
        "λ_κ",
        -13.536115676385506
      ],
      [
        "(ν)/",
        -13.536165914249873
      ],
      [
        "_Ω",
        -13.537349887501078
      ],
      [
        "δ*",
        -13.539445835914044
      ],
      [
        "Integral(-V",
        -13.540832557575364
      ],
      [
        "_E))",
        -13.540841416653624
      ],
      [
        "H_I",
        -13.54205436223504
      ],
      [
        "Υ_Γ",
        -13.542942494993053
      ],
      [
        "(T)**",
        -13.543571442084588
      ],
      [
        "(K_",
        -13.543625530371443
      ],
      [
        "_Π)",
        -13.549030426552246
      ],
      [
        "/g)",
        -13.54912750139452
      ],
      [
        "_χ))",
        -13.55029809001923
      ],
      [
        "υ_f",
        -13.550481504945797
      ],
      [
        "F_ψ",
        -13.550561077270354
      ],
      [
        "'t_",
        -13.551417805735134
      ],
      [
        "**ω)",
        -13.552263649756734
      ],
      [
        "_c))",
        -13.55247146378293
      ],
      [
        "log(Ε)",
        -13.552971176067995
      ],
      [
        "(h)/",
        -13.552976166880432
      ],
      [
        "Sum(sqrt(υ)",
        -13.555083009559189
      ],
      [
        "sqrt(x)",
        -13.55739667377796
      ],
      [
        "Τ_η",
        -13.557542192922178
      ],
      [
        "**3)*",
        -13.560106076585948
      ],
      [
        "Derivative(log(P",
        -13.560454898059144
      ],
      [
        "(a_",
        -13.561404042242495
      ],
      [
        "sqrt(Μ)",
        -13.56264800716951
      ],
      [
        "λ_Μ",
        -13.563113959352398
      ],
      [
        "(U*",
        -13.563352361897415
      ],
      [
        "C)",
        -13.563592022407752
      ],
      [
        "(G))",
        -13.565457469825336
      ],
      [
        "P)",
        -13.565970531548803
      ],
      [
        "T_T",
        -13.566771567508937
      ],
      [
        "log(p)**",
        -13.567089403652504
      ],
      [
        "**J)",
        -13.567467813451955
      ],
      [
        "(S_",
        -13.568346025210497
      ],
      [
        "sqrt(j)/",
        -13.5684658990765
      ],
      [
        "M_t",
        -13.570273144397436
      ],
      [
        "(η/",
        -13.570344346661129
      ],
      [
        "(Ψ))",
        -13.572203662767269
      ],
      [
        "(σ_",
        -13.573551090759375
      ],
      [
        "N_j",
        -13.57386409617414
      ],
      [
        "λ)",
        -13.574171215528503
      ],
      [
        "(k)*",
        -13.57456072829895
      ],
      [
        "Μ_x",
        -13.574893325528013
      ],
      [
        "τ_ζ",
        -13.575975436664942
      ],
      [
        "G)",
        -13.576648822975248
      ],
      [
        "(Φ)/",
        -13.577492116620595
      ],
      [
        "sqrt(υ)*log(",
        -13.577675516973322
      ],
      [
        "(E)**",
        -13.577716646621608
      ],
      [
        "Μ_s",
        -13.577944720755712
      ],
      [
        "5**",
        -13.578336117541776
      ],
      [
        "_4",
        -13.578872272399613
      ],
      [
        "Σ_5",
        -13.579775869188865
      ],
      [
        "_O))",
        -13.57996110854639
      ],
      [
        "_J))",
        -13.581069818301367
      ],
      [
        "R)",
        -13.581319563709604
      ],
      [
        "'l_Γ",
        -13.583400518021191
      ],
      [
        "sqrt(c)",
        -13.583662862381718
      ],
      [
        "v)",
        -13.583695582956738
      ],
      [
        "Integral(log(H)",
        -13.5838367249359
      ],
      [
        "4*sqrt(",
        -13.584004265232446
      ],
      [
        "*Ν)",
        -13.586202633663246
      ],
      [
        "(χ**",
        -13.586773261006972
      ],
      [
        "*log(T)",
        -13.586914611368828
      ],
      [
        "sqrt(6)*",
        -13.58786233054262
      ],
      [
        "O_",
        -13.589447869118006
      ],
      [
        "sqrt(θ)*",
        -13.591951857880805
      ],
      [
        "z_T",
        -13.593054418464844
      ],
      [
        "log(Ο)",
        -13.593226146576852
      ],
      [
        "sqrt(κ)",
        -13.593519118900051
      ],
      [
        "λ_u",
        -13.59353141213856
      ],
      [
        "_ε",
        -13.595716256218338
      ],
      [
        "φ)*",
        -13.59585010902105
      ],
      [
        "H_Σ",
        -13.59627616178349
      ],
      [
        "ρ_s",
        -13.596783038474966
      ],
      [
        "Ε)*",
        -13.597842192671417
      ],
      [
        "81",
        -13.598028552359358
      ],
      [
        "**M)",
        -13.598289601398402
      ],
      [
        "ψ_Μ",
        -13.599056548883116
      ],
      [
        "G_Q",
        -13.599278689503423
      ],
      [
        "(E/",
        -13.599953411951066
      ],
      [
        "T_",
        -13.601761023095705
      ],
      [
        "z)",
        -13.6032422970151
      ],
      [
        "Y)",
        -13.604434743310332
      ],
      [
        "N_W",
        -13.604651012901606
      ],
      [
        "(μ_",
        -13.605530562555243
      ],
      [
        "Ν_s",
        -13.606587635364548
      ],
      [
        "(Κ**",
        -13.606841709339166
      ],
      [
        "(Ε/",
        -13.606938322390995
      ],
      [
        "z)*",
        -13.607280195400042
      ],
      [
        "T_Z",
        -13.607767868719169
      ],
      [
        "'κ_",
        -13.608116359837366
      ],
      [
        "G_dΛ",
        -13.608960302701488
      ],
      [
        "c_F",
        -13.608975149229428
      ],
      [
        "k_λ",
        -13.60904150242453
      ],
      [
        "(t)/",
        -13.609314453556603
      ],
      [
        "ξ_c",
        -13.611167976455494
      ],
      [
        "(θ_",
        -13.611262804051698
      ],
      [
        "/Ρ)",
        -13.611662230343963
      ],
      [
        "**2*",
        -13.614082898620904
      ],
      [
        "j_Δ",
        -13.614642753762146
      ],
      [
        "(Μ_",
        -13.615022731853774
      ],
      [
        "D_3Ο",
        -13.615540677494243
      ],
      [
        "μ_U",
        -13.6157226265228
      ],
      [
        "P_",
        -13.615830156106904
      ],
      [
        "τ_ΟΜ",
        -13.616808834565065
      ],
      [
        "sqrt(Ν)*",
        -13.617152572009624
      ],
      [
        "(t_",
        -13.617914390010805
      ],
      [
        "(L*",
        -13.618721104389117
      ],
      [
        "y_6",
        -13.620182104469857
      ],
      [
        "Ν_Χ",
        -13.620399979966123
      ],
      [
        "J*",
        -13.620453485907785
      ],
      [
        "(-M",
        -13.62079295845933
      ],
      [
        "T_O",
        -13.621774254965889
      ],
      [
        "δ_Z",
        -13.621799794038258
      ],
      [
        "(A/",
        -13.622117043072985
      ],
      [
        "_α",
        -13.62230803987564
      ],
      [
        "(γ)/",
        -13.623330915529046
      ],
      [
        "*λ)",
        -13.624172815659543
      ],
      [
        "Ρ_σ",
        -13.625106893681076
      ],
      [
        "T_J",
        -13.625367150736096
      ],
      [
        "/Κ)",
        -13.625374554169635
      ],
      [
        "Φ_",
        -13.625600979433257
      ],
      [
        "ω_ε",
        -13.6258300387003
      ],
      [
        "*ψ)",
        -13.626542368229698
      ],
      [
        "(D_",
        -13.62664968208533
      ],
      [
        "log(J)",
        -13.626809810520577
      ],
      [
        "_Χ))",
        -13.627202726641954
      ],
      [
        "'l",
        -13.627247714970371
      ],
      [
        "σ_ψ",
        -13.62787512286532
      ],
      [
        "R_Θ",
        -13.628141081944069
      ],
      [
        "**4)*",
        -13.628470242930163
      ],
      [
        "log(Η)**",
        -13.629738193784403
      ],
      [
        "R_U",
        -13.630078104208405
      ],
      [
        "δ_f",
        -13.630964025026923
      ],
      [
        "'ο_",
        -13.631022892460178
      ],
      [
        "υ_z",
        -13.631096345230356
      ],
      [
        "(Κ)*",
        -13.631320686356563
      ],
      [
        "(Φ))",
        -13.631426157684611
      ],
      [
        "_Λ)**",
        -13.63204464020188
      ],
      [
        "0",
        -13.632146351831402
      ],
      [
        "N_δ",
        -13.632644333520275
      ],
      [
        "sqrt(τ)",
        -13.632839494797528
      ],
      [
        "L_ΒNI",
        -13.632869820930406
      ],
      [
        "M_VΙN",
        -13.6328698214378
      ],
      [
        "Ξ_GOΔ",
        -13.632869822095907
      ],
      [
        "Ε_FξΦ",
        -13.632869822448136
      ],
      [
        "χ_XηΗ",
        -13.63286982274592
      ],
      [
        "Κ_ΑVV",
        -13.632869823180638
      ],
      [
        "μ_POh",
        -13.632869823213303
      ],
      [
        "U_PFΧ",
        -13.632869823234936
      ],
      [
        "Ο_BRΡ",
        -13.632869823279291
      ],
      [
        "Θ_οXΒ",
        -13.63286982341621
      ],
      [
        "Π_χWΗ",
        -13.632869823635511
      ],
      [
        "j_ΟDV",
        -13.632869823855245
      ],
      [
        "L_ΤδΡ",
        -13.63286982389242
      ],
      [
        "Ψ_kεZ",
        -13.63286982401664
      ],
      [
        "Ο_Αδτ",
        -13.6328698242449
      ],
      [
        "s_θLΞ",
        -13.632869824408248
      ],
      [
        "G_zLD",
        -13.632869824615224
      ],
      [
        "γ_ΙκΓ",
        -13.632869824739924
      ],
      [
        "Φ_Ζ6W",
        -13.632869824774764
      ],
      [
        "t_WRC",
        -13.63286982519256
      ],
      [
        "Z_οτH",
        -13.63286982522911
      ],
      [
        "L_AΑM",
        -13.6328698255858
      ],
      [
        "β_1Λh",
        -13.632869825691522
      ],
      [
        "ψ_ZΔF",
        -13.632869825737917
      ],
      [
        "Ι_μhρ",
        -13.63286982576686
      ],
      [
        "ε_υνΚ",
        -13.632869826050834
      ],
      [
        "I_Pμ6",
        -13.632869826078174
      ],
      [
        "Ζ_ΣΓλ",
        -13.632869826088548
      ],
      [
        "Ξ_Mκη",
        -13.632869827128737
      ],
      [
        "k_Θεδ",
        -13.632869828379665
      ],
      [
        "f_ρυΗ",
        -13.632869828891067
      ],
      [
        "Ψ_ορΤ",
        -13.632869829729644
      ],
      [
        "Χ_δT7",
        -13.632869830996633
      ],
      [
        "t_τΡμ",
        -13.632869834376564
      ],
      [
        "s_ΠΥΗ",
        -13.632869836080692
      ],
      [
        "G_TΥ1",
        -13.63286983849717
      ],
      [
        "g_4NΣ",
        -13.632869842031296
      ],
      [
        "Η_τCq",
        -13.632869842104189
      ],
      [
        "p_Xη4",
        -13.632869844302816
      ],
      [
        "x_Ι5J",
        -13.632869847976515
      ],
      [
        "f_ΘM2",
        -13.632869849797782
      ],
      [
        "c_9hθ",
        -13.632869862469509
      ],
      [
        "S_ΩιΚ",
        -13.63286986591821
      ],
      [
        "V_ΘρE",
        -13.63286987142162
      ],
      [
        "S_T9Θ",
        -13.632869874523474
      ],
      [
        "Σ_ΤVΕ",
        -13.632869875974558
      ],
      [
        "κ_ug2",
        -13.632869885697923
      ],
      [
        "i_υ7χ",
        -13.63286989473989
      ],
      [
        "M_GNy",
        -13.632869904770788
      ],
      [
        "Μ_OGΜ",
        -13.632869911795186
      ],
      [
        "ψ_UΖC",
        -13.632869918896947
      ],
      [
        "χ_bMκ",
        -13.632869920044485
      ],
      [
        "Θ_8Κs",
        -13.63286992113784
      ],
      [
        "Z_dρU",
        -13.632869925821195
      ],
      [
        "y_5W3",
        -13.632869934725406
      ],
      [
        "Θ_ΡCs",
        -13.632869938598123
      ],
      [
        "W_dΦΕ",
        -13.632869939436471
      ],
      [
        "Α_hLΝ",
        -13.632869962870696
      ],
      [
        "r_D5Z",
        -13.63286998931163
      ],
      [
        "T_dHΓ",
        -13.632870002300672
      ],
      [
        "y_ΣτΔ",
        -13.632870030103364
      ],
      [
        "i_4ζΥ",
        -13.63287006493698
      ],
      [
        "Q_jvS",
        -13.632870092741634
      ],
      [
        "g_εδ8",
        -13.632870119236369
      ],
      [
        "g_ΔΚN",
        -13.632870121773545
      ],
      [
        "v_Qmβ",
        -13.632870129323674
      ],
      [
        "f_iIγ",
        -13.632870149015478
      ],
      [
        "o_aΙ3",
        -13.632870172002006
      ],
      [
        "G_ΛmT",
        -13.632870187604857
      ],
      [
        "T_c2μ",
        -13.632870197311622
      ],
      [
        "λ_m7g",
        -13.632870200075564
      ],
      [
        "Y_ΟNω",
        -13.632870222252224
      ],
      [
        "r_ΔtI",
        -13.632870229987134
      ],
      [
        "R_c4L",
        -13.632870234194604
      ],
      [
        "χ_hφα",
        -13.632870240950728
      ],
      [
        "χ_kXC",
        -13.632870266868386
      ],
      [
        "ω_nGX",
        -13.63287028595767
      ],
      [
        "y_ΛFC",
        -13.63287029151829
      ],
      [
        "p_HIΤ",
        -13.63287029198717
      ],
      [
        "d_ψlR",
        -13.63287031190896
      ],
      [
        "V_cΧY",
        -13.632870361630095
      ],
      [
        "Ι_GXD",
        -13.632870384976902
      ],
      [
        "K_BΤL",
        -13.63287047548159
      ],
      [
        "m_RYl",
        -13.632870478150537
      ],
      [
        "Η_ηΑψ",
        -13.632870478635922
      ],
      [
        "Τ_ΣηN",
        -13.632870529093545
      ],
      [
        "u_UnΠ",
        -13.632870571866942
      ],
      [
        "λ_8RΓ",
        -13.632870614948487
      ],
      [
        "ι_λι2",
        -13.632870762000314
      ],
      [
        "d_XΛP",
        -13.632870954689787
      ],
      [
        "X_rC8",
        -13.632870961397762
      ],
      [
        "v_oΚj",
        -13.632871018531036
      ],
      [
        "f_HΚα",
        -13.632871082922744
      ],
      [
        "T_SqQ",
        -13.632871104731349
      ],
      [
        "h_61Θ",
        -13.63287111519362
      ],
      [
        "Q_hRΗ",
        -13.63287113127938
      ],
      [
        "j_W6Ν",
        -13.632871141958685
      ],
      [
        "y_AbT",
        -13.63287116195982
      ],
      [
        "i_ΝDW",
        -13.6328714159714
      ],
      [
        "Ν_oΖΛ",
        -13.63287156594001
      ],
      [
        "D_4ΘΓ",
        -13.632871663334935
      ],
      [
        "Ρ_σΨΑ",
        -13.632871857457491
      ],
      [
        "Η_ΚχΞ",
        -13.632872237346474
      ],
      [
        "t_i7α",
        -13.63287259714176
      ],
      [
        "Λ_Hcs",
        -13.632872739331598
      ],
      [
        "φ_II",
        -13.632873630686042
      ],
      [
        "p_ηβq",
        -13.63287368176517
      ],
      [
        "ξ_t4S",
        -13.632873902308985
      ],
      [
        "Υ_png",
        -13.632874561895598
      ],
      [
        "Α_bqB",
        -13.632874692826624
      ],
      [
        "I_ΠI",
        -13.632875551278554
      ],
      [
        "Υ_MOs",
        -13.632875611584858
      ],
      [
        "Γ_jVt",
        -13.632875867468222
      ],
      [
        "Κ_tαr",
        -13.632878127222238
      ],
      [
        "Φ_ΘYt",
        -13.632878241640457
      ],
      [
        "Η_οO",
        -13.632878458587909
      ],
      [
        "δ_dcλ",
        -13.632878727598891
      ],
      [
        "G_ξI",
        -13.6328789795947
      ],
      [
        "Ζ_PF",
        -13.632884320188747
      ],
      [
        "β_σH",
        -13.632884798270265
      ],
      [
        "Δ_ΜΒ",
        -13.632885222951977
      ],
      [
        "Μ_ΦC",
        -13.632885928344214
      ],
      [
        "Μ_γλ",
        -13.632887262033956
      ],
      [
        "L_Γε",
        -13.632887708470715
      ],
      [
        "h_ηΧ",
        -13.632888179804606
      ],
      [
        "Η_αR",
        -13.6328894827829
      ],
      [
        "Ξ_K4",
        -13.632890202171708
      ],
      [
        "A_gA",
        -13.632890222763065
      ],
      [
        "R_γΗb",
        -13.632890291545053
      ],
      [
        "i_9Ωl",
        -13.632890601017976
      ],
      [
        "ψ_Ah",
        -13.632891908869102
      ],
      [
        "Ε_8V",
        -13.632893932822494
      ],
      [
        "k_Ωj",
        -13.63289439802336
      ],
      [
        "B_ζ7",
        -13.632895267735645
      ],
      [
        "η_Lκ",
        -13.632895367486118
      ],
      [
        "p_φτ",
        -13.632896548422782
      ],
      [
        "Χ_XK",
        -13.632896663397853
      ],
      [
        "u_ΟΩm",
        -13.632897512430048
      ],
      [
        "υ_ΜΠ",
        -13.632897621061865
      ],
      [
        "k_9G",
        -13.63290116492312
      ],
      [
        "Ι_N7",
        -13.632901835579991
      ],
      [
        "x_Fχ",
        -13.6329149945683
      ],
      [
        "X_Ψ6",
        -13.632915734945222
      ],
      [
        "Ν_4Ο",
        -13.632921635288854
      ],
      [
        "r_JN",
        -13.632926913799064
      ],
      [
        "J_22",
        -13.632932154284266
      ],
      [
        "η_ρΚ",
        -13.632944722726489
      ],
      [
        "Λ_Κθ",
        -13.632946624471325
      ],
      [
        "u_gΔ",
        -13.632952495760437
      ],
      [
        "h_uj",
        -13.632982579751236
      ],
      [
        "x_xT",
        -13.632990570750858
      ],
      [
        "E_ZΥ",
        -13.632993860557509
      ],
      [
        "O_poΦ",
        -13.632997180245194
      ],
      [
        "y_RT",
        -13.63300642534891
      ],
      [
        "Ψ_AW",
        -13.63301254218601
      ],
      [
        "q_5ξ",
        -13.6330178753798
      ],
      [
        "υ_EM",
        -13.633024612142323
      ],
      [
        "W_wSs",
        -13.63305660116245
      ],
      [
        "Χ_Εq",
        -13.633058414492304
      ],
      [
        "y_ξκ",
        -13.633068839156468
      ],
      [
        "Z_ΟV",
        -13.63308110652624
      ],
      [
        "Β_Vq",
        -13.633146709276216
      ],
      [
        "κ_PΙ",
        -13.63315327642239
      ],
      [
        "Σ_Lk",
        -13.633173481750193
      ],
      [
        "r_ψΖ",
        -13.633194619154684
      ],
      [
        "(-1)*",
        -13.633233985751094
      ],
      [
        "γ_Ψ9",
        -13.63325180620278
      ],
      [
        "κ_Υσ",
        -13.63330308612342
      ],
      [
        "P_Wp",
        -13.633340437518244
      ],
      [
        "_θ",
        -13.633448133649472
      ],
      [
        "n_Θx",
        -13.633476918203511
      ],
      [
        "Γ_dZ",
        -13.633492805520971
      ],
      [
        "η_Ad",
        -13.633546904213356
      ],
      [
        "729",
        -13.63362096024849
      ],
      [
        "c_rΝ",
        -13.633658730298276
      ],
      [
        "τ_σΞ",
        -13.633699084552392
      ],
      [
        "W_Yl",
        -13.633753485703185
      ],
      [
        "Μ_as",
        -13.633810403316208
      ],
      [
        "σ_ΞΘ",
        -13.633919690625907
      ],
      [
        "Ι_9N",
        -13.633928647291604
      ],
      [
        "Integral(log(Μ)",
        -13.633980472147304
      ],
      [
        "ε_Gn",
        -13.63411892023803
      ],
      [
        "(F**",
        -13.63412403310824
      ],
      [
        "Ρ_wΒ",
        -13.63420127955833
      ],
      [
        "Θ_Eε",
        -13.63425209038587
      ],
      [
        "Ο_ηκ",
        -13.6343385507658
      ],
      [
        "ο_xκ",
        -13.634369488479283
      ],
      [
        "(S",
        -13.634454307856018
      ],
      [
        "M_LB",
        -13.634471916355622
      ],
      [
        "n_vL",
        -13.634551379022374
      ],
      [
        "P_UΞ",
        -13.634597242473806
      ],
      [
        "η_gΥ",
        -13.634611272230488
      ],
      [
        "p_ΙA",
        -13.6346540429086
      ],
      [
        "512",
        -13.6346807974473
      ],
      [
        "J_νF",
        -13.634827733390518
      ],
      [
        "v_μΘ",
        -13.63485858576096
      ],
      [
        "(ω)*",
        -13.634870746179583
      ],
      [
        "c_ξ",
        -13.634877372722515
      ],
      [
        "Ν_Oν",
        -13.634934447567948
      ],
      [
        "v_Iθ",
        -13.634974423695024
      ],
      [
        "a_1Υ",
        -13.634988109730774
      ],
      [
        "'F_ψ",
        -13.63504340019535
      ],
      [
        "R_χω",
        -13.635107306576153
      ],
      [
        "Ο_5Π",
        -13.63532902995731
      ],
      [
        "U_Ζ5",
        -13.635473347417149
      ],
      [
        "Ξ_IW",
        -13.63550426931781
      ],
      [
        "Τ_wZ",
        -13.635521997801211
      ],
      [
        "θ_GσΟ",
        -13.635603986424137
      ],
      [
        "X_υΔ",
        -13.63564268497568
      ],
      [
        "M_ηΕ",
        -13.635841057729074
      ],
      [
        "**7)*",
        -13.635871871279932
      ],
      [
        "u_N6",
        -13.63594110526043
      ],
      [
        "μ_bk",
        -13.636032667389706
      ],
      [
        "Ψ_Η5",
        -13.636306878104788
      ],
      [
        "**7))",
        -13.636592370875354
      ],
      [
        "κ_Qv",
        -13.636852125405053
      ],
      [
        "(A)*log(",
        -13.636859418440451
      ],
      [
        "ψ_oΣ",
        -13.636963689141613
      ],
      [
        "β_f2",
        -13.636963917219074
      ],
      [
        "Ψ_Λ",
        -13.637029831841804
      ],
      [
        "Derivative(6*",
        -13.637149756893647
      ],
      [
        "Π_γ4",
        -13.637218321631911
      ],
      [
        "Υ_ο",
        -13.63721858337944
      ],
      [
        "Ι_Τθ",
        -13.637219009037151
      ],
      [
        "**(8**",
        -13.63734558622066
      ],
      [
        "log(Ε)/",
        -13.637590225859876
      ],
      [
        "ν_q8",
        -13.637831546676884
      ],
      [
        "m_UQ",
        -13.638165737665862
      ],
      [
        "(Γ)*",
        -13.638327556235902
      ],
      [
        "**2)*",
        -13.638419535422154
      ],
      [
        "Q_9s",
        -13.638873026015546
      ],
      [
        "t_hχ",
        -13.63894902000337
      ],
      [
        "Integral(8*",
        -13.639193126312898
      ],
      [
        "r_1Ν",
        -13.639504847843492
      ],
      [
        "Γ_Fg",
        -13.64000349301257
      ],
      [
        "w))",
        -13.640782728484396
      ],
      [
        "ι_η",
        -13.64080294210734
      ],
      [
        "sqrt(φ)",
        -13.641003534292498
      ],
      [
        "(Ε)**(sqrt(",
        -13.641082523546794
      ],
      [
        "(-6*",
        -13.6413806922898
      ],
      [
        "/κ)",
        -13.64226390884031
      ],
      [
        "(D)*",
        -13.642998936664377
      ],
      [
        "(U)*",
        -13.64313696212873
      ],
      [
        "r_ΣE",
        -13.643454208144464
      ],
      [
        "ρ_Ga",
        -13.644341455115624
      ],
      [
        "(g*",
        -13.64437598432882
      ],
      [
        "I_Z",
        -13.644871007805897
      ],
      [
        "ζ_uq",
        -13.646250274514063
      ],
      [
        "*θ))",
        -13.646479083321465
      ],
      [
        "/W)",
        -13.646545259224006
      ],
      [
        "(r_U",
        -13.646846899857188
      ],
      [
        "'Χ_Γ",
        -13.647549719757595
      ],
      [
        "(Κ*",
        -13.647837018624369
      ],
      [
        "Sum(sqrt(b)/",
        -13.648121930677537
      ],
      [
        "'λ_Μ",
        -13.648141002777182
      ],
      [
        "**Π)",
        -13.648316252162784
      ],
      [
        "z_N",
        -13.648462989788705
      ],
      [
        "z_uE",
        -13.649576345329429
      ],
      [
        "(Z)*",
        -13.65060900386534
      ],
      [
        "t_z",
        -13.650850264421305
      ],
      [
        "Z_ι",
        -13.65093429105749
      ],
      [
        "φ_δ",
        -13.651326424672234
      ],
      [
        "(B)*",
        -13.651474951521386
      ],
      [
        "I_Ρ",
        -13.652688435560767
      ],
      [
        "Λ_1β",
        -13.653339440830322
      ],
      [
        "O_ys",
        -13.65349703358256
      ],
      [
        "Υ_ζ",
        -13.65358130785418
      ],
      [
        "Ο_N",
        -13.655197120296346
      ],
      [
        "Β_w",
        -13.655213997044976
      ],
      [
        "(s)*",
        -13.655488849967396
      ],
      [
        "J_z",
        -13.656560630228151
      ],
      [
        "K_Y",
        -13.656810980632912
      ],
      [
        "ε_Ξ",
        -13.656939569358588
      ],
      [
        "f_Μa",
        -13.657186598197784
      ],
      [
        "m_οΕ",
        -13.657764226187888
      ],
      [
        "α_O",
        -13.657869297865505
      ],
      [
        "'B_4",
        -13.658708402532636
      ],
      [
        "(K)*",
        -13.65907762443285
      ],
      [
        "16*",
        -13.659390251459858
      ],
      [
        "(ω_ζ",
        -13.659452207569524
      ],
      [
        "j_N",
        -13.659702668308748
      ],
      [
        "*Ο)",
        -13.659824057042345
      ],
      [
        "L_Ξ",
        -13.660611105345518
      ],
      [
        "**5)*",
        -13.660992388941825
      ],
      [
        "S_Υd",
        -13.664225114147987
      ],
      [
        "log(Z)",
        -13.66488813193816
      ],
      [
        "κ_F",
        -13.665093159849649
      ],
      [
        "Φ)",
        -13.665549545337823
      ],
      [
        ")**9)",
        -13.666881032431665
      ],
      [
        "β_Ρ",
        -13.66713958445943
      ],
      [
        "sqrt(n)",
        -13.66745834773782
      ],
      [
        "(B_",
        -13.667718264712729
      ],
      [
        "log(m)",
        -13.667818052061287
      ],
      [
        "**Δ)",
        -13.66783756540761
      ],
      [
        "Ξ_C",
        -13.66827591602908
      ],
      [
        ")/(4*",
        -13.668286317506883
      ],
      [
        "(p)*",
        -13.66968567657882
      ],
      [
        "Sum(-sqrt(-",
        -13.67005518394872
      ],
      [
        "sqrt(σ)",
        -13.670099965981455
      ],
      [
        "C_Δ",
        -13.67188061661307
      ],
      [
        "8)/2)",
        -13.67211785757337
      ],
      [
        "Y_Ω",
        -13.672414664258458
      ],
      [
        "sqrt(Y)*",
        -13.672585807406248
      ],
      [
        "(w)**(sqrt(",
        -13.67281448635668
      ],
      [
        "q_2τ",
        -13.672817828412098
      ],
      [
        "Y_Υ",
        -13.673172961840894
      ],
      [
        "Υ_8",
        -13.673309969432925
      ],
      [
        "s_k",
        -13.673528427073895
      ],
      [
        "γ_G",
        -13.673877430101562
      ],
      [
        "Q_Θ",
        -13.674313626406864
      ],
      [
        "Ψ_U",
        -13.674837780886918
      ],
      [
        "sqrt(Z)/",
        -13.67496612745131
      ],
      [
        "/u)",
        -13.675422956043382
      ],
      [
        "N_N",
        -13.676017844948952
      ],
      [
        "Ζ_ο",
        -13.676156168315956
      ],
      [
        "G_P",
        -13.67633722784715
      ],
      [
        "x_P",
        -13.67648213502351
      ],
      [
        "κ_ι",
        -13.676748150947624
      ],
      [
        "6**",
        -13.677003916176474
      ],
      [
        "θ_Ω",
        -13.677025746417916
      ],
      [
        "_Y",
        -13.677092186866869
      ],
      [
        "Π)*",
        -13.677451720623036
      ],
      [
        "η_I",
        -13.677494376630646
      ],
      [
        "Σ_",
        -13.677677376195753
      ],
      [
        "log(Ξ)",
        -13.677754271437966
      ],
      [
        "'K_h",
        -13.678290528791038
      ],
      [
        "_H",
        -13.678568910159
      ],
      [
        "Derivative(log(ι",
        -13.679063476485444
      ],
      [
        "j_Ε",
        -13.67923747479042
      ],
      [
        ")**(sqrt(Γ))",
        -13.67930624111689
      ],
      [
        "(Ζ)**",
        -13.679839920880108
      ],
      [
        "(-B",
        -13.679886710057543
      ],
      [
        "X_Ρ",
        -13.680897736230063
      ],
      [
        "(y)*",
        -13.681219389424822
      ],
      [
        "q)*",
        -13.681449901570916
      ],
      [
        "θ_υ",
        -13.681889638533208
      ],
      [
        "L_Φ",
        -13.682281742763273
      ],
      [
        "v_θ",
        -13.68273379966043
      ],
      [
        "/8",
        -13.683309696449076
      ],
      [
        "Integral(3*sqrt(",
        -13.683363512785183
      ],
      [
        "ξ_θ",
        -13.68355463302306
      ],
      [
        "log(χ",
        -13.683663264766931
      ],
      [
        "8*sqrt(",
        -13.683780544569135
      ],
      [
        "χ_z",
        -13.683874546715476
      ],
      [
        "U_B",
        -13.68400620270924
      ],
      [
        "Ν)*",
        -13.68427995231321
      ],
      [
        "log(θ)**",
        -13.684322957995942
      ],
      [
        "(a)/sqrt(",
        -13.68479402867521
      ],
      [
        "δ_Πd",
        -13.684948269499433
      ],
      [
        "μ_z",
        -13.684958500317531
      ],
      [
        "Ζ_Θ",
        -13.685030566261077
      ],
      [
        "z_Μ",
        -13.68567998953765
      ],
      [
        "θ_ζ",
        -13.685720964561863
      ],
      [
        "(h_",
        -13.68575988672148
      ],
      [
        "Γ_Q",
        -13.68629292368566
      ],
      [
        "Ξ_Y",
        -13.686354114067878
      ],
      [
        "χ)",
        -13.686364594236624
      ],
      [
        "ω_Χ",
        -13.686408203195429
      ],
      [
        "Ο_λ",
        -13.687617798175976
      ],
      [
        "(X)**",
        -13.687975509267638
      ],
      [
        "_M",
        -13.688100184802598
      ],
      [
        "v_ψ",
        -13.688134027497307
      ],
      [
        "G_θ",
        -13.688749674803631
      ],
      [
        "Y_ξ",
        -13.688815432387235
      ],
      [
        "g_W",
        -13.689586864530014
      ],
      [
        "λ_3",
        -13.68959959529102
      ],
      [
        "ξ_υ",
        -13.689804112008348
      ],
      [
        "Τ_Κ",
        -13.690106794775186
      ],
      [
        "Ψ_Β",
        -13.690541025542291
      ],
      [
        "Ω_",
        -13.690793996499329
      ],
      [
        "r_δ",
        -13.6910641493795
      ],
      [
        "_9",
        -13.691755133008318
      ],
      [
        "*γ)",
        -13.691823135040668
      ],
      [
        "J_",
        -13.691860899245862
      ],
      [
        "μ_ψ",
        -13.69245302671452
      ],
      [
        "(ι_",
        -13.692767083609304
      ],
      [
        "L_φ",
        -13.69291841980528
      ],
      [
        "**Z)",
        -13.693401514147988
      ],
      [
        "ζ_ψ",
        -13.69364625828517
      ],
      [
        "ψ_B",
        -13.693833050826992
      ],
      [
        "G_η",
        -13.69398346727806
      ],
      [
        "(Β/",
        -13.69491170699972
      ],
      [
        "-sqrt(2)*sqrt(",
        -13.695214081199971
      ],
      [
        "γ_γ",
        -13.695584686245493
      ],
      [
        "Sum(sqrt(C",
        -13.696114615337226
      ],
      [
        "X)",
        -13.696548917424488
      ],
      [
        "Τ_Ζ",
        -13.696560299554225
      ],
      [
        "(g**",
        -13.697314382029106
      ],
      [
        "A_B",
        -13.697421691388076
      ],
      [
        "E_X",
        -13.697574036279066
      ],
      [
        "z_g",
        -13.697606737743262
      ],
      [
        "ν_Ε",
        -13.697661397009702
      ],
      [
        "sqrt(ο)",
        -13.697712214016924
      ],
      [
        "Φ_Λ",
        -13.698176330709396
      ],
      [
        "ρ_μ",
        -13.698736932847442
      ],
      [
        "Α_Δ",
        -13.69961931023542
      ],
      [
        "'Α_ι",
        -13.699773159423952
      ],
      [
        "log(Ω)",
        -13.699846151347206
      ],
      [
        "N_τ",
        -13.699996335869486
      ],
      [
        "υ_Ξ",
        -13.700668478683712
      ],
      [
        "Ρ)**",
        -13.700914095736792
      ],
      [
        "P_Κ",
        -13.701185250915543
      ],
      [
        "log(A)",
        -13.701468702327029
      ],
      [
        "ω_Ξ",
        -13.701582622695447
      ],
      [
        "Λ_L",
        -13.702446974075729
      ],
      [
        "k*",
        -13.702843839338916
      ],
      [
        "Q_θ",
        -13.703159943473237
      ],
      [
        "_2",
        -13.703320041836257
      ],
      [
        "_j))",
        -13.703736797963272
      ],
      [
        "P_δ",
        -13.704059739499026
      ],
      [
        "/7",
        -13.70425637254303
      ],
      [
        "h_τ",
        -13.704363119060664
      ],
      [
        "z_Χ",
        -13.704482848032278
      ],
      [
        "/γ)",
        -13.704495755619009
      ],
      [
        "k)",
        -13.704803510316768
      ],
      [
        ")/log(9*",
        -13.704939188577464
      ],
      [
        "Ω_Ν",
        -13.705348651203895
      ],
      [
        "C_k",
        -13.7054463029638
      ],
      [
        "Y_ω",
        -13.705501723502168
      ],
      [
        "**A)",
        -13.705933721599596
      ],
      [
        "'X_Ρ",
        -13.706038998043129
      ],
      [
        "_ε)",
        -13.706379911479033
      ],
      [
        "log(j)**",
        -13.706443161765296
      ],
      [
        "Τ_Ε",
        -13.706544737473637
      ],
      [
        "(P)/sqrt(",
        -13.706654727042563
      ],
      [
        "Ω_D",
        -13.70687673627291
      ],
      [
        "ν_5",
        -13.707187366191846
      ],
      [
        "φ_ρ",
        -13.707248596335852
      ],
      [
        "-5*",
        -13.70797029611806
      ],
      [
        "Φ_K",
        -13.708587678574917
      ],
      [
        "ψ_μ",
        -13.708920350688064
      ],
      [
        "Χ_Σ",
        -13.70928318016967
      ],
      [
        "Β_χ",
        -13.709286826701533
      ],
      [
        "**h)",
        -13.70929782311189
      ],
      [
        "α_θ",
        -13.710130632958236
      ],
      [
        "(α/",
        -13.710351015089458
      ],
      [
        "γ*",
        -13.710450576545943
      ],
      [
        "η_Θ",
        -13.71118436689408
      ],
      [
        "x_l",
        -13.711232956546974
      ],
      [
        "Sum(sqrt(P",
        -13.711324845480751
      ],
      [
        "Ν_Ν",
        -13.711414544051667
      ],
      [
        "**9",
        -13.711976476119554
      ],
      [
        "τ_H",
        -13.71209430116842
      ],
      [
        "ρ_Α",
        -13.712334382425071
      ],
      [
        "A_4",
        -13.712858167473968
      ],
      [
        "x_Γ",
        -13.713060263973938
      ],
      [
        "τ_ε",
        -13.713926286114074
      ],
      [
        "t_G",
        -13.714043431227392
      ],
      [
        "(ω_",
        -13.714108114255543
      ],
      [
        "Γ_λ",
        -13.714446371474564
      ],
      [
        ")*log(p)",
        -13.714746349462937
      ],
      [
        "'C_",
        -13.715508791329812
      ],
      [
        "Α_Χ",
        -13.716122685056591
      ],
      [
        "θ_5",
        -13.716300489551248
      ],
      [
        "Ο_υ",
        -13.716752412206088
      ],
      [
        "Γ_J",
        -13.716950856906244
      ],
      [
        "_R",
        -13.717105083531996
      ],
      [
        "Μ_φ",
        -13.7173071886488
      ],
      [
        "x*",
        -13.71924737596034
      ],
      [
        "ω_4",
        -13.719283030908516
      ],
      [
        "(H)/",
        -13.719445866779012
      ],
      [
        "α_Χ",
        -13.720040941630376
      ],
      [
        "τ_ψ",
        -13.720346133514642
      ],
      [
        "'Z_b",
        -13.720346720258544
      ],
      [
        "log(3*",
        -13.720435774481526
      ],
      [
        "log(ι)",
        -13.720568148765024
      ],
      [
        "ψ_α",
        -13.720571928679885
      ],
      [
        "(Υ)*",
        -13.720789936515835
      ],
      [
        "log(Γ_",
        -13.72081958744706
      ],
      [
        ")/(2*",
        -13.720931008259951
      ],
      [
        ")*cosh(1)",
        -13.721054165071187
      ],
      [
        "Ρ_3",
        -13.721497654932216
      ],
      [
        "h_g",
        -13.72177426017197
      ],
      [
        "(Γ**",
        -13.72184123445553
      ],
      [
        "(2*sqrt(2)*sqrt(",
        -13.722071379006104
      ],
      [
        "Γ_ψ",
        -13.722647878991404
      ],
      [
        "u_Π",
        -13.72265948177014
      ],
      [
        ")/log(-",
        -13.72374038480224
      ],
      [
        "_ζ))",
        -13.724267557789672
      ],
      [
        "sqrt(Γ)*",
        -13.724466889014936
      ],
      [
        "S_",
        -13.724943034460606
      ],
      [
        "'λ_u",
        -13.725980582991289
      ],
      [
        "C_W",
        -13.726879521765555
      ],
      [
        "μ_Ι",
        -13.728189460524485
      ],
      [
        "sqrt(G)",
        -13.72832755031877
      ],
      [
        "ε_ω",
        -13.728678940159174
      ],
      [
        "Derivative(log(h",
        -13.72880656790868
      ],
      [
        "sqrt(r)",
        -13.728915501033065
      ],
      [
        "ψ_D",
        -13.729399955641531
      ],
      [
        "Ξ_5",
        -13.73008139012792
      ],
      [
        "μ_U)",
        -13.73031628696676
      ],
      [
        "Q))",
        -13.7310846008048
      ],
      [
        "sqrt(C)",
        -13.731876872542166
      ],
      [
        "Integral(sqrt(V)",
        -13.732691895927251
      ],
      [
        "D)",
        -13.73291325445526
      ],
      [
        "r_U",
        -13.733349018211737
      ],
      [
        "n_Ψ",
        -13.73401793161079
      ],
      [
        "c_Ξ",
        -13.734028239965118
      ],
      [
        "g_",
        -13.734938429593754
      ],
      [
        "(ο_U",
        -13.735446210587444
      ],
      [
        "_ι",
        -13.735938025720436
      ],
      [
        "_ψ",
        -13.738598995136927
      ],
      [
        "(τ)*",
        -13.738691103536668
      ],
      [
        "log(Y)",
        -13.739681415648898
      ],
      [
        "-sqrt(3)*sqrt(",
        -13.741019353673694
      ],
      [
        "Χ*",
        -13.741298426140656
      ],
      [
        "(g/",
        -13.742133397209324
      ],
      [
        "o_μ",
        -13.742550299241096
      ],
      [
        "_Γ))",
        -13.743177631626985
      ],
      [
        "_v",
        -13.743578605933042
      ],
      [
        "γ)",
        -13.743940088732312
      ],
      [
        "l_Γ",
        -13.743964951478636
      ],
      [
        "**Υ)",
        -13.745004403365725
      ],
      [
        "log(j)",
        -13.74567571280252
      ],
      [
        "'Π_",
        -13.746725011264246
      ],
      [
        "log(b)/",
        -13.747180408472394
      ],
      [
        "b_Τ",
        -13.748995352075063
      ],
      [
        "(Ω**",
        -13.749274002648336
      ],
      [
        "l_Ν",
        -13.749427451596304
      ],
      [
        "*Z)",
        -13.749512448854484
      ],
      [
        "δ_Μm",
        -13.749796354915931
      ],
      [
        "(b/",
        -13.750066752254668
      ],
      [
        "φ_x",
        -13.75112563228004
      ],
      [
        "_T))",
        -13.751473369496708
      ],
      [
        "Ω_4",
        -13.751515599365124
      ],
      [
        "*Ν))",
        -13.752688313824564
      ],
      [
        "c_N",
        -13.75274635543925
      ],
      [
        "log(k)",
        -13.755676754547316
      ],
      [
        "Θ_Α",
        -13.755739366768
      ],
      [
        "τ_6",
        -13.75682443831895
      ],
      [
        "/Z)",
        -13.756864067240896
      ],
      [
        "sqrt(q)/",
        -13.757140694097112
      ],
      [
        "sqrt(y)*",
        -13.757158321399286
      ],
      [
        "Derivative(K",
        -13.758061544303114
      ],
      [
        "Derivative(log(K",
        -13.758159501108755
      ],
      [
        "y_ο",
        -13.758808715953377
      ],
      [
        "(σ**",
        -13.758821327376976
      ],
      [
        "ν_l",
        -13.759379701462093
      ],
      [
        "Derivative(U",
        -13.759489411598713
      ],
      [
        "Z*",
        -13.759700654230034
      ],
      [
        "f_g",
        -13.761147815717504
      ],
      [
        "_B",
        -13.761265925541563
      ],
      [
        "Α_2",
        -13.761606306681674
      ],
      [
        "I_4θ",
        -13.764078711358472
      ],
      [
        "/5",
        -13.765581075762308
      ],
      [
        "d_Τ",
        -13.765663453394756
      ],
      [
        "sqrt(υ)/",
        -13.768581333142937
      ],
      [
        "S_ε",
        -13.768841361440028
      ],
      [
        "J)*",
        -13.771473505163188
      ],
      [
        "log(2*",
        -13.771502199376227
      ],
      [
        "(Σ)/",
        -13.771931191128695
      ],
      [
        "t_v",
        -13.774552510955353
      ],
      [
        "**Σ)",
        -13.774897558312
      ],
      [
        "Σ)*",
        -13.775025151020046
      ],
      [
        "ι_b",
        -13.775098345749862
      ],
      [
        "μ)/",
        -13.775642575373812
      ],
      [
        "β_",
        -13.775921306971622
      ],
      [
        ")/5**",
        -13.775998447168
      ],
      [
        "η)/",
        -13.776475860746771
      ],
      [
        "A_v",
        -13.776654384796338
      ],
      [
        "Φ_ρ",
        -13.778964646806992
      ],
      [
        "sqrt(Χ)",
        -13.77925666104647
      ],
      [
        "**(sqrt(5)*sqrt(",
        -13.779793339415708
      ],
      [
        "(λ**",
        -13.779899704667365
      ],
      [
        "η)*",
        -13.779901960645368
      ],
      [
        "5*log(",
        -13.782827758533283
      ],
      [
        "Β)/2)",
        -13.783286232530816
      ],
      [
        "sqrt(θ)",
        -13.78403552166168
      ],
      [
        "(α)*",
        -13.784147858863484
      ],
      [
        "**X)",
        -13.785267094902151
      ],
      [
        "log(q_",
        -13.785900247562584
      ],
      [
        "H_Α",
        -13.786263766267709
      ],
      [
        "_U",
        -13.786451757075854
      ],
      [
        ")/σ",
        -13.787177082772017
      ],
      [
        "Integral(sqrt(c)",
        -13.787383561453272
      ],
      [
        "-sqrt(7)*sqrt(",
        -13.787732513799654
      ],
      [
        "Integral(sqrt(Ε)",
        -13.787843191094453
      ],
      [
        "c_X",
        -13.788691096608
      ],
      [
        "sqrt(Y_",
        -13.789257687159964
      ],
      [
        "sqrt(ξ)/",
        -13.78970989278266
      ],
      [
        "(q_",
        -13.789901528963524
      ],
      [
        "Τ_un",
        -13.790336966967253
      ],
      [
        "/3)*",
        -13.790877390825113
      ],
      [
        "μ_t",
        -13.790926539197873
      ],
      [
        "*Σ)",
        -13.79117396157763
      ],
      [
        "υ_",
        -13.79126093050851
      ],
      [
        "*log(L)",
        -13.79135920187145
      ],
      [
        "z_X",
        -13.791776335141416
      ],
      [
        "log(q)",
        -13.792226048528237
      ],
      [
        ")/log(Ξ)",
        -13.792987179377583
      ],
      [
        "s_5",
        -13.79307237724635
      ],
      [
        "log(ξ)",
        -13.794389414555964
      ],
      [
        "λ)*",
        -13.794908014037809
      ],
      [
        "f_",
        -13.794984890574844
      ],
      [
        "S_Ο",
        -13.795101306657983
      ],
      [
        "l))",
        -13.7953837530716
      ],
      [
        "v_M",
        -13.795536184500785
      ],
      [
        "σ_ΔL",
        -13.797460123076064
      ],
      [
        "Sum(sqrt(ω)",
        -13.797892050644856
      ],
      [
        "F)",
        -13.79922088253225
      ],
      [
        "Ζ_z",
        -13.799381227278865
      ],
      [
        "L*",
        -13.799747520258205
      ],
      [
        "X_a",
        -13.80069525848144
      ],
      [
        "_Ι",
        -13.801023708816093
      ],
      [
        "(Ε_",
        -13.801933455346909
      ],
      [
        "log(φ)**",
        -13.804818747967138
      ],
      [
        "(w",
        -13.805164461425482
      ],
      [
        "r_C",
        -13.805979326357972
      ],
      [
        "log(Μ",
        -13.806680057520175
      ],
      [
        "d_c)",
        -13.808795216591452
      ],
      [
        "log(Ε",
        -13.808938401631371
      ],
      [
        "l_χS",
        -13.810021555794956
      ],
      [
        "_Κ",
        -13.810163376827846
      ],
      [
        "_n",
        -13.810264497068504
      ],
      [
        "(C)/sqrt(",
        -13.810649785205657
      ],
      [
        "/R)",
        -13.811133368864258
      ],
      [
        "_3)",
        -13.811446511816486
      ],
      [
        "Λ_",
        -13.811865552600356
      ],
      [
        "C_Ω",
        -13.812014502537735
      ],
      [
        "N_Λ",
        -13.814307627910043
      ],
      [
        "'c_",
        -13.815121128645773
      ],
      [
        "(-2*",
        -13.81532473172077
      ],
      [
        "sqrt(t)*",
        -13.815866369946855
      ],
      [
        "χ_Y",
        -13.817537692719416
      ],
      [
        "d_Ψ",
        -13.819187259915893
      ],
      [
        "Integral(sqrt(K)",
        -13.82019433477511
      ],
      [
        "Integral(log(Κ)",
        -13.820418565709849
      ],
      [
        "(k/",
        -13.821221056783363
      ],
      [
        ")**ζ",
        -13.823235218514782
      ],
      [
        "ξ_",
        -13.823402869858452
      ],
      [
        "_Β",
        -13.823406667480878
      ],
      [
        "(-Η",
        -13.824433403469245
      ],
      [
        "M)",
        -13.824523184867566
      ],
      [
        "ω)**",
        -13.824913983804011
      ],
      [
        "Λ_1",
        -13.825990742272037
      ],
      [
        "'l_χ",
        -13.826667537105834
      ],
      [
        "_ψ)*",
        -13.82802473757846
      ],
      [
        "log(j)*",
        -13.828192173923528
      ],
      [
        "(D_s",
        -13.830346535374671
      ],
      [
        "Σ_γ",
        -13.832329620957784
      ],
      [
        "(G/",
        -13.83290572105758
      ],
      [
        "W_Η",
        -13.834007782561992
      ],
      [
        "**Ρ)",
        -13.834889922631092
      ],
      [
        "sqrt(α)",
        -13.835681460284258
      ],
      [
        "n_N",
        -13.836524680370015
      ],
      [
        "n_O",
        -13.838012302219504
      ],
      [
        "log(u)**",
        -13.838081817072917
      ],
      [
        "Sum(-2*",
        -13.838254822662616
      ],
      [
        "Ν*",
        -13.839383072933437
      ],
      [
        "7*sqrt(",
        -13.839834551007344
      ],
      [
        "sqrt(Ο)",
        -13.84122438804367
      ],
      [
        "Sum(log(Ζ)**",
        -13.841736618501626
      ],
      [
        "(-Ψ",
        -13.842234441924932
      ],
      [
        "V_Δ",
        -13.842651575581748
      ],
      [
        "_A)",
        -13.844384665117056
      ],
      [
        "(Ι**",
        -13.845384067861422
      ],
      [
        "Ω_Λ",
        -13.846730590499872
      ],
      [
        "log(υ)**",
        -13.846910666474294
      ],
      [
        ")**log(4*",
        -13.847262587500923
      ],
      [
        "_Z))",
        -13.847489736004828
      ],
      [
        "E)*",
        -13.847918835388835
      ],
      [
        "/2",
        -13.848621869430447
      ],
      [
        "Ο)*",
        -13.850511749670844
      ],
      [
        "*log(Ο)",
        -13.851072639309132
      ],
      [
        "Α_ι",
        -13.854683746044367
      ],
      [
        "Η_D",
        -13.855292938193452
      ],
      [
        "(ζ/",
        -13.85562177153017
      ],
      [
        "(Κ)/",
        -13.855880841122213
      ],
      [
        "(i",
        -13.855896325846116
      ],
      [
        "Ξ_Π",
        -13.856578834006864
      ],
      [
        "(K*",
        -13.85673205754198
      ],
      [
        "Integral(log(φ)",
        -13.857767466167964
      ],
      [
        "2)**",
        -13.858514784107372
      ],
      [
        "(-Γ",
        -13.858564560784032
      ],
      [
        "_τ",
        -13.858744986190448
      ],
      [
        "(Υ)**",
        -13.859304224341384
      ],
      [
        "(ξ/",
        -13.859616796001587
      ],
      [
        "τ_c",
        -13.859688536449656
      ],
      [
        "Ω_H5",
        -13.86034957241245
      ],
      [
        "u)*",
        -13.86067673901258
      ],
      [
        "k_1",
        -13.861256058511328
      ],
      [
        "Ι_Υ",
        -13.862513690165644
      ],
      [
        "(ε**",
        -13.863108305886277
      ],
      [
        "φ_",
        -13.865190629294236
      ],
      [
        "_Ω))",
        -13.865461909378316
      ],
      [
        "2*sqrt(2)*sqrt(",
        -13.866935145600277
      ],
      [
        "φ**(",
        -13.86898162174683
      ],
      [
        "U_δ",
        -13.869533576711143
      ],
      [
        "Integral(sqrt(σ",
        -13.870307639645754
      ],
      [
        "ζ_",
        -13.872162789972204
      ],
      [
        "(l)/",
        -13.872510144860268
      ],
      [
        "sqrt(M",
        -13.87405413921948
      ],
      [
        "_F))",
        -13.87494724021546
      ],
      [
        "R)*",
        -13.875238282372958
      ],
      [
        "(φ)*",
        -13.875785960351967
      ],
      [
        "log(φ_",
        -13.87578934220292
      ],
      [
        "(Λ/",
        -13.876989292833336
      ],
      [
        "n_φ",
        -13.877387969462324
      ],
      [
        "/4)/",
        -13.87764034204634
      ],
      [
        "/φ)",
        -13.87792767615502
      ],
      [
        "ε_r",
        -13.879958898098453
      ],
      [
        "_T",
        -13.880096758327957
      ],
      [
        ")/log(w",
        -13.880701049853036
      ],
      [
        "B_t",
        -13.8810496659346
      ],
      [
        "*log(ε)",
        -13.881071915453388
      ],
      [
        "'χ_U",
        -13.881157960643788
      ],
      [
        "(Γ/",
        -13.881627558970347
      ],
      [
        "Ε_Β",
        -13.88166462572674
      ],
      [
        "k_δ",
        -13.881948794035088
      ],
      [
        "log(Δ",
        -13.882164004328883
      ],
      [
        "sqrt(Ν)/",
        -13.883477471894272
      ],
      [
        "Δ_E",
        -13.885577157482189
      ],
      [
        "U_b",
        -13.885659258720814
      ],
      [
        "2)/2)",
        -13.885871169441808
      ],
      [
        "p_",
        -13.886388437075402
      ],
      [
        "β_L",
        -13.88664636354952
      ],
      [
        "O_Q",
        -13.8881756985943
      ],
      [
        "M_u",
        -13.889888287310512
      ],
      [
        "A_K",
        -13.890058868548987
      ],
      [
        "(Λ*",
        -13.891049720245949
      ],
      [
        "**Τ)",
        -13.891239583402571
      ],
      [
        "(c_",
        -13.891490592248868
      ],
      [
        "log(Γ)*",
        -13.89379773980396
      ],
      [
        "_φ)",
        -13.894850106989937
      ],
      [
        "log(Χ)",
        -13.895821887886264
      ],
      [
        "log(A)*",
        -13.896008352723404
      ],
      [
        "-7",
        -13.896120802542198
      ],
      [
        "_E",
        -13.896600685852956
      ],
      [
        "3**",
        -13.898920641727514
      ],
      [
        "'A_K",
        -13.900148042552342
      ],
      [
        "sqrt(D)*",
        -13.90115111513874
      ],
      [
        "V*",
        -13.903162995800384
      ],
      [
        "ν_Ψ",
        -13.90365050870983
      ],
      [
        "κ_6",
        -13.905012673198494
      ],
      [
        "k_C",
        -13.906102400957309
      ],
      [
        "Ν_jΔσ",
        -13.90682668472888
      ],
      [
        "f_ΧΨΘ",
        -13.907335257285704
      ],
      [
        "M_ψE",
        -13.908538021901231
      ],
      [
        "Q_QR",
        -13.90877929327187
      ],
      [
        "(Ζ**",
        -13.909213525205836
      ],
      [
        "_Y))",
        -13.909686468800896
      ],
      [
        "Κ_Ψξρ",
        -13.90990684568298
      ],
      [
        "_q",
        -13.909945364949872
      ],
      [
        "log(j",
        -13.910206971822197
      ],
      [
        "_κ",
        -13.910593472565076
      ],
      [
        "ρ_RχU",
        -13.910612865301609
      ],
      [
        "sqrt(V)*",
        -13.910640966661065
      ],
      [
        "*log(R)",
        -13.91077664266016
      ],
      [
        "ξ_ζBΩ",
        -13.911184808048963
      ],
      [
        "α_kΘ",
        -13.912557588721263
      ],
      [
        "P_bΘ",
        -13.912809930127793
      ],
      [
        "Q_QU",
        -13.913217100481766
      ],
      [
        "x_Ηo7",
        -13.91337511045101
      ],
      [
        "L_s",
        -13.913391526721831
      ],
      [
        "γ)*",
        -13.913405712532322
      ],
      [
        "Integral(sqrt(Μ)",
        -13.913432626712208
      ],
      [
        ")/g",
        -13.913531873029624
      ],
      [
        "λ_E",
        -13.91377941178962
      ],
      [
        "(j/",
        -13.913948690967183
      ],
      [
        "'V_Δ",
        -13.91410094893224
      ],
      [
        "A_Υ",
        -13.914396667634142
      ],
      [
        "Ν_λΨd",
        -13.914642844923245
      ],
      [
        "ζ)**",
        -13.914679736160032
      ],
      [
        "'C_k",
        -13.915014199398112
      ],
      [
        "*ε)",
        -13.915080137008273
      ],
      [
        "Λ**",
        -13.915413548520124
      ],
      [
        "ρ_Τβ",
        -13.9154621002593
      ],
      [
        "sqrt(G)*",
        -13.916710257316057
      ],
      [
        "Ω_A",
        -13.917805268161333
      ],
      [
        "log(M_",
        -13.91804058724339
      ],
      [
        "g_yβ",
        -13.918143550189871
      ],
      [
        "p_O",
        -13.918733399308042
      ],
      [
        "Γ_F",
        -13.918767313004226
      ],
      [
        "(C*",
        -13.918924896017115
      ],
      [
        "z_KΒ",
        -13.919599045515811
      ],
      [
        "Γ_f",
        -13.919744227407469
      ],
      [
        ")**(9**",
        -13.919874959430985
      ],
      [
        "β_λ",
        -13.920825405175645
      ],
      [
        "j)*",
        -13.920853988081069
      ],
      [
        "ζ_Α",
        -13.921431133262065
      ],
      [
        "B_O",
        -13.92149733981748
      ],
      [
        "Σ_η",
        -13.92200123035876
      ],
      [
        "t_L",
        -13.922104150402184
      ],
      [
        "I_Ε",
        -13.922195677912407
      ],
      [
        "U_6",
        -13.922236893335423
      ],
      [
        "_Θ))",
        -13.922564433876309
      ],
      [
        "g_Ζ",
        -13.922992857115728
      ],
      [
        "φ_Φ",
        -13.92307195654796
      ],
      [
        "/ε)",
        -13.923148846126884
      ],
      [
        "(γ/",
        -13.923764483450729
      ],
      [
        "v_F",
        -13.924051792090207
      ],
      [
        "-sqrt(f",
        -13.924144550379044
      ],
      [
        "β_Κ",
        -13.92505120320057
      ],
      [
        "j_5",
        -13.925075817577609
      ],
      [
        "Η)",
        -13.92536282480401
      ],
      [
        "γ_σ",
        -13.925498243911806
      ],
      [
        "ε_μiζ",
        -13.926432037829636
      ],
      [
        "Ν_ο",
        -13.926778237795896
      ],
      [
        "Ρ_",
        -13.927205817130776
      ],
      [
        "κ_I",
        -13.92725719963319
      ],
      [
        "χ_U",
        -13.927287321006528
      ],
      [
        "-sqrt(Ι",
        -13.92733439731303
      ],
      [
        "k_X",
        -13.92735789999654
      ],
      [
        "Ξ_2ΨΝ",
        -13.927366789436778
      ],
      [
        "λ_T",
        -13.927376642974831
      ],
      [
        ")/sqrt(-",
        -13.927404809938269
      ],
      [
        "sqrt(ξ)*",
        -13.927675120567878
      ],
      [
        "Γ_Ω",
        -13.92803904077393
      ],
      [
        "R_f",
        -13.92808220569086
      ],
      [
        "Χ_A",
        -13.928121352990203
      ],
      [
        "φ_B",
        -13.928169288852445
      ],
      [
        "h_v",
        -13.928797568372184
      ],
      [
        "Q_λ",
        -13.928824636908976
      ],
      [
        "Ψ_P",
        -13.929187254822596
      ],
      [
        "sqrt(F)",
        -13.929344422082252
      ],
      [
        "(Ρ**",
        -13.929915297097104
      ],
      [
        "log(ο)**",
        -13.93000575676181
      ],
      [
        "J_μ",
        -13.930065805440082
      ],
      [
        "T_Σ",
        -13.930124670015116
      ],
      [
        "Π_G",
        -13.930156937889766
      ],
      [
        "K_",
        -13.93019706163538
      ],
      [
        "sqrt(ξ)",
        -13.930266633477896
      ],
      [
        "γ_ΧI",
        -13.930515587735403
      ],
      [
        "sqrt(Χ_",
        -13.930706083411268
      ],
      [
        "X_γ",
        -13.930814425056706
      ],
      [
        "σ_Θ",
        -13.931056196957236
      ],
      [
        "M_δ",
        -13.931166857581085
      ],
      [
        "Sum(sqrt(n)",
        -13.9319263411802
      ],
      [
        "Y_ζ",
        -13.932005256579092
      ],
      [
        "sqrt(μ)",
        -13.932256641236552
      ],
      [
        "Υ_Β",
        -13.932512272001908
      ],
      [
        "p_Ξ",
        -13.93317796571798
      ],
      [
        "(Ζ)/",
        -13.934173869275662
      ],
      [
        "_h",
        -13.934637724978847
      ],
      [
        "Δ_Λ",
        -13.93508701158264
      ],
      [
        "F_Ι",
        -13.936139692752906
      ],
      [
        "x_Ξ",
        -13.936510712528731
      ],
      [
        "Ψ_α",
        -13.93673772694394
      ],
      [
        "N_νQ",
        -13.936743259164643
      ],
      [
        "sqrt(λ",
        -13.937235329970765
      ],
      [
        "D_4",
        -13.937346930575345
      ],
      [
        "h_p",
        -13.93787499626617
      ],
      [
        "M_7Χ",
        -13.938175421884262
      ],
      [
        "/Ε)",
        -13.939528808327598
      ],
      [
        "Χ_K",
        -13.940248354727316
      ],
      [
        "X_λΠ1",
        -13.94147142894648
      ],
      [
        "ι_ωΨN",
        -13.941472539837296
      ],
      [
        "Γ_ΨJU",
        -13.941477360137457
      ],
      [
        "A_TUω",
        -13.941522808774735
      ],
      [
        "Ρ_nχm",
        -13.941578111562997
      ],
      [
        "c_Gθy",
        -13.941605245566157
      ],
      [
        "u_ΙΖD",
        -13.94162150067302
      ],
      [
        "μ_Ζ4",
        -13.941626774230729
      ],
      [
        "H_xq",
        -13.941772403141858
      ],
      [
        "Λ_κχ",
        -13.941805783151466
      ],
      [
        "Δ_Ωua",
        -13.94180751307024
      ],
      [
        "Λ_x",
        -13.941865418816263
      ],
      [
        "Κ_Τnμ",
        -13.941969148344398
      ],
      [
        "ω_ωpQ",
        -13.9419913391201
      ],
      [
        "L_ξdφ",
        -13.942111316994666
      ],
      [
        "η_uK",
        -13.942143365057458
      ],
      [
        "q_οEx",
        -13.942147217839514
      ],
      [
        "Ζ_W",
        -13.94220768670992
      ],
      [
        ")/log(k",
        -13.942239471539889
      ],
      [
        "C_8Hγ",
        -13.942315256798334
      ],
      [
        "P_oδδ",
        -13.942361060862444
      ],
      [
        "z_Eωa",
        -13.942370954681673
      ],
      [
        "t_Rσ",
        -13.942394478331591
      ],
      [
        "Γ_",
        -13.942477599783643
      ],
      [
        "G_φρA",
        -13.94247944303458
      ],
      [
        "D_ΚHZ",
        -13.942517667464266
      ],
      [
        "Π_PT",
        -13.942526225384093
      ],
      [
        "F_xTk",
        -13.942538712677578
      ],
      [
        "W_yuw",
        -13.94255000317721
      ],
      [
        "ν_βC",
        -13.94257101663049
      ],
      [
        "υ_tΓW",
        -13.94258474213001
      ],
      [
        "Γ_θβu",
        -13.942593882269652
      ],
      [
        "P_asκ",
        -13.942603266887572
      ],
      [
        "β_Jην",
        -13.942627393704509
      ],
      [
        "T_2υL",
        -13.942631518698246
      ],
      [
        "log(g)",
        -13.942645197231068
      ],
      [
        "Q_ZΠn",
        -13.942664000395776
      ],
      [
        "Q_ΙUn",
        -13.94270397808101
      ],
      [
        "a_ΓΧY",
        -13.942727423510416
      ],
      [
        "R_ΨΑ",
        -13.942740402602144
      ],
      [
        "β_νsA",
        -13.942761141129056
      ],
      [
        "Φ_lXΥ",
        -13.942798558985626
      ],
      [
        "Τ_bCΔ",
        -13.94281883913375
      ],
      [
        "Τ_cAw",
        -13.942848272813045
      ],
      [
        "q_jκ",
        -13.94284896485067
      ],
      [
        "υ_Ωλ9",
        -13.942904809242876
      ],
      [
        "b_θΨk",
        -13.94296274357933
      ],
      [
        "Μ_qB",
        -13.943062275373729
      ],
      [
        "Η_Σ9",
        -13.943082143341998
      ],
      [
        "w_Fνι",
        -13.943087236219968
      ],
      [
        "δ_VΥ",
        -13.943088335446436
      ],
      [
        "O_δJ",
        -13.94311452082169
      ],
      [
        "y_Ωτχ",
        -13.94314283054788
      ],
      [
        "i_5ζi",
        -13.943199972224011
      ],
      [
        "ρ_ws3",
        -13.943226547650346
      ],
      [
        "*Γ)",
        -13.943350974347394
      ],
      [
        "H_",
        -13.94338164624
      ],
      [
        "j_μδ",
        -13.944086677002904
      ],
      [
        "l_βcX",
        -13.944111821662217
      ],
      [
        "ζ_gfY",
        -13.944164440711882
      ],
      [
        "L_υ4B",
        -13.944680238094056
      ],
      [
        "8)**",
        -13.94482481278894
      ],
      [
        "(n**",
        -13.9449271106089
      ],
      [
        "V_lM",
        -13.944956980164768
      ],
      [
        "Υ_EΓ",
        -13.94519059104225
      ],
      [
        "y_φVν",
        -13.945416332489142
      ],
      [
        "D_s",
        -13.94566204561066
      ],
      [
        "w_XΡ",
        -13.945678767899397
      ],
      [
        "Ψ_tυ1",
        -13.946400757778752
      ],
      [
        "B_s5",
        -13.947166008420467
      ],
      [
        "K_Δ",
        -13.947224210144476
      ],
      [
        "Ρ_6D",
        -13.94722781288493
      ],
      [
        "h*",
        -13.94729901302826
      ],
      [
        "x_lΛΗ",
        -13.947820703941566
      ],
      [
        "z_Kf",
        -13.947932506935416
      ],
      [
        "Integral(5*",
        -13.947945178421994
      ],
      [
        "Π_SΝ",
        -13.948081989264802
      ],
      [
        "p_A",
        -13.948263827360332
      ],
      [
        "sqrt(a)",
        -13.948628353243524
      ],
      [
        "(ξ_",
        -13.94911856803918
      ],
      [
        "u_r",
        -13.949279055291356
      ],
      [
        "L_p",
        -13.94999670461852
      ],
      [
        "'m_Y",
        -13.950214322100932
      ],
      [
        "Μ_Ζ",
        -13.95024970756564
      ],
      [
        "u_Dτ",
        -13.95124028988683
      ],
      [
        "(y)**",
        -13.951947274680167
      ],
      [
        "H_Π8",
        -13.952334639596526
      ],
      [
        "sqrt(k)*",
        -13.952408077249236
      ],
      [
        "k_ΩΨ",
        -13.952485514626575
      ],
      [
        "(O_8",
        -13.95268959016632
      ],
      [
        "Ψ_Ζ",
        -13.952711850037073
      ],
      [
        "(F)/",
        -13.953095894907152
      ],
      [
        "α)/",
        -13.953104998425973
      ],
      [
        "o_v",
        -13.953258333547485
      ],
      [
        "Α_4Ωg",
        -13.953342189574848
      ],
      [
        "Τ)*",
        -13.954450369426128
      ],
      [
        "Integral(x*",
        -13.9547303471167
      ],
      [
        "v_aΔκ",
        -13.954752012519926
      ],
      [
        "B_Iιq",
        -13.95492642252499
      ],
      [
        "c_wK",
        -13.955070642765104
      ],
      [
        "_υ))",
        -13.955154340502167
      ],
      [
        "5)/",
        -13.955389060833832
      ],
      [
        "log(λ)*",
        -13.955412263446268
      ],
      [
        "ν_ΡΔ",
        -13.955617584284012
      ],
      [
        "Γ_δB",
        -13.955991369208908
      ],
      [
        "X)*",
        -13.956223280489391
      ],
      [
        "C_Κr",
        -13.956380963692734
      ],
      [
        "κ)*",
        -13.957194335054432
      ],
      [
        "sqrt(χ))",
        -13.957211334126717
      ],
      [
        "N_ζΣ",
        -13.95727843566576
      ],
      [
        "T_pΥ",
        -13.957528403724645
      ],
      [
        "y_",
        -13.957741084621064
      ],
      [
        "d_tL",
        -13.95798992072154
      ],
      [
        "(Ν)**(",
        -13.958746785648044
      ],
      [
        "δ_Xμd",
        -13.959906145602336
      ],
      [
        "log(X)",
        -13.960967754313064
      ],
      [
        "(α)*log(",
        -13.960980148794906
      ],
      [
        "E_ψΑs",
        -13.96172211322203
      ],
      [
        "Z**",
        -13.96197630958006
      ],
      [
        "T_Xμ",
        -13.962120830001792
      ],
      [
        "'Γ_F",
        -13.96230733530154
      ],
      [
        "Ξ_qj",
        -13.962564439083076
      ],
      [
        "η_xΑ",
        -13.96264813309894
      ],
      [
        "Derivative(log(V",
        -13.96328897803066
      ],
      [
        "(β)*",
        -13.963457326640317
      ],
      [
        "Sum(log(Ο)",
        -13.963469863136414
      ],
      [
        "(Υ/",
        -13.963566181315022
      ],
      [
        "_Φ)**",
        -13.964001282314582
      ],
      [
        "κ_ηu",
        -13.96409073013073
      ],
      [
        "**T)",
        -13.964202391346245
      ],
      [
        "*ι)",
        -13.964340522048872
      ],
      [
        "l_pz",
        -13.964369572303047
      ],
      [
        "Integral(D*",
        -13.964503345420908
      ],
      [
        "(G_",
        -13.964529864879127
      ],
      [
        "log(T)*",
        -13.964551933195308
      ],
      [
        "**3)**",
        -13.964591108658691
      ],
      [
        "log(r)*",
        -13.9646035817063
      ],
      [
        "g_klΦ",
        -13.96474339391418
      ],
      [
        "(ο)/sqrt(",
        -13.96478220503616
      ],
      [
        "o_εξΘ",
        -13.96486161475491
      ],
      [
        "(χ_U",
        -13.965205248248402
      ],
      [
        "f_ΛΝΛ",
        -13.965400071045984
      ],
      [
        "Ρ_FΣΑ",
        -13.965521519034766
      ],
      [
        "P_fΞa",
        -13.965534203103322
      ],
      [
        "β_abΝ",
        -13.965538542058486
      ],
      [
        "L_V4Λ",
        -13.965540606632398
      ],
      [
        "α_IGΖ",
        -13.965543899257272
      ],
      [
        "Κ_υΩG",
        -13.965552572706166
      ],
      [
        "φ_wH5",
        -13.96556265546946
      ],
      [
        "Ψ_μIΗ",
        -13.965571110187703
      ],
      [
        "ο_mΟu",
        -13.9655745170369
      ],
      [
        "Ο_ΝAl",
        -13.965594060335132
      ],
      [
        "υ_XXc",
        -13.96560653364735
      ],
      [
        "β_ΖpΗ",
        -13.965699668055477
      ],
      [
        "δ_cUΣ",
        -13.965735381255913
      ],
      [
        "Λ_WrΘ",
        -13.96594576062508
      ],
      [
        "Sum(Ψ*",
        -13.966164015494776
      ],
      [
        "I_IγO",
        -13.966203154306662
      ],
      [
        "β_AMO",
        -13.966203154892307
      ],
      [
        "δ_gΠN",
        -13.966203155043406
      ],
      [
        "Ε_ΟεN",
        -13.966203155545918
      ],
      [
        "Κ_βCQ",
        -13.966203155706395
      ],
      [
        "f_AXO",
        -13.96620315573839
      ],
      [
        "C_ΕτΟ",
        -13.966203155776666
      ],
      [
        "Φ_οVχ",
        -13.966203155799162
      ],
      [
        "Φ_XηΩ",
        -13.96620315580827
      ],
      [
        "Δ_ΚΦQ",
        -13.96620315606052
      ],
      [
        "a_IOΒ",
        -13.966203156107156
      ],
      [
        "Φ_χδΔ",
        -13.96620315614924
      ],
      [
        "Φ_PKO",
        -13.966203156306378
      ],
      [
        "Φ_8Iι",
        -13.966203156314744
      ],
      [
        "ρ_LαI",
        -13.96620315644996
      ],
      [
        "γ_QOz",
        -13.966203156481017
      ],
      [
        "β_3ξI",
        -13.966203156486785
      ],
      [
        "Η_AJσ",
        -13.966203156487673
      ],
      [
        "Π_ΥGρ",
        -13.966203156524074
      ],
      [
        "Η_εΓZ",
        -13.9662031565413
      ],
      [
        "u_ογO",
        -13.966203156620836
      ],
      [
        "P_gQυ",
        -13.966203156635924
      ],
      [
        "v_zBζ",
        -13.96620315663775
      ],
      [
        "Z_ΣΤz",
        -13.966203156640784
      ],
      [
        "M_HJO",
        -13.966203156653258
      ],
      [
        "Θ_OΥK",
        -13.96620315666595
      ],
      [
        "Z_1NΖ",
        -13.966203156684
      ],
      [
        "Μ_ΜDI",
        -13.96620315668467
      ],
      [
        "Φ_ΧνΨ",
        -13.96620315668905
      ],
      [
        "R_IΕθ",
        -13.966203156694515
      ],
      [
        "E_IΜB",
        -13.966203156695602
      ],
      [
        "v_Jσχ",
        -13.966203156716547
      ],
      [
        "Π_ξζρ",
        -13.966203156737304
      ],
      [
        "ρ_O1Q",
        -13.966203156761544
      ],
      [
        "δ_ΙCδ",
        -13.966203156773108
      ],
      [
        "Ζ_ισK",
        -13.966203156780283
      ],
      [
        "Λ_XQλ",
        -13.966203156831352
      ],
      [
        "δ_οQξ",
        -13.966203156862884
      ],
      [
        "β_VΞτ",
        -13.966203156969067
      ],
      [
        "δ_ΨΟD",
        -13.966203156995997
      ],
      [
        "M_MκQ",
        -13.966203157005449
      ],
      [
        "I_IΦΞ",
        -13.966203157036572
      ],
      [
[...]
