{
  "version": "1.0",
  "truncation": null,
  "padding": null,
  "added_tokens": [
    {
      "id": 0,
      "content": "<pad>",
      "single_word": false,
      "lstrip": false,
      "rstrip": false,
      "normalized": false,
      "special": true
    },
    {
      "id": 1,
      "content": "<bos>",
      "single_word": false,
      "lstrip": false,
      "rstrip": false,
      "normalized": false,
      "special": true
    },
    {
      "id": 2,
      "content": "<eos>",
      "single_word": false,
      "lstrip": false,
      "rstrip": false,
      "normalized": false,
      "special": true
    },
    {
      "id": 3,
      "content": "<unk>",
      "single_word": false,
      "lstrip": false,
      "rstrip": false,
      "normalized": false,
      "special": true
    },
    {
      "id": 4,
      "content": "<mml:mo>",
      "single_word": false,
      "lstrip": false,
      "rstrip": false,
      "normalized": false,
      "special": true
    },
    {
      "id": 5,
      "content": "</mml:mo>",
      "single_word": false,
      "lstrip": false,
      "rstrip": false,
      "normalized": false,
      "special": true
    },
    {
      "id": 6,
      "content": "<mml:mi>",
      "single_word": false,
      "lstrip": false,
      "rstrip": false,
      "normalized": false,
      "special": true
    },
    {
      "id": 7,
      "content": "</mml:mi>",
      "single_word": false,
      "lstrip": false,
      "rstrip": false,
      "normalized": false,
      "special": true
    },
    {
      "id": 8,
      "content": "<mml:msub>",
      "single_word": false,
      "lstrip": false,
      "rstrip": false,
      "normalized": false,
      "special": true
    },
    {
      "id": 9,
      "content": "</mml:msub>",
      "single_word": false,
      "lstrip": false,
      "rstrip": false,
      "normalized": false,
      "special": true
    },
    {
      "id": 10,
      "content": "<mml:msup>",
      "single_word": false,
      "lstrip": false,
      "rstrip": false,
      "normalized": false,
      "special": true
    },
    {
      "id": 11,
      "content": "</mml:msup>",
      "single_word": false,
      "lstrip": false,
      "rstrip": false,
      "normalized": false,
      "special": true
    },
    {
      "id": 12,
      "content": "<mml:mrow>",
      "single_word": false,
      "lstrip": false,
      "rstrip": false,
      "normalized": false,
      "special": true
    },
    {
      "id": 13,
      "content": "</mml:mrow>",
      "single_word": false,
      "lstrip": false,
      "rstrip": false,
      "normalized": false,
      "special": true
    },
    {
      "id": 14,
      "content": "<mml:mfrac>",
      "single_word": false,
      "lstrip": false,
      "rstrip": false,
      "normalized": false,
      "special": true
    },
    {
      "id": 15,
      "content": "</mml:mfrac>",
      "single_word": false,
      "lstrip": false,
      "rstrip": false,
      "normalized": false,
      "special": true
    },
    {
      "id": 16,
      "content": "<mml:mtext>",
      "single_word": false,
      "lstrip": false,
      "rstrip": false,
      "normalized": false,
      "special": true
    },
    {
      "id": 17,
      "content": "</mml:mtext>",
      "single_word": false,
      "lstrip": false,
      "rstrip": false,
      "normalized": false,
      "special": true
    }
  ],
  "normalizer": {
    "type": "Sequence",
    "normalizers": [
      {
        "type": "NFKC"
      }
    ]
  },
  "pre_tokenizer": {
    "type": "Split",
    "pattern": {
      "Regex": "<[^>]+>|\"\"\"[^\"]*\"\"\"|'''[^']*'''|\"[^\"]*\"|'[^']*'|\\bdef\\b|\\bclass\\b|\\bfor\\b|\\bwhile\\b|\\bif\\b|\\belif\\b|\\belse\\b|\\breturn\\b|\\bimport\\b|\\bfrom\\b|\\bas\\b|\\bwith\\b|\\btry\\b|\\bexcept\\b|==|!=|<=|>=|\\+=|-=|\\*=|/=|=>|->|\\bSymbol\\b|\\bEq\\b|\\bexp\\b|\\bsin\\b|\\bcos\\b|\\btan\\b|\\bdiff\\b|^\\s+|\\s+"
    },
    "behavior": "Isolated",
    "invert": false
  },
  "post_processor": null,
  "decoder": {
    "type": "ByteLevel",
    "add_prefix_space": true,
    "trim_offsets": true,
    "use_regex": true
  },
  "model": {
    "type": "Unigram",
    "unk_id": null,
    "vocab": [
      [
        "<pad>",
        0.0
      ],
      [
        "<bos>",
        0.0
      ],
      [
        "<eos>",
        0.0
      ],
      [
        "<unk>",
        0.0
      ],
      [
        "<mml:mo>",
        0.0
      ],
      [
        "</mml:mo>",
        0.0
      ],
      [
        "<mml:mi>",
        0.0
      ],
      [
        "</mml:mi>",
        0.0
      ],
      [
        "<mml:msub>",
        0.0
      ],
      [
        "</mml:msub>",
        0.0
      ],
      [
        "<mml:msup>",
        0.0
      ],
      [
        "</mml:msup>",
        0.0
      ],
      [
        "<mml:mrow>",
        0.0
      ],
      [
        "</mml:mrow>",
        0.0
      ],
      [
        "<mml:mfrac>",
        0.0
      ],
      [
        "</mml:mfrac>",
        0.0
      ],
      [
        "<mml:mtext>",
        0.0
      ],
      [
        "</mml:mtext>",
        0.0
      ],
      [
        ">",
        -1.785218457872622
      ],
      [
        "\n",
        -2.0336203943163476
      ],
      [
        "<mml:m",
        -2.6952912340643103
      ],
      [
        " ",
        -2.8949495817160855
      ],
      [
        "r",
        -3.2256606249229716
      ],
      [
        "ow",
        -3.2947620307847565
      ],
      [
        "</mml:m",
        -3.3033996802532126
      ],
      [
        "o",
        -3.328884739439589
      ],
      [
        "i",
        -3.3843400386906364
      ],
      [
        "e",
        -3.4716098703761773
      ],
      [
        "</mml:mi",
        -3.482655965533816
      ],
      [
        "=",
        -3.837466844792333
      ],
      [
        "'",
        -3.927294072339789
      ],
      [
        "(",
        -4.010433128058542
      ],
      [
        ")",
        -4.097052314454919
      ],
      [
        "d",
        -4.2175408398723775
      ],
      [
        "l",
        -4.247603040520259
      ],
      [
        "Sy",
        -4.292840126044052
      ],
      [
        "mb",
        -4.292852467161522
      ],
      [
        "n",
        -4.417093800579655
      ],
      [
        "nc",
        -4.446246865509716
      ],
      [
        "</mml:mf",
        -4.826675665158142
      ],
      [
        "<mml:mf",
        -4.828554672315079
      ],
      [
        ",",
        -4.84048415477311
      ],
      [
        "p",
        -5.048837806689789
      ],
      [
        "<mml:msub",
        -5.138776892054517
      ],
      [
        "</mml:msub",
        -5.138776896542652
      ],
      [
        "c",
        -5.307723402909572
      ],
      [
        "ra",
        -5.457562998349298
      ],
      [
        "q",
        -5.480825929424917
      ],
      [
        "E",
        -5.52272100654451
      ],
      [
        "+",
        -5.544040859051437
      ],
      [
        "-",
        -5.922132930801052
      ],
      [
        "</mml:msu",
        -5.98432293519943
      ],
      [
        "xt",
        -5.993766097048443
      ],
      [
        "<mml:msu",
        -5.993966516633263
      ],
      [
        "te",
        -6.000150304139217
      ],
      [
        "xp",
        -6.012407283952006
      ],
      [
        "ta",
        -6.043659286090767
      ],
      [
        "si",
        -6.046739432411336
      ],
      [
        "cos",
        -6.052275999851068
      ],
      [
        "sqrt",
        -6.091127285354927
      ],
      [
        "un",
        -6.546857694977346
      ],
      [
        "ve",
        -6.553927120472016
      ],
      [
        "log",
        -6.612942448892854
      ],
      [
        "∂",
        -6.638266571775864
      ],
      [
        "ro",
        -6.753488908271143
      ],
      [
        "w",
        -7.056559376057762
      ],
      [
        "2",
        -7.074978078748727
      ],
      [
        "su",
        -7.1499005049993505
      ],
      [
        "∑",
        -7.237111272499349
      ],
      [
        "3",
        -7.239570468002288
      ],
      [
        "∫",
        -7.249636486082295
      ],
      [
        "6",
        -7.2616671393223
      ],
      [
        "4",
        -7.278300782852617
      ],
      [
        "5",
        -7.296158708941663
      ],
      [
        "9",
        -7.298624385965166
      ],
      [
        "8",
        -7.345016376099672
      ],
      [
        "7",
        -7.3680948033609255
      ],
      [
        "1",
        -7.37418004570441
      ],
      [
        ")))",
        -7.379261175995676
      ],
      [
        "b",
        -7.4713130872411275
      ],
      [
        "m",
        -7.498007204866906
      ],
      [
        "s",
        -7.524443466991431
      ],
      [
        "f",
        -7.622051135912709
      ],
      [
        "y",
        -7.631684571567363
      ],
      [
        "t",
        -7.633043572109823
      ],
      [
        "α",
        -7.650868318910207
      ],
      [
        "_",
        -7.656648944792209
      ],
      [
        "v",
        -7.671276577292126
      ],
      [
        "Θ",
        -7.674564067897533
      ],
      [
        "Y",
        -7.677461157392252
      ],
      [
        "x",
        -7.683982912119787
      ],
      [
        "Β",
        -7.688125733741803
      ],
      [
        "σ",
        -7.693473026941614
      ],
      [
        "V",
        -7.701168258775722
      ],
      [
        "ρ",
        -7.703078448889855
      ],
      [
        "A",
        -7.703132008345
      ],
      [
        "ψ",
        -7.704060411187058
      ],
      [
        "Χ",
        -7.707939737693721
      ],
      [
        "ν",
        -7.709923873587414
      ],
      [
        "Ψ",
        -7.712615188779137
      ],
      [
        "k",
        -7.714008943932926
      ],
      [
        "u",
        -7.715492542672349
      ],
      [
        "τ",
        -7.717301186544975
      ],
      [
        "Γ",
        -7.7173180754970225
      ],
      [
        "Ζ",
        -7.719104230983658
      ],
      [
        "Κ",
        -7.719871463467652
      ],
      [
        "F",
        -7.723171776500744
      ],
      [
        "ο",
        -7.724548464836748
      ],
      [
        "))",
        -7.725055023092708
      ],
      [
        "Derivative(",
        -7.7257574527565325
      ],
      [
        "ω",
        -7.72826800251119
      ],
      [
        "Φ",
        -7.728290555034141
      ],
      [
        "Η",
        -7.730978800021711
      ],
      [
        "z",
        -7.73144972739914
      ],
      [
        "H",
        -7.732298415119386
      ],
      [
        "Σ",
        -7.7337917693964995
      ],
      [
        "Ξ",
        -7.73385555369762
      ],
      [
        "Δ",
        -7.734227878149439
      ],
      [
        "P",
        -7.734937051939711
      ],
      [
        "L",
        -7.7359819718975995
      ],
      [
        "D",
        -7.73808737015627
      ],
      [
        "Ο",
        -7.739285346040894
      ],
      [
        "X",
        -7.741377978168883
      ],
      [
        "χ",
        -7.746076400092844
      ],
      [
        "R",
        -7.748100454063974
      ],
      [
        "Ι",
        -7.749990580181976
      ],
      [
        "Λ",
        -7.7500595671669315
      ],
      [
        "δ",
        -7.755256614512332
      ],
      [
        "Α",
        -7.75999300141441
      ],
      [
        "a",
        -7.76298281805672
      ],
      [
        "ε",
        -7.7637613469979145
      ],
      [
        "h",
        -7.766201387095797
      ],
      [
        "Sum(",
        -7.768661004752847
      ],
      [
        "U",
        -7.772066779584302
      ],
      [
        "g",
        -7.772272848818899
      ],
      [
        "Μ",
        -7.772508855810626
      ],
      [
        "T",
        -7.773152040691416
      ],
      [
        "ζ",
        -7.773158329178576
      ],
      [
        "Τ",
        -7.775659436084587
      ],
      [
        "κ",
        -7.780745769165797
      ],
      [
        "Ε",
        -7.783220016279439
      ],
      [
        "Ω",
        -7.783872557942729
      ],
      [
        "ξ",
        -7.783890673247378
      ],
      [
        "J",
        -7.786115152791864
      ],
      [
        "λ",
        -7.786359267888587
      ],
      [
        "Z",
        -7.789662413505025
      ],
      [
        "G",
        -7.789679935912068
      ],
      [
        "η",
        -7.789807828968498
      ],
      [
        "Integral(",
        -7.78984900956159
      ],
      [
        "φ",
        -7.791920234940113
      ],
      [
        "θ",
        -7.798374493835335
      ],
      [
        "B",
        -7.7996059562460305
      ],
      [
        "ι",
        -7.805826886809069
      ],
      [
        "γ",
        -7.806680709216996
      ],
      [
        "C",
        -7.8068673446747825
      ],
      [
        "μ",
        -7.807003275953626
      ],
      [
        "Π",
        -7.807352881576786
      ],
      [
        "Ν",
        -7.810342433512477
      ],
      [
        "β",
        -7.823068300271037
      ],
      [
        "Υ",
        -7.828914844409321
      ],
      [
        "K",
        -7.831647007287341
      ],
      [
        "υ",
        -7.83356530220738
      ],
      [
        "W",
        -7.836998676377059
      ],
      [
        "Ρ",
        -7.839607376990124
      ],
      [
        "M",
        -7.846170311594782
      ],
      [
        "j",
        -7.850258852762017
      ],
      [
        ")*",
        -7.861543582296494
      ],
      [
        "Q",
        -8.066511554094486
      ],
      [
        "S",
        -8.096242594019241
      ],
      [
        "*",
        -8.187979952025405
      ],
      [
        "O",
        -8.235737895534347
      ],
      [
        "I",
        -8.247477040856136
      ],
      [
        "N",
        -8.263127686524271
      ],
      [
        ")/",
        -8.384777199785209
      ],
      [
        ")**",
        -8.413782557913677
      ],
      [
        "**",
        -8.589431517985332
      ],
      [
        "log(",
        -8.594981058337556
      ],
      [
        "/",
        -8.76797867083756
      ],
      [
        "'σ",
        -9.158671009337848
      ],
      [
        "'Θ",
        -9.185043624939766
      ],
      [
        "'Γ",
        -9.202087169316627
      ],
      [
        "sqrt(",
        -9.203705804856348
      ],
      [
        "'ω",
        -9.205372956581318
      ],
      [
        "'Β",
        -9.223521882807184
      ],
      [
        "'x",
        -9.226282668309175
      ],
      [
        "'A",
        -9.226451295845369
      ],
      [
        "'Φ",
        -9.233899897946511
      ],
      [
        "'α",
        -9.23982589853879
      ],
      [
        "Derivative(sqrt(",
        -9.240015388322458
      ],
      [
        "'Σ",
        -9.24639357752337
      ],
      [
        "'Y",
        -9.246975791367653
      ],
      [
        "'X",
        -9.25230273880939
      ],
      [
        "'ψ",
        -9.259379962525273
      ],
      [
        "'V",
        -9.259551216875193
      ],
      [
        "'δ",
        -9.263365272692994
      ],
      [
        "'f",
        -9.265890673869503
      ],
      [
        "'k",
        -9.273255079196288
      ],
      [
        "'z",
        -9.275732036406922
      ],
      [
        "'Α",
        -9.276531467307935
      ],
      [
        "'Ζ",
        -9.27657514323651
      ],
      [
        "'P",
        -9.2861865194171
      ],
      [
        "'φ",
        -9.287212981393205
      ],
      [
        "'T",
        -9.287384526122754
      ],
      [
        "'Ξ",
        -9.288898518742538
      ],
      [
        "'τ",
        -9.289177274851301
      ],
      [
        "'ρ",
        -9.29012763462286
      ],
      [
        "'h",
        -9.291124371400542
      ],
      [
        "'γ",
        -9.296574380027401
      ],
      [
        "'Ο",
        -9.30015025761465
      ],
      [
        "'λ",
        -9.307604754646881
      ],
      [
        "'Ψ",
        -9.31075317814047
      ],
      [
        "'Z",
        -9.312536068832799
      ],
      [
        "'J",
        -9.312625373473846
      ],
      [
        "'Τ",
        -9.321300936251257
      ],
      [
        "Derivative(-",
        -9.325417785685335
      ],
      [
        "'Ω",
        -9.32552257258809
      ],
      [
        "'ζ",
        -9.326058772790542
      ],
      [
        "'F",
        -9.327328799993415
      ],
      [
        "Sum(sqrt(",
        -9.327732629510196
      ],
      [
        "'L",
        -9.327938626852376
      ],
      [
        "**(",
        -9.329322379360432
      ],
      [
        "'B",
        -9.329904940732789
      ],
      [
        "'Χ",
        -9.330660365267985
      ],
      [
        "'t",
        -9.337285913629836
      ],
      [
        "'χ",
        -9.33869062910892
      ],
      [
        "'v",
        -9.339145237875924
      ],
      [
        "'θ",
        -9.34067674956325
      ],
      [
        "'η",
        -9.344699277324022
      ],
      [
        "'Ρ",
        -9.347764786543676
      ],
      [
        "'Ε",
        -9.34925010994285
      ],
      [
        "'ι",
        -9.355907254256927
      ],
      [
        "'Λ",
        -9.356272962855343
      ],
      [
        "'D",
        -9.35751598539732
      ],
      [
        "'ξ",
        -9.358762382969344
      ],
      [
        "'U",
        -9.35966154655982
      ],
      [
        "'μ",
        -9.360455315093219
      ],
      [
        "'W",
        -9.370048549494658
      ],
      [
        "'H",
        -9.370897796887364
      ],
      [
        "'ν",
        -9.371133551471932
      ],
      [
        "'ε",
        -9.371794710543893
      ],
      [
        "'u",
        -9.379085375758782
      ],
      [
        "'Μ",
        -9.381550934025352
      ],
      [
        "'G",
        -9.384697505052625
      ],
      [
        "'Δ",
        -9.38528535432394
      ],
      [
        "'R",
        -9.387087840209947
      ],
      [
        "'ο",
        -9.38904173068245
      ],
      [
        "'Ι",
        -9.391137073559815
      ],
      [
        "'C",
        -9.39304043037048
      ],
      [
        "'g",
        -9.396346707997461
      ],
      [
        "'a",
        -9.407190130270692
      ],
      [
        "'κ",
        -9.409752960018086
      ],
      [
        "Integral(sqrt(",
        -9.410529043059272
      ],
      [
        "'Ν",
        -9.418042732748049
      ],
      [
        "'Υ",
        -9.435532287337809
      ],
      [
        "'Κ",
        -9.437522970123592
      ],
      [
        "'υ",
        -9.443787706107333
      ],
      [
        "'β",
        -9.4447760864333
      ],
      [
        "'Η",
        -9.464355893359878
      ],
      [
        "'j",
        -9.46845084190143
      ],
      [
        "'K",
        -9.484563756755168
      ],
      [
        "Derivative(log(",
        -9.494712450163796
      ],
      [
        "'Π",
        -9.506434891293923
      ],
      [
        "Sum(log(",
        -9.506494119818619
      ],
      [
        "Integral(-",
        -9.514492279100486
      ],
      [
        "Integral(log(",
        -9.54108058875012
      ],
      [
        "'M",
        -9.564090092530282
      ],
      [
        "Sum(-",
        -9.580939341902445
      ],
      [
        ")*log(",
        -9.705716869209382
      ],
      [
        ")**log(",
        -9.781276594969029
      ],
      [
        ")/log(",
        -9.795205808628335
      ],
      [
        ")/2)",
        -9.841949899562524
      ],
      [
        ")**(sqrt(",
        -9.864205424568926
      ],
      [
        ")/sqrt(",
        -9.913889395688976
      ],
      [
        "(k",
        -9.980860620866993
      ],
      [
        "(Ζ",
        -9.990714170598771
      ],
      [
        "(A",
        -9.999391079747404
      ],
      [
        "5)))",
        -10.007177578770232
      ],
      [
        "(Α",
        -10.0160318432509
      ],
      [
        "2))",
        -10.030033961889618
      ],
      [
        "β_",
        -10.0436934896269
      ],
      [
        "(Z",
        -10.044159750693542
      ],
      [
        "(Θ",
        -10.053729466737046
      ],
      [
        "_O",
        -10.054030809894417
      ],
      [
        "(Σ",
        -10.061684446102237
      ],
      [
        "(Γ",
        -10.068399782849301
      ],
      [
        "(σ",
        -10.070941073033394
      ],
      [
        "(Y",
        -10.078790577670635
      ],
      [
        "Ω_",
        -10.092280377431084
      ],
      [
        "(Φ",
        -10.09464113331064
      ],
      [
        "(J",
        -10.095076887239177
      ],
      [
        "(Β",
        -10.097359585148972
      ],
      [
        "(ρ",
        -10.101273518612373
      ],
      [
        "(Η",
        -10.101331524227064
      ],
      [
        "κ_",
        -10.106005829749503
      ],
      [
        "Ξ_",
        -10.11004205514925
      ],
      [
        "(δ",
        -10.116009963686874
      ],
      [
        "(ν",
        -10.123696157481028
      ],
      [
        "(ψ",
        -10.131309189025583
      ],
      [
        "(ω",
        -10.131346591061
      ],
      [
        "(h",
        -10.137408475751844
      ],
      [
        "_3",
        -10.137435981655619
      ],
      [
        "(T",
        -10.141554619791101
      ],
      [
        "(Ν",
        -10.144551896859598
      ],
      [
        "(f",
        -10.14657125795108
      ],
      [
        "1))",
        -10.153105566876242
      ],
      [
        "*log(",
        -10.154935044617815
      ],
      [
        "_Β",
        -10.16046493273594
      ],
      [
        "_Θ",
        -10.164104571548638
      ],
      [
        "(X",
        -10.16454927815834
      ],
      [
        "μ_",
        -10.165491705529604
      ],
      [
        "(P",
        -10.167791959833941
      ],
      [
        "6))",
        -10.168850678485256
      ],
      [
        "(R",
        -10.17531607047776
      ],
      [
        "(B",
        -10.176321168817758
      ],
      [
        "(z",
        -10.177967986494911
      ],
      [
        "(H",
        -10.180320967105878
      ],
      [
        "/2)",
        -10.182577283586802
      ],
      [
        "_δ",
        -10.187155247020357
      ],
      [
        "_6",
        -10.188202685945647
      ],
      [
        "(μ",
        -10.190296212238692
      ],
      [
        "_S",
        -10.192909171684322
      ],
      [
        "(K",
        -10.193267098862052
      ],
      [
        "4))",
        -10.199644388353505
      ],
      [
        "(C",
        -10.209102705893097
      ],
      [
        "(Ξ",
        -10.212761236205717
      ],
      [
        "(j",
        -10.213760633823448
      ],
      [
        "(G",
        -10.217573485000441
      ],
      [
        "(V",
        -10.221301784252352
      ],
      [
        "(φ",
        -10.221763310684057
      ],
      [
        "(Δ",
        -10.228743831283847
      ],
      [
        "8)",
        -10.228793468317418
      ],
      [
        "(Ψ",
        -10.231407235778619
      ],
      [
        "(ξ",
        -10.232822672613615
      ],
      [
        "**(sqrt(",
        -10.23375760415551
      ],
      [
        "(α",
        -10.235395918477225
      ],
      [
        "_Ε",
        -10.23614264693001
      ],
      [
        "(g",
        -10.23675471106332
      ],
      [
        "_V",
        -10.248091035885299
      ],
      [
        "_8",
        -10.251768269998642
      ],
      [
        "(Υ",
        -10.253821864311032
      ],
      [
        "(Χ",
        -10.254819886570685
      ],
      [
        "(Ε",
        -10.256969887693419
      ],
      [
        "(γ",
        -10.257534560356078
      ],
      [
        "_χ",
        -10.257627756504583
      ],
      [
        "_Ξ",
        -10.268001145111032
      ],
      [
        "X_",
        -10.272157658071198
      ],
      [
        "(λ",
        -10.274295960879854
      ],
      [
        "_B",
        -10.27763074421335
      ],
      [
        "9))",
        -10.281029867346392
      ],
      [
        "(D",
        -10.283603236158312
      ],
      [
        "3))",
        -10.286312100958014
      ],
      [
        "(ε",
        -10.286575989902744
      ],
      [
        "(W",
        -10.294343889854664
      ],
      [
        "(κ",
        -10.29618544894356
      ],
      [
        "(τ",
        -10.296923341865215
      ],
      [
        "(F",
        -10.301494120061257
      ],
      [
        "(Ι",
        -10.305911696362767
      ],
      [
        "(θ",
        -10.307111861613201
      ],
      [
        "(ι",
        -10.307178154432187
      ],
      [
        "(Ω",
        -10.308871851017425
      ],
      [
        "_f",
        -10.312600822734133
      ],
      [
        "(U",
        -10.314389874303878
      ],
      [
        "_Σ",
        -10.316460886059058
      ],
      [
        "O_",
        -10.321214646533035
      ],
      [
        "(ζ",
        -10.325006238151218
      ],
      [
        "(Λ",
        -10.327748236992578
      ],
      [
        "(a",
        -10.329637585387188
      ],
      [
        "x_",
        -10.333539407951502
      ],
      [
        "(η",
        -10.336650560677779
      ],
      [
        "(Τ",
        -10.339556305460501
      ],
      [
        "λ_",
        -10.342556270575422
      ],
      [
        "_j",
        -10.344208366365581
      ],
      [
        "(Ρ",
        -10.34575413694262
      ],
      [
        "'O",
        -10.348065529856193
      ],
      [
        "(Μ",
        -10.353495452751108
      ],
      [
        "8))",
        -10.37057400158352
      ],
      [
        "2)",
        -10.372860407026053
      ],
      [
        "(v",
        -10.375281615442592
      ],
      [
        "_m",
        -10.380378454266783
      ],
      [
        "_Ω",
        -10.380564521107528
      ],
      [
        "(ο",
        -10.381056918330064
      ],
      [
        "Β_",
        -10.386825268899905
      ],
      [
        "7))",
        -10.38724050357937
      ],
      [
        "7)",
        -10.397477017991445
      ],
      [
        "'Q",
        -10.40405321836406
      ],
      [
        "(L",
        -10.405560355682159
      ],
      [
        "_φ",
        -10.408706002304472
      ],
      [
        "_L",
        -10.411981826463196
      ],
      [
        "Y_",
        -10.417108230220691
      ],
      [
        "6)",
        -10.43312767350802
      ],
      [
        "Χ_",
        -10.437334489149979
      ],
      [
        "(M",
        -10.440039547983755
      ],
      [
        "(Ο",
        -10.443711778902475
      ],
      [
        "4)",
        -10.447182925675826
      ],
      [
        "_M",
        -10.458454964932347
      ],
      [
        "(Π",
        -10.46170454022627
      ],
      [
        "(O",
        -10.462917588060296
      ],
      [
        "_g",
        -10.463551077078495
      ],
      [
        "*sqrt(",
        -10.467681517564785
      ],
      [
        "(Κ",
        -10.473131328472373
      ],
      [
        "(χ",
        -10.473406710112336
      ],
      [
        "(β",
        -10.512547512325362
      ],
      [
        "'N",
        -10.514147841204016
      ],
      [
        "z_",
        -10.514847941584371
      ],
      [
        "(Q",
        -10.523197216812186
      ],
      [
        "K_",
        -10.529526475088344
      ],
      [
        ")**(",
        -10.537196869382605
      ],
      [
        "_2",
        -10.543055190511728
      ],
      [
        "S_",
        -10.550901064773509
      ],
      [
        "γ_",
        -10.550938500724852
      ],
      [
        "Υ_",
        -10.56120650291923
      ],
      [
        "'I",
        -10.561973333256574
      ],
      [
        "(υ",
        -10.573573742024259
      ],
      [
        "N_",
        -10.579630895842964
      ],
      [
        "_y",
        -10.580568632997663
      ],
      [
        "9)",
        -10.580688787572267
      ],
      [
        "-sqrt(",
        -10.582001157057396
      ],
      [
        "_υ",
        -10.588215293407613
      ],
      [
        "3)",
        -10.595055869967197
      ],
      [
        "_u",
        -10.599878822132078
      ],
      [
        "5)",
        -10.609800195379261
      ],
      [
        "1)",
        -10.611377019856
      ],
      [
        "Φ_",
        -10.614007211051188
      ],
      [
        ")/2))",
        -10.616785839840569
      ],
      [
        "/5)",
        -10.621862706445832
      ],
      [
        "ε_",
        -10.62258224322494
      ],
      [
        "(N",
        -10.648111605266894
      ],
      [
        "/4)",
        -10.654652546639499
      ],
      [
        "_Μ",
        -10.671371292538097
      ],
      [
        "_Ρ",
        -10.67669562482614
      ],
      [
        "(I",
        -10.69727906945403
      ],
      [
        "I_",
        -10.741455210248565
      ],
      [
        "_λ",
        -10.7510492460239
      ],
      [
        "Ε_",
        -10.752451108597425
      ],
      [
        "ν_",
        -10.764024838804614
      ],
      [
        "(5*",
        -10.768128807802771
      ],
      [
        "_Λ",
        -10.774987588519808
      ],
      [
        "υ_",
        -10.789043877429625
      ],
      [
        "Ρ_",
        -10.801080636589814
      ],
      [
        "**8)",
        -10.803990578057734
      ],
      [
        "_s",
        -10.8048880675281
      ],
      [
        "**2)",
        -10.815242231045927
      ],
      [
        "**4)",
        -10.818036469157036
      ],
      [
        "_ω",
        -10.831135092586816
      ],
      [
        "_P",
        -10.861264714262942
      ],
      [
        "(9*",
        -10.864334753228452
      ],
      [
        "_x",
        -10.865707256783093
      ],
      [
        "Ψ))",
        -10.871582977276743
      ],
      [
        "λ))",
        -10.87629971108657
      ],
      [
        "/8)",
        -10.878218038977604
      ],
      [
        "'c_",
        -10.880304720426544
      ],
      [
        "(Θ)",
        -10.895366981601502
      ],
      [
        "'I_",
        -10.897088457230508
      ],
      [
        "ξ_",
        -10.897113975701563
      ],
      [
        "Ι))",
        -10.898355557343711
      ],
      [
        "σ))",
        -10.90943216508981
      ],
      [
        "**9)",
        -10.911799295654635
      ],
      [
        "H_",
        -10.912725688454405
      ],
      [
        "L_",
        -10.915749248971135
      ],
      [
        "'ε_",
        -10.927609969662866
      ],
      [
        "Sum(-sqrt(",
        -10.929285574355852
      ],
      [
        "ξ))",
        -10.945624173741589
      ],
      [
        "Ε))",
        -10.949239526632892
      ],
      [
        "(Ι)",
        -10.95071612877555
      ],
      [
        "**3)",
        -10.95637746298682
      ],
      [
        "**(log(",
        -10.959943936745049
      ],
      [
        "'ν_",
        -10.964231857803558
      ],
      [
        "a_",
        -10.970558897391975
      ],
      [
        "(β)",
        -10.974566642143449
      ],
      [
        "/log(",
        -10.984668590156568
      ],
      [
        "M_",
        -10.986895963827633
      ],
      [
        "**7)",
        -10.986953276303478
      ],
      [
        "(2*",
        -10.987447973787098
      ],
      [
        "/7)",
        -10.989501164627505
      ],
      [
        "(ξ)",
        -10.992936226783307
      ],
      [
        "'Ε_",
        -10.99301970484579
      ],
      [
        "6*",
        -10.995791027793675
      ],
      [
        "m_",
        -10.99638520669162
      ],
      [
        "t_",
        -11.000406702153132
      ],
      [
        "G_",
        -11.001573148434769
      ],
      [
        "(8*",
        -11.00180434374873
      ],
      [
        "'m_",
        -11.00293545166016
      ],
      [
        "η_",
        -11.00639541969565
      ],
      [
        "Λ_",
        -11.006722742295608
      ],
      [
        "μ))",
        -11.007294757612044
      ],
      [
        "Β))",
        -11.01474254751067
      ],
      [
        "Θ))",
        -11.026933090119002
      ],
      [
        "f))",
        -11.02733804754378
      ],
      [
        "Π))",
        -11.029199813214209
      ],
      [
        "U))",
        -11.034201583956149
      ],
      [
        "(L)",
        -11.03687658043578
      ],
      [
        "Ξ))",
        -11.037898258199457
      ],
      [
        "'Y_",
        -11.039907026759987
      ],
      [
        "B))",
        -11.041912533993541
      ],
      [
        "Μ))",
        -11.042438410418589
      ],
      [
        "**5)",
        -11.044720042646109
      ],
      [
        "(F)",
        -11.052815073227038
      ],
      [
        "v))",
        -11.056391937402557
      ],
      [
        "'L_",
        -11.058558225531439
      ],
      [
        "(Φ)",
        -11.059828239434736
      ],
      [
        "(R)",
        -11.064692150172402
      ],
      [
        "'υ_",
        -11.065217693220113
      ],
      [
        "(4*",
        -11.066074366471142
      ],
      [
        "D_",
        -11.072402555693492
      ],
      [
        "χ_",
        -11.079405856894683
      ],
      [
        "(ψ)",
        -11.085106758255812
      ],
      [
        "Η))",
        -11.087820172141555
      ],
      [
        "(c)",
        -11.089179562967129
      ],
      [
        "v_",
        -11.092250161977546
      ],
      [
        "(Λ)",
        -11.09398280217525
      ],
      [
        "(v)",
        -11.09427955021053
      ],
      [
        "Σ))",
        -11.100063836283576
      ],
      [
        "(ρ)",
        -11.100433984505898
      ],
      [
        "(b)",
        -11.103089636086075
      ],
      [
        "(θ)",
        -11.104316732108662
      ],
      [
        "(7*",
        -11.104581399855384
      ],
      [
        "x))",
        -11.107584058468301
      ],
      [
        "υ))",
        -11.109726799635423
      ],
      [
        "Λ))",
        -11.10979295617872
      ],
      [
        "(Κ)",
        -11.112874288643363
      ],
      [
        "k))",
        -11.114534527731504
      ],
      [
        "'a_",
        -11.118615950026406
      ],
      [
        "A))",
        -11.11906806782334
      ],
      [
        "Ν))",
        -11.11935305650075
      ],
      [
        "'t_",
        -11.121666486116093
      ],
      [
        "(x_",
        -11.125008407681175
      ],
      [
        "ο_",
        -11.127620754131346
      ],
      [
        "Χ))",
        -11.132262952456303
      ],
      [
        "(φ)",
        -11.136835554436619
      ],
      [
        "/3)",
        -11.138944782323541
      ],
      [
        "(Ο)",
        -11.139053959982164
      ],
      [
        "(ε)",
        -11.141493258600924
      ],
      [
        "(η)",
        -11.14221972451791
      ],
      [
        "φ))",
        -11.142782763540689
      ],
      [
        "'ξ_",
        -11.145252368308151
      ],
      [
        "(κ)",
        -11.14563244333291
      ],
      [
        "(ν_",
        -11.152011067565562
      ],
      [
        "(y)",
        -11.152045791168668
      ],
      [
        "(Α)",
        -11.153896716322816
      ],
      [
        "c_",
        -11.15686356713416
      ],
      [
        "Τ))",
        -11.157839769565207
      ],
      [
        "u))",
        -11.159005397176355
      ],
      [
        "z))",
        -11.165521554354758
      ],
      [
        "'G_",
        -11.166532913290611
      ],
      [
        "(Σ)",
        -11.167441435304713
      ],
      [
        "a))",
        -11.171721532665288
      ],
      [
        "(Ψ)",
        -11.171846740081145
      ],
      [
        "(n)",
        -11.172944828539375
      ],
      [
        "'K_",
        -11.17320413377561
      ],
      [
        "Π_",
        -11.173848669959927
      ],
      [
        "γ))",
        -11.174556223487837
      ],
      [
        "(Μ)",
        -11.175438319655118
      ],
      [
        "Z))",
        -11.175591135968688
      ],
      [
        "(c_",
        -11.177819449964062
      ],
      [
        "**6)",
        -11.178113101238273
      ],
      [
        "/2))",
        -11.178587855224276
      ],
      [
        "δ))",
        -11.180773831179728
      ],
      [
        "G))",
        -11.18087850463558
      ],
      [
        "κ))",
        -11.180910176212361
      ],
      [
        "'v_",
        -11.18283077576653
      ],
      [
        "'Λ_",
        -11.187192249801882
      ],
      [
        "(ο)",
        -11.188435500870831
      ],
      [
        "R))",
        -11.194134837491903
      ],
      [
        "J))",
        -11.194229159463879
      ],
      [
        "/9)",
        -11.194479224231523
      ],
      [
        "(J)",
        -11.194913435342517
      ],
      [
        "ι))",
        -11.195253659314645
      ],
      [
        "'χ_",
        -11.195833362442393
      ],
      [
        "X))",
        -11.196137001687415
      ],
      [
        "3*",
        -11.197882947994906
      ],
      [
        "β))",
        -11.20129158143406
      ],
      [
        "4*",
        -11.204101733402934
      ],
      [
        "ψ))",
        -11.206809938402586
      ],
      [
        "α))",
        -11.207308641146405
      ],
      [
        "F))",
        -11.208792310273518
      ],
      [
        "Ο))",
        -11.20984805890956
      ],
      [
        "χ))",
        -11.210044620801163
      ],
      [
        "L))",
        -11.210337155699357
      ],
      [
        "'ο_",
        -11.211690497925469
      ],
      [
        "(Τ)",
        -11.212026086568745
      ],
      [
        "(ζ)",
        -11.212233843940083
      ],
      [
        "T))",
        -11.213931260769172
      ],
      [
        "D))",
        -11.214507211054901
      ],
      [
        "(h)",
        -11.217862660171114
      ],
      [
        "Integral(-sqrt(",
        -11.221034136421894
      ],
      [
        "'η_",
        -11.221547552745484
      ],
      [
        "-log(",
        -11.22607070054638
      ],
      [
        "Δ))",
        -11.227776222207114
      ],
      [
        "(p)",
        -11.233562379486788
      ],
      [
        "ρ))",
        -11.233717943531296
      ],
      [
        "ζ))",
        -11.240398720007365
      ],
      [
        "'E_",
        -11.245082801286458
      ],
      [
        "'N_",
        -11.245545861525361
      ],
      [
        "(δ)",
        -11.247620671408198
      ],
      [
        "y))",
        -11.24776483981686
      ],
      [
        "t))",
        -11.257205081564349
      ],
      [
        "'Η_",
        -11.26110656495116
      ],
      [
        "Δ_",
        -11.262121557730737
      ],
      [
        "(x)",
        -11.265913038608932
      ],
      [
        "'M_",
        -11.269414817156004
      ],
      [
        "ο))",
        -11.270180111100624
      ],
      [
        "Φ))",
        -11.272105953213257
      ],
      [
        "'n_",
        -11.275870340739145
      ],
      [
        "τ))",
        -11.279767544073714
      ],
      [
        "'l_",
        -11.28221094683333
      ],
      [
        "(W)",
        -11.282567085146018
      ],
      [
        "Κ))",
        -11.28716731775516
      ],
      [
        "(Π)",
        -11.292055104132398
      ],
      [
        "(Η)",
        -11.29212137367836
      ],
      [
        "(I_",
        -11.292593247217399
      ],
      [
        "**log(",
        -11.295954226553977
      ],
      [
        "h))",
        -11.300774145252708
      ],
      [
        "(σ)",
        -11.30133625792859
      ],
      [
        "(g)",
        -11.301795657871063
      ],
      [
        "Ζ))",
        -11.302596319909899
      ],
      [
        "(t_",
        -11.304397323551107
      ],
      [
        "(ε_",
        -11.306165370455117
      ],
      [
        "(χ)",
        -11.310059813254583
      ],
      [
        "'b_",
        -11.310984179331335
      ],
      [
        "(τ)",
        -11.31246437749963
      ],
      [
        "(L_",
        -11.312562595702232
      ],
      [
        "Y))",
        -11.314051863194269
      ],
      [
        "M))",
        -11.32019077334026
      ],
      [
        "(f)",
        -11.320611058130769
      ],
      [
        "K))",
        -11.328519721293539
      ],
      [
        "(ω)",
        -11.33409238564915
      ],
      [
        "(G_",
        -11.33544812399246
      ],
      [
        "(γ)",
        -11.335849601186833
      ],
      [
        "'p_",
        -11.335967599344185
      ],
      [
        "V))",
        -11.337186674859616
      ],
      [
        "(C)",
        -11.345336703624815
      ],
      [
        "(3*",
        -11.348637120434537
      ],
      [
        "(ι)",
        -11.350605865046841
      ],
      [
        "(Z)",
        -11.350639552025354
      ],
      [
        "(α)",
        -11.351447498583632
      ],
      [
        "'Δ_",
        -11.35192140389665
      ],
      [
        "_c",
        -11.352252720362248
      ],
      [
        "(G)",
        -11.354872289663216
      ],
      [
        "P))",
        -11.355267230694363
      ],
      [
        "(m_",
        -11.361095145017496
      ],
      [
        "5*",
        -11.362590301490766
      ],
      [
        "(m)",
        -11.369087947278413
      ],
      [
        "(u)",
        -11.373130757382102
      ],
      [
        "(K)",
        -11.373752478732953
      ],
      [
        "(V)",
        -11.374108135444656
      ],
      [
        "(v_",
        -11.374294204370788
      ],
      [
        "(6*",
        -11.375651246075408
      ],
      [
        "(υ_",
        -11.37798003776988
      ],
      [
        "(B)",
        -11.378812261512273
      ],
      [
        "(P)",
        -11.383762685778661
      ],
      [
        "'Κ_",
        -11.386795959399173
      ],
      [
        "(D)",
        -11.38772391667957
      ],
      [
        "(U)",
        -11.392127882536977
      ],
      [
        ")/3",
        -11.392397407370739
      ],
      [
        "(Ε)",
        -11.395964991198808
      ],
      [
        "'d_",
        -11.397876509242948
      ],
      [
        "(a_",
        -11.397930514422637
      ],
      [
        "(Λ_",
        -11.398051271621053
      ],
      [
        "η))",
        -11.398070398439327
      ],
      [
        "(Ε_",
        -11.399324140133714
      ],
      [
        "'Π_",
        -11.400514384495846
      ],
      [
        "(ο_",
        -11.403088035060248
      ],
      [
        "ω))",
        -11.403320574831875
      ],
      [
        "(γ_",
        -11.405068527579157
      ],
      [
        "s))",
        -11.40515486461137
      ],
      [
        "(χ_",
        -11.409246290956439
      ],
      [
        "(Β)",
        -11.4134783176333
      ],
      [
        "(A)",
        -11.416748627677288
      ],
      [
        "(a)",
        -11.417662660032184
      ],
      [
        "(q)",
        -11.41807517785003
      ],
      [
        "(Ζ)",
        -11.418886509154348
      ],
      [
        "'R_",
        -11.418983921664354
      ],
      [
        "(s)",
        -11.423509640106044
      ],
      [
        "(Ω)",
        -11.428089556304867
      ],
      [
        "(z)",
        -11.43062247935254
      ],
      [
        ")/4",
        -11.431975354682809
      ],
      [
        "(Κ_",
        -11.433175218365513
      ],
      [
        "(μ)",
        -11.433356343555594
      ],
      [
        "(M)",
        -11.433825310240914
      ],
      [
        "'Q_",
        -11.438998537935165
      ],
      [
        "(k)",
        -11.440278244443551
      ],
      [
        "9*",
        -11.44557215436486
      ],
      [
        "Ω))",
        -11.446522055328881
      ],
      [
        "W))",
        -11.447617151474429
      ],
      [
        "(Δ)",
        -11.448358370931322
      ],
      [
        "(Δ_",
        -11.449769759664044
      ],
      [
        "(η_",
        -11.451447011292325
      ],
      [
        "Γ))",
        -11.452671843058688
      ],
      [
        "C))",
        -11.4605602843944
      ],
      [
        "(H)",
        -11.462716745843196
      ],
      [
        "(λ)",
        -11.46478116284337
      ],
      [
        "Α))",
        -11.46701731895103
      ],
      [
        "ν))",
        -11.476264754230476
      ],
      [
        "'H_",
        -11.481799943481672
      ],
      [
        "/6)",
        -11.482126259126964
      ],
      [
        "(j)",
        -11.482948615664407
      ],
      [
        "(Υ)",
        -11.49085344250404
      ],
      [
        "7*",
        -11.491400732800296
      ],
      [
        "Υ))",
        -11.496452125348155
      ],
      [
        "j))",
        -11.500705249904856
      ],
      [
        ")/2",
        -11.503941938741729
      ],
      [
        "d_",
        -11.506251876059117
      ],
      [
        "'i_",
        -11.511302550607406
      ],
      [
        "(Y)",
        -11.515045625148074
      ],
      [
        "H))",
        -11.51852262850923
      ],
      [
        "'q_",
        -11.526826607618874
      ],
      [
        "'ρ_",
        -11.547145330373613
      ],
      [
        "(X)",
        -11.55948169523084
      ],
      [
        "'F_",
        -11.559851446062192
      ],
      [
        "(E_",
        -11.562372535608468
      ],
      [
        "(Ρ)",
        -11.562767729834446
      ],
      [
        "(ξ_",
        -11.575586509058443
      ],
      [
        "(E)",
        -11.576055517197615
      ],
      [
        "2*",
        -11.577714797278201
      ],
      [
        "Integral(-log(",
        -11.58478978976693
      ],
      [
        "(Γ)",
        -11.589485690454906
      ],
      [
        "ε))",
        -11.603642453762742
      ],
      [
        "(d)",
        -11.612697014077883
      ],
      [
        "/sqrt(",
        -11.613703745481903
      ],
      [
        "(ν)",
        -11.617404355308876
      ],
      [
        "(M_",
        -11.632378004536871
      ],
      [
        "Derivative(-log(",
        -11.653387635469613
      ],
      [
        "(t)",
        -11.659012639573787
      ],
      [
        "'o_",
        -11.6643211660469
      ],
      [
        "(l)",
        -11.667757356817749
      ],
      [
        "(Χ)",
        -11.667931592926372
      ],
      [
        "(Π_",
        -11.668540310021191
      ],
      [
        "'Ψ_",
        -11.681530159859964
      ],
      [
        "(T)",
        -11.686168267262206
      ],
      [
        "5))",
        -11.68617769218713
      ],
      [
        "n_",
        -11.688516161036858
      ],
      [
        ")/6",
        -11.6898505809894
      ],
      [
        "(υ)",
        -11.694633439051653
      ],
      [
        "1)*",
        -11.703760319441528
      ],
      [
        "(Ξ)",
        -11.712245034567417
      ],
      [
        "θ))",
        -11.7204232867284
      ],
      [
        "p))",
        -11.721902422895113
      ],
      [
        "q))",
        -11.736116798263689
      ],
      [
        "(n_",
        -11.738821045235618
      ],
      [
        "(l_",
        -11.742739684573818
      ],
      [
        ")/5",
        -11.745578936543644
      ],
      [
        "(Q_",
        -11.746108698827253
      ],
      [
        "Ρ))",
        -11.7500193129195
      ],
      [
        "(Ν)",
        -11.76399338261008
      ],
      [
        "(F_",
        -11.767863357505112
      ],
      [
        "'y_",
        -11.772429209042638
      ],
      [
        "**Rational(",
        -11.774266276941686
      ],
      [
        "9)*",
        -11.788140407994625
      ],
      [
        "(ρ_",
        -11.806361145299482
      ],
      [
        "'w_",
        -11.81246480952515
      ],
      [
        "(p_",
        -11.813879726552987
      ],
      [
        "g))",
        -11.814229717874266
      ],
      [
        "H)))",
        -11.828410883691012
      ],
      [
        "(y_",
        -11.850190573401875
      ],
      [
        "χ)))",
        -11.86128557630526
      ],
      [
        "/2)*",
        -11.871144004833452
      ],
      [
        ")/8",
        -11.88041662638224
      ],
      [
        "(q_",
        -11.885998391735182
      ],
      [
        ")/9",
        -11.889366151906302
      ],
      [
        "'V_",
        -11.895503834854598
      ],
      [
        "ω)))",
        -11.900580713993978
      ],
      [
        "Sum(-log(",
        -11.921168915757534
      ],
      [
        "'α_",
        -11.925006182112828
      ],
      [
        ")/2)*",
        -11.939556398444735
      ],
      [
        "8*",
        -11.949566331020108
      ],
      [
        "(ε))",
        -11.955015836018998
      ],
      [
        "6)*",
        -11.963765982816486
      ],
      [
        "sqrt(6)*sqrt(",
        -11.981225476305914
      ],
      [
        "(Ο_",
        -11.988881963487989
      ],
      [
        "(T)**",
        -11.992596662081
      ],
      [
        "(m)/",
        -11.995462542370438
      ],
      [
        "υ)*",
        -11.995958385193006
      ],
      [
        "(Ω)**",
        -12.00049132517465
      ],
      [
        "(σ))",
        -12.001111007823617
      ],
      [
        "(U_",
        -12.017943941842294
      ],
      [
        "log(-",
        -12.022396322667227
      ],
      [
        "θ)))",
        -12.04759691998089
      ],
      [
        "log(j)",
        -12.05055216199289
      ],
      [
        "Α)))",
        -12.051733550523632
      ],
      [
        "'u_",
        -12.052454656088171
      ],
      [
        ")/7",
        -12.05860344436956
      ],
      [
        "υ)))",
        -12.059003262858138
      ],
      [
        "(ο))",
        -12.06243473654122
      ],
      [
        "7)*",
        -12.065650308763257
      ],
      [
        ")**6",
        -12.06743754355197
      ],
      [
        "I_μ",
        -12.071989937979406
      ],
      [
        "(u_",
        -12.073271960952722
      ],
      [
        "(Γ))",
        -12.082943940408626
      ],
      [
        "(Ψ)**",
        -12.087249803297615
      ],
      [
        "Ξ)*",
        -12.102256845965282
      ],
      [
        "(ω)**",
        -12.106727150187194
      ],
      [
        "Β_ε",
        -12.107869732662312
      ],
      [
        ")/6)",
        -12.109021018281819
      ],
      [
        "Γ)))",
        -12.12253033852616
      ],
      [
        "W)))",
        -12.122589110747821
      ],
      [
        "(r))",
        -12.12361315045511
      ],
      [
        "(κ)**",
        -12.135898767579985
      ],
      [
        "ζ)*",
        -12.137884639825785
      ],
      [
        "log(U)",
        -12.147451292763405
      ],
      [
        "log(A)",
        -12.151761200106572
      ],
      [
        "(Λ)/",
        -12.152593856962234
      ],
      [
        ")**5",
        -12.157817668370889
      ],
      [
        "sqrt(3)*sqrt(",
        -12.165766022870557
      ],
      [
        "(p)**",
        -12.170920910139472
      ],
      [
        "S_Ε",
        -12.171999183285665
      ],
      [
        "W_T",
        -12.17519656204971
      ],
      [
        "2)*",
        -12.175214586401665
      ],
      [
        "(o))",
        -12.17616239814922
      ],
      [
        "Φ)*",
        -12.176666901744492
      ],
      [
        "ψ_Λ",
        -12.176806972306977
      ],
      [
        "(q)*",
        -12.182268369629593
      ],
      [
        "Ω_g",
        -12.184086059689836
      ],
      [
        "(Φ))",
        -12.194931601880661
      ],
      [
        "Β)*",
        -12.200499312115994
      ],
      [
        "I_Q",
        -12.202088946477721
      ],
      [
        "ξ_Ψ",
        -12.203049972804127
      ],
      [
        "log(D)",
        -12.203932719690476
      ],
      [
        "(α_",
        -12.205990111187715
      ],
      [
        "(Ρ))",
        -12.206790199156302
      ],
      [
        ")/(sqrt(",
        -12.209122738153907
      ],
      [
        "J*",
        -12.216339584863487
      ],
      [
        ")**2",
        -12.217961104378624
      ],
      [
        "'Μ_",
        -12.218072688171521
      ],
      [
        "log(Ζ)",
        -12.22344407424674
      ],
      [
        "sqrt(Μ)",
        -12.22828910740893
      ],
      [
        "cosh",
        -12.228908574007708
      ],
      [
        "(Y))",
        -12.230504144646176
      ],
      [
        ")/2)/",
        -12.235182984346167
      ],
      [
        "Ζ_Ι",
        -12.239452058976934
      ],
      [
        "log(z)",
        -12.239465872723876
      ],
      [
        "Ι_t",
        -12.239501106635224
      ],
      [
        "log(Χ)",
        -12.241824896110073
      ],
      [
        "Integral(9*",
        -12.242109187956016
      ],
      [
        "(u)/",
        -12.24459041707783
      ],
      [
        "(L))",
        -12.245576123164911
      ],
      [
        "(ζ)**",
        -12.246372397554406
      ],
      [
        "sqrt(Χ)",
        -12.248053476233713
      ],
      [
        "log(θ)",
        -12.250233695530138
      ],
      [
        "a_β",
        -12.250755911591353
      ],
      [
        "log(Π)",
        -12.252141874336335
      ],
      [
        "U)/",
        -12.253767195760345
      ],
      [
        "(Κ))",
        -12.255642134908214
      ],
      [
        "(o_",
        -12.256217471431432
      ],
      [
        "(ω))",
        -12.257160968166975
      ],
      [
        "(t)/",
        -12.261709267383111
      ],
      [
        "/6))",
        -12.268767130129797
      ],
      [
        "'j_",
        -12.268779645782136
      ],
      [
        "3*sqrt(",
        -12.278482843976324
      ],
      [
        "(P))",
        -12.278917690988779
      ],
      [
        "ο)*",
        -12.282131415834836
      ],
      [
        "(Μ)**",
        -12.284827841681079
      ],
      [
        "sqrt(α)",
        -12.289200474742419
      ],
      [
        "5**",
        -12.291748512264663
      ],
      [
        "log(Τ)",
        -12.293866378790092
      ],
      [
        "(y)**",
        -12.294518329065312
      ],
      [
        "(λ)**",
        -12.295108231711048
      ],
      [
        "log(δ)",
        -12.298709824323298
      ],
      [
        "(Ψ)/",
        -12.302290494466618
      ],
      [
        "_3))",
        -12.302717223052262
      ],
      [
        "Ψ)*",
        -12.31150383656004
      ],
      [
        "ι_J",
        -12.31635825438599
      ],
      [
        "Τ_Υ",
        -12.316361510056742
      ],
      [
        "Τ_ι",
        -12.316370184041151
      ],
      [
        "B_ε",
        -12.316371834764007
      ],
      [
        "Θ_a",
        -12.316395174011822
      ],
      [
        "J_Ι",
        -12.316469653139844
      ],
      [
        "Integral(8*",
        -12.317866328303817
      ],
      [
        "Φ_τ",
        -12.318822087635258
      ],
      [
        "Ξ_Χ",
        -12.320480186403046
      ],
      [
        "Μ_N",
        -12.321213816324683
      ],
      [
        "(Δ))",
        -12.325862384847149
      ],
      [
        "Λ)*",
        -12.329531640844433
      ],
      [
        "log(Ι)",
        -12.332609225007717
      ],
      [
        "V_ρ",
        -12.333009735683207
      ],
      [
        "Η_Ν",
        -12.33485876404782
      ],
      [
        "(V))",
        -12.33806112788524
      ],
      [
        "(V_",
        -12.33889329347259
      ],
      [
        "β)*",
        -12.340815178769393
      ],
      [
        "F_η",
        -12.34145466496182
      ],
      [
        "*τ)",
        -12.341803468919661
      ],
      [
        "(z)/",
        -12.342045384418137
      ],
      [
        "sqrt(X)",
        -12.345010184848013
      ],
      [
        "E_J",
        -12.34680402187894
      ],
      [
        "Q_Ι",
        -12.346850240488713
      ],
      [
        "(Rational(",
        -12.351695383762028
      ],
      [
        "(W_",
        -12.35486754466726
      ],
      [
        "sqrt(2)*sqrt(",
        -12.355154336841949
      ],
      [
        "ο_ο",
        -12.355325848936747
      ],
      [
        "F_φ",
        -12.355383750028425
      ],
      [
        "log(φ)",
        -12.355772458738434
      ],
      [
        "R_2",
        -12.35936801035583
      ],
      [
        ")**4",
        -12.359715305775298
      ],
      [
        "υ_ε",
        -12.360418728143573
      ],
      [
        "(a))",
        -12.364526917864962
      ],
      [
        "Sum(3*",
        -12.36819242891374
      ],
      [
        "Ρ_O",
        -12.369359520006908
      ],
      [
        "log(f)",
        -12.372865363456409
      ],
      [
        "U_C",
        -12.372895123375942
      ],
      [
        "R_P",
        -12.37836440592722
      ],
      [
        "Ψ_P",
        -12.379443917845215
      ],
      [
        "(c)/",
        -12.38031748988114
      ],
      [
        "log(Ρ)",
        -12.383536488762118
      ],
      [
        "Ξ_γ",
        -12.384354634667345
      ],
      [
        "(ζ)/",
        -12.386284625107448
      ],
      [
        "(Γ)**",
        -12.390149472764543
      ],
      [
        "log(Λ)",
        -12.395293600112296
      ],
      [
        "**4))",
        -12.395409892516401
      ],
      [
        "(σ)/",
        -12.396198750809575
      ],
      [
        "_Χ))",
        -12.397557922898178
      ],
      [
        "(i))",
        -12.39812097079176
      ],
      [
        "Ι_I",
        -12.399698185119906
      ],
      [
        "ι_R",
        -12.399702350704656
      ],
      [
        "ζ_κ",
        -12.39970972401175
      ],
      [
        "Ζ_Ψ",
        -12.39974429774621
      ],
      [
        "Ι_ι",
        -12.399787837309143
      ],
      [
        "Σ_5",
        -12.400168667878338
      ],
      [
        "δ_E",
        -12.400887323038793
      ],
      [
        "(ξ)/",
        -12.401564462179534
      ],
      [
        "z_ξ",
        -12.402241344722228
      ],
      [
        "Sum(6*",
        -12.402680943226564
      ],
      [
        "(Π)**",
        -12.408545128228258
      ],
      [
        "Z_ω",
        -12.40982046784844
      ],
      [
        "ψ)))",
        -12.410605481878479
      ],
      [
        "O_m",
        -12.4121752720531
      ],
      [
        "sqrt(ν)",
        -12.413532277971136
      ],
      [
        "(k))",
        -12.413927530844514
      ],
      [
        "(j))",
        -12.414602512259332
      ],
      [
        "μ_ζ",
        -12.415539205902554
      ],
      [
        "δ_υ",
        -12.41629623986461
      ],
      [
        "x_T",
        -12.416764405997107
      ],
      [
        "Τ_Θ",
        -12.421037448376946
      ],
      [
        "Η_F",
        -12.423418687802787
      ],
      [
        "(Θ)**",
        -12.423457173704008
      ],
      [
        "(Β)/",
        -12.423624297680512
      ],
      [
        ")/(6*",
        -12.42433192857002
      ],
      [
        "(d)**",
        -12.424475696588917
      ],
      [
        "o_α",
        -12.425019682049935
      ],
      [
        "Ο_j",
        -12.42526144945859
      ],
      [
        "q_ο",
        -12.426768742801999
      ],
      [
        "log(Α)",
        -12.427601683208463
      ],
      [
        "*μ)",
        -12.429258824582899
      ],
      [
        "(w))",
        -12.429548371253599
      ],
      [
        "log(Ε)",
        -12.432657443608417
      ],
      [
        "6**",
        -12.432892742927372
      ],
      [
        "q_Γ",
        -12.435085223261797
      ],
      [
        "(γ)**",
        -12.435154953789556
      ],
      [
        "(φ))",
        -12.436834899499008
      ],
      [
        "(s)**",
        -12.437874035263384
      ],
      [
        "log(4*",
        -12.43862744237255
      ],
      [
        "Δ_h",
        -12.439299570761882
      ],
      [
        "(γ)/",
        -12.440344250292613
      ],
      [
        "Ι_7",
        -12.440792338673484
      ],
      [
        "*ω)",
        -12.441918898612158
      ],
      [
        ")/(log(",
        -12.444250425550301
      ],
      [
        "(Ω)/",
        -12.444388724089539
      ],
      [
        "log(ι)",
        -12.444792676493218
      ],
      [
        "(λ))",
        -12.445642572632604
      ],
      [
        "m_ω",
        -12.44784707273456
      ],
      [
        "η_φ",
        -12.450730069412897
      ],
      [
        "(m))",
        -12.451281121753086
      ],
      [
        "(m)**",
        -12.454667348620681
      ],
      [
        "(w)**",
        -12.454705130986618
      ],
      [
        "1/",
        -12.45705688223144
      ],
      [
        "(t)**",
        -12.457606819670254
      ],
      [
        "Κ_m",
        -12.459232685480893
      ],
      [
        "(L)*",
        -12.462784922146776
      ],
      [
        "δ)*",
        -12.464722468840375
      ],
      [
        ")**7",
        -12.46530207674038
      ],
      [
        "(Θ))",
        -12.465323389186864
      ],
      [
        "(P)**",
        -12.46775937673566
      ],
      [
        "h)*",
        -12.468395635982791
      ],
      [
        "4)*",
        -12.469677919747522
      ],
      [
        "(θ)/",
        -12.469948312972898
      ],
      [
        "**9))",
        -12.472382439521967
      ],
      [
        "_f))",
        -12.472719243743947
      ],
      [
        "Κ_4",
        -12.473262046787198
      ],
      [
        "(H)**",
        -12.47370270971938
      ],
      [
        "(p)/",
        -12.478574565837032
      ],
      [
        "*ι)",
        -12.479243765416301
      ],
      [
        "(λ)/",
        -12.47981555899598
      ],
      [
        "(B)/",
        -12.48212319465211
      ],
      [
        "(a)/",
        -12.484202773732267
      ],
      [
        "Σ_P",
        -12.485235782801348
      ],
      [
        "(α))",
        -12.486049810358452
      ],
      [
        "(χ))",
        -12.488671518836316
      ],
      [
        "log(Φ)",
        -12.489128921163392
      ],
      [
        "log(Y)",
        -12.489503299615354
      ],
      [
        "Ν_ρ",
        -12.490806502470383
      ],
      [
        "log(ψ)",
        -12.492052356756012
      ],
      [
        "D_τ",
        -12.492346935156968
      ],
      [
        "z_τ",
        -12.49473825618934
      ],
      [
        "_O))",
        -12.497100160188895
      ],
      [
        "log(Ν)",
        -12.49796645411164
      ],
      [
        "(Χ))",
        -12.498422913566955
      ],
      [
        "sqrt(Υ)",
        -12.500036646979185
      ],
      [
        "/F)",
        -12.501272997689195
      ],
      [
        "**6))",
        -12.501661273289821
      ],
      [
        "3/",
        -12.50189588278805
      ],
      [
        "(l)/",
        -12.503182760527093
      ],
      [
        "(a)*",
        -12.51055027612901
      ],
      [
        "Ο_l",
        -12.511386181549728
      ],
      [
        "(A)/",
        -12.512204740703224
      ],
      [
        "log(α)",
        -12.512726193854718
      ],
      [
        "log(ο)",
        -12.513247654619093
      ],
      [
        "(A))",
        -12.514813724721453
      ],
      [
        "(b)**",
        -12.515794773318945
      ],
      [
        "W_Η",
        -12.516133486474347
      ],
      [
        "Integral(4*",
        -12.518708322634373
      ],
      [
        "log(Σ)",
        -12.524079739642698
      ],
      [
        "Sum(8*",
        -12.524266031649818
      ],
      [
        "sqrt(φ)",
        -12.525604636955888
      ],
      [
        "K_Z",
        -12.527089413442228
      ],
      [
        "**η)",
        -12.528064184181318
      ],
      [
        "u*",
        -12.532474056483231
      ],
      [
        "log(Ο)",
        -12.53549137694465
      ],
      [
        "sqrt(v)",
        -12.536183714443672
      ],
      [
        "(U)**",
        -12.536950206770111
      ],
      [
        "(Ξ))",
        -12.540039951906115
      ],
      [
        "(B)*",
        -12.543060656821538
      ],
      [
        "L_M",
        -12.543999493023211
      ],
      [
        "α)))",
        -12.544348723707586
      ],
      [
        "(δ)**",
        -12.547557873863786
      ],
      [
        "(G)/",
        -12.550571758669264
      ],
      [
        "Ε_U",
        -12.55191369254902
      ],
      [
        "(C)*",
        -12.553118640546245
      ],
      [
        "log(g)",
        -12.554427562899477
      ],
      [
        "(Δ)*",
        -12.557357109811244
      ],
      [
        "sqrt(Ε)",
        -12.558920616331791
      ],
      [
        "log(b)",
        -12.562134674803039
      ],
      [
        "(υ)**",
        -12.565022012213376
      ],
      [
        "(α)/",
        -12.566058672029556
      ],
      [
        "log(ζ)",
        -12.567640232491685
      ],
      [
        "(i)*",
        -12.570228407298401
      ],
      [
        "log(Ξ)",
        -12.570730232119638
      ],
      [
        "(W)**",
        -12.571325882154598
      ],
      [
        "3**",
        -12.573442291665426
      ],
      [
        "(Ξ)**",
        -12.573548025834084
      ],
      [
        "(ε)/",
        -12.574146787799213
      ],
      [
        "(φ)**",
        -12.574964283472022
      ],
      [
        "log(γ)",
        -12.575801098706851
      ],
      [
        "(z))",
        -12.578451303683806
      ],
      [
        "(K))",
        -12.579676092123599
      ],
      [
        "(K)/",
        -12.579969003230993
      ],
      [
        "(g))",
        -12.580004495281408
      ],
      [
        "(k)**",
        -12.580782631075063
      ],
      [
        "log(Δ)",
        -12.582415645316523
      ],
      [
        "8**",
        -12.58541732394312
      ],
      [
        "Sum(2*",
        -12.587218379611189
      ],
      [
        "/L)",
        -12.58914879845079
      ],
      [
        "h_X",
        -12.590633238141294
      ],
      [
        "P_Ν",
        -12.590642692302755
      ],
      [
        "f_G",
        -12.590665125503492
      ],
      [
        "J_T",
        -12.590675558768833
      ],
      [
        "Ι_ζ",
        -12.590743484655643
      ],
      [
        "ζ_ψ",
        -12.590749813560434
      ],
      [
        "k_a",
        -12.590770716198389
      ],
      [
        "θ_W",
        -12.590776376369833
      ],
      [
        "B_J",
        -12.590860510432817
      ],
      [
        "Τ_h",
        -12.591299713989041
      ],
      [
        "ι_E",
        -12.592001384776749
      ],
      [
        "ψ_q",
        -12.592144687023604
      ],
      [
        "γ_P",
        -12.593466645689794
      ],
      [
        "Χ_G",
        -12.59481428826299
      ],
      [
        "(Ρ)**",
        -12.594909595800868
      ],
      [
        "sqrt(Β)",
        -12.595010399465613
      ],
      [
        "Ο_α",
        -12.595751644812658
      ],
      [
        "Ξ_Ι",
        -12.595883860327277
      ],
      [
        "β_Ο",
        -12.596487584281348
      ],
      [
        "(s))",
        -12.59651471365586
      ],
      [
        "Μ_I",
        -12.596966362921656
      ],
      [
        "Ο_9",
        -12.598083639722272
      ],
      [
        "Ξ_1",
        -12.599778113648425
      ],
      [
        "(c)*",
        -12.600077781306023
      ],
      [
        "Μ_k",
        -12.601534234002637
      ],
      [
        "C_P",
        -12.602662918679563
      ],
      [
        "C_φ",
        -12.604619001692448
      ],
      [
        "U_F",
        -12.60494776744096
      ],
      [
        "J_Ρ",
        -12.605552576275866
      ],
      [
        "Α_P",
        -12.605683419088052
      ],
      [
        "(v)/",
        -12.606385604005258
      ],
      [
        "H_Q",
        -12.60715421708166
      ],
      [
        "Υ_U",
        -12.608421928248873
      ],
      [
        "Ν_L",
        -12.608425204941554
      ],
      [
        "(ρ)/",
        -12.608605235331243
      ],
      [
        "Χ_T",
        -12.6099252830277
      ],
      [
        "ω_y",
        -12.610125170828216
      ],
      [
        "X_ψ",
        -12.611968899562905
      ],
      [
        "b_Π",
        -12.612602895286546
      ],
      [
        "α_F",
        -12.612907547507627
      ],
      [
        "sqrt(H)",
        -12.613441769512669
      ],
      [
        "σ_B",
        -12.614110755940475
      ],
      [
        "κ_F",
        -12.615870415942695
      ],
      [
        "ρ_Ι",
        -12.615948182867129
      ],
      [
        "Ξ_Ω",
        -12.616144225588247
      ],
      [
        "j_y",
        -12.616175992199162
      ],
      [
        "(Τ)**",
        -12.618357292231831
      ],
      [
        "g_O",
        -12.619255823172391
      ],
      [
        "γ_φ",
        -12.619266329441297
      ],
      [
        "N_Χ",
        -12.620157011181723
      ],
      [
        "y_Γ",
        -12.620529385247933
      ],
      [
        "(x)/",
        -12.620742118177795
      ],
      [
        "γ_s",
        -12.621507117518638
      ],
      [
        "(β)/",
        -12.621902845108675
      ],
      [
        "log(ν)",
        -12.623144983317463
      ],
      [
        "A*",
        -12.626091950598788
      ],
      [
        "Τ_τ",
        -12.626804160712583
      ],
      [
        "(z)**",
        -12.630916846756284
      ],
      [
        "(Ο)**",
        -12.632482048854
      ],
      [
        "Ω_Μ",
        -12.632599620452893
      ],
      [
        "sqrt(Σ)",
        -12.633314922953446
      ],
      [
        "(T)*",
        -12.633756670185287
      ],
      [
        "sqrt(Δ)",
        -12.63448338296603
      ],
      [
        "t_S",
        -12.63810024322891
      ],
      [
        "σ)*",
        -12.63837468107738
      ],
      [
        "t_ε",
        -12.638552071039378
      ],
      [
        "l_ε",
        -12.638895907572463
      ],
      [
        "Π_Η",
        -12.640597318474917
      ],
      [
        "(q))",
        -12.64166565037797
      ],
      [
        "Κ_Β",
        -12.64280307702778
      ],
      [
        "sqrt(Π)",
        -12.64327314631063
      ],
      [
        "sqrt(t)",
        -12.643276392267513
      ],
      [
        "Δ_Ι",
        -12.644747018053039
      ],
      [
        "(G)*",
        -12.645010129310931
      ],
      [
        "sqrt(μ)",
        -12.646746751158815
      ],
      [
        "(Y)*",
        -12.646917702502686
      ],
      [
        "K_x",
        -12.649586646481389
      ],
      [
        "sqrt(σ)",
        -12.65064966563526
      ],
      [
        "(Ζ)**",
        -12.65183849129791
      ],
      [
        "_C))",
        -12.659067259713451
      ],
      [
        "t_U",
        -12.660228480927769
      ],
      [
        "log(ρ)",
        -12.66062107937191
      ],
      [
        "log(H)",
        -12.661428469108332
      ],
      [
        "(U)*",
        -12.663064575418172
      ],
      [
        "sqrt(υ)",
        -12.663243090420064
      ],
      [
        "I_Γ",
        -12.663862365769852
      ],
      [
        "φ_3",
        -12.664819577681813
      ],
      [
        "(W)*",
        -12.665849904534848
      ],
      [
        "c_4",
        -12.66781812611286
      ],
      [
        "log(v)",
        -12.673667929201667
      ],
      [
        "Derivative(5*",
        -12.673713668041403
      ],
      [
        "(Χ)**",
        -12.675172245467927
      ],
      [
        "sqrt(Y)",
        -12.680010101279638
      ],
      [
        "4*log(",
        -12.68012828340585
      ],
      [
        "*Τ)",
        -12.680290919872206
      ],
      [
        "log(ω)",
        -12.680516854473435
      ],
      [
        "**9)*",
        -12.680911359602806
      ],
      [
        "(Υ)*",
        -12.68246646164709
      ],
      [
        "(Ζ)/",
        -12.68529308431871
      ],
      [
        "sqrt(δ)",
        -12.686697801599559
      ],
      [
        "log(χ)",
        -12.69023263603072
      ],
      [
        "/Ν)",
        -12.690910024496809
      ],
      [
        "(x)**",
        -12.69505183479277
      ],
      [
        "log(Β)",
        -12.697279480777173
      ],
      [
        "sqrt(Γ)",
        -12.697851577524727
      ],
      [
        "sqrt(Α)",
        -12.698974673377744
      ],
      [
        "log(5*",
        -12.699986093802869
      ],
      [
        "Ε_ΤΣ",
        -12.701642106624337
      ],
      [
        "J_I",
        -12.701712637814717
      ],
      [
        "P_N",
        -12.701722310552556
      ],
      [
        "Ο_ζ",
        -12.701759547326919
      ],
      [
        "k_ξ",
        -12.701782483664012
      ],
      [
        "Α_k",
        -12.701793206437
      ],
      [
        "h_Α",
        -12.701793661944613
      ],
      [
        "T_Η",
        -12.701799459603258
      ],
      [
        "T_Χ",
        -12.701803707949201
      ],
      [
        "Z_Ι",
        -12.701815791570775
      ],
      [
        "9**",
        -12.701956605266655
      ],
      [
        "P_w",
        -12.702660251232851
      ],
      [
        "(L)/",
        -12.702682794222572
      ],
      [
        "h_Φ",
        -12.702980328103504
      ],
      [
        "ω_q",
        -12.703492196586216
      ],
      [
        "Ρ_T",
        -12.704630688313642
      ],
      [
        "Φ_μ",
        -12.705133132486326
      ],
      [
        "Ξ_N",
        -12.705224277863618
      ],
      [
        "s_λ",
        -12.705307438863647
      ],
      [
        "Υ_Γ",
        -12.705548864521674
      ],
      [
        "D_4",
        -12.706134205144082
      ],
      [
        "C_d",
        -12.706769649097588
      ],
      [
        "X_H",
        -12.706871846902295
      ],
      [
        "(X)/",
        -12.707021275590307
      ],
      [
        "z_z",
        -12.707106079326016
      ],
      [
        "Η_d",
        -12.70721898273206
      ],
      [
        "κ_κ",
        -12.707631451454919
      ],
      [
        "log(T)",
        -12.708209485716635
      ],
      [
        "log(β)",
        -12.70829297740442
      ],
      [
        "(D)*",
        -12.70837914855231
      ],
      [
        "Ο_Ν",
        -12.708436792728271
      ],
      [
        "Ο_J",
        -12.710231039941668
      ],
      [
        "log(F)",
        -12.711697893432458
      ],
      [
        "log(Z)",
        -12.711886718002651
      ],
      [
        "_α))",
        -12.712292429803037
      ],
      [
        "j_τ",
        -12.714658630994634
      ],
      [
        "Μ_Ο",
        -12.714938283791934
      ],
      [
        "Μ_Κ",
        -12.71524063735464
      ],
      [
        "log(n)",
        -12.71581297814396
      ],
      [
        "*γ)",
        -12.715936921947083
      ],
      [
        "*λ)",
        -12.718187785721412
      ],
      [
        "S_η",
        -12.718951834462821
      ],
      [
        "w_T",
        -12.719005517121309
      ],
      [
        "log(G)",
        -12.719344001015886
      ],
      [
        "(Ρ)*",
        -12.719946650245916
      ],
      [
        "**Y)",
        -12.720143530718792
      ],
      [
        "U_ω",
        -12.720477943487541
      ],
      [
        "(ψ)**",
        -12.720532583916345
      ],
      [
        "Χ_Α",
        -12.721536734145165
      ],
      [
        "δ_M",
        -12.721973206086368
      ],
      [
        "Ξ_β",
        -12.722846576854788
      ],
      [
        "Integral(2*",
        -12.72293088267786
      ],
      [
        "Φ_v",
        -12.72383336436246
      ],
      [
        "u_τ",
        -12.723841988742354
      ],
      [
        "K_N",
        -12.724646269276663
      ],
      [
        "K_I",
        -12.72488196038544
      ],
      [
        "z_s",
        -12.725038604643293
      ],
      [
        "Ξ_Ρ",
        -12.725655004346105
      ],
      [
        "(η)**",
        -12.725725138534905
      ],
      [
        "(J)/",
        -12.725925496739999
      ],
      [
        "ι_B",
        -12.726337933544851
      ],
      [
        "V_σ",
        -12.72707514638647
      ],
      [
        "(Κ)/",
        -12.727835657295453
      ],
      [
        "(c)**",
        -12.7286541271339
      ],
      [
        "(Μ)/",
        -12.728704967950149
      ],
      [
        "y_ρ",
        -12.729393662977145
      ],
      [
        "C_Β",
        -12.729693832080866
      ],
      [
        "λ_g",
        -12.730036445113011
      ],
      [
        "δ_Θ",
        -12.730254223996516
      ],
      [
        "Ζ_Ξ",
        -12.73036691904943
      ],
      [
        "Ν_V",
        -12.730477013988693
      ],
      [
        "(X)**",
        -12.730743640724983
      ],
      [
        "log(X)",
        -12.731079655591532
      ],
      [
        "W_Θ",
        -12.731432588366228
      ],
      [
        "Χ_S",
        -12.732542678682671
      ],
      [
        "Ω_χ",
        -12.733757746296916
      ],
      [
        "y_θ",
        -12.734389426686494
      ],
      [
        "λ_Β",
        -12.734427135180052
      ],
      [
        "(u)*",
        -12.734722947843723
      ],
      [
        "β_Z",
        -12.735083033179734
      ],
      [
        "Ο_φ",
        -12.735250320560514
      ],
      [
        "f_3",
        -12.735283252782773
      ],
      [
        "b_φ",
        -12.735503074040498
      ],
      [
        "log(u)",
        -12.735576641049352
      ],
      [
        "sqrt(Ω)",
        -12.73599202478917
      ],
      [
        "(l)**",
        -12.736210371295423
      ],
      [
        "N_Ο",
        -12.736858140304232
      ],
      [
        "(χ)**",
        -12.737315108766957
      ],
      [
        "α_9",
        -12.738069742724466
      ],
      [
        "log(9*",
        -12.743013849391259
      ],
      [
        "H_Λ",
        -12.743590857802726
      ],
      [
        "E_Τ",
        -12.744353497045122
      ],
      [
        "Λ_β",
        -12.744616855672342
      ],
      [
        "Ο_2",
        -12.744778783032114
      ],
      [
        "ρ_α",
        -12.74540836882658
      ],
      [
        "N_x",
        -12.745632819249497
      ],
      [
        "l_Δ",
        -12.746022096913133
      ],
      [
        "log(Ψ)",
        -12.746770063193186
      ],
      [
        "ρ_R",
        -12.747782376628898
      ],
      [
        "Q_Ν",
        -12.748159503531848
      ],
      [
        "θ_α",
        -12.748375509296448
      ],
      [
        "M_U",
        -12.750234931328478
      ],
      [
        "(b)/",
        -12.750506249061415
      ],
      [
        "V_S",
        -12.752175698361297
      ],
      [
        "M_A",
        -12.752966050629968
      ],
      [
        "(Θ)/",
        -12.754099307219285
      ],
      [
        "(Β)**",
        -12.754428363447776
      ],
      [
        "ρ_λ",
        -12.75483384429831
      ],
      [
        "χ_Γ",
        -12.75536500179869
      ],
      [
        "n_H",
        -12.75578623968136
      ],
      [
        "8*sqrt(",
        -12.755975436163979
      ],
      [
        "η_ι",
        -12.756119776524299
      ],
      [
        "K_ζ",
        -12.756614949456802
      ],
      [
        "Μ_4",
        -12.756655787220238
      ],
      [
        "v_Δ",
        -12.757956289310162
      ],
      [
        "D*",
        -12.758825980828963
      ],
      [
        "Λ_ο",
        -12.759980741071779
      ],
      [
        "G_σ",
        -12.762289471967645
      ],
      [
        "L_a",
        -12.763988437725455
      ],
      [
        "Ε_a",
        -12.764557302633238
      ],
      [
        "(T)/",
        -12.76722619373891
      ],
      [
        "ξ_Υ",
        -12.767519463448425
      ],
      [
        "m_ε",
        -12.768373072744026
      ],
      [
        "Ε_f",
        -12.768455543055612
      ],
      [
        "(V)*",
        -12.768561072975027
      ],
      [
        "(w)/",
        -12.76986887118722
      ],
      [
        "cosh(1)",
        -12.771530568262971
      ],
      [
        "l_4",
        -12.771674777814377
      ],
      [
        "R_Ψ",
        -12.772599340184463
      ],
      [
        "χ_O",
        -12.773570106493517
      ],
      [
        "ο_υ",
        -12.776011855432053
      ],
      [
        "(o)/",
        -12.776196594894724
      ],
      [
        "G_g",
        -12.77721470679969
      ],
      [
        "/2)*log(",
        -12.777609447567778
      ],
      [
        "(M)**",
        -12.781820729405668
      ],
      [
        "Y_Ζ",
        -12.782215989192043
      ],
      [
        "t_7",
        -12.782669159474166
      ],
      [
        "log(w)",
        -12.78391567114443
      ],
      [
        "Λ_y",
        -12.784237000477344
      ],
      [
        "sqrt(F)",
        -12.786259875777496
      ],
      [
        "Derivative(3*",
        -12.787166871647468
      ],
      [
        "(f)**",
        -12.787520928953052
      ],
      [
        "I_Σ",
        -12.788217861560259
      ],
      [
        "(d)/",
        -12.789913453390218
      ],
      [
        "log(B)",
        -12.791600736288393
      ],
      [
        "7**",
        -12.791968637973813
      ],
      [
        "log(Γ)",
        -12.794605884310169
      ],
      [
        "log(Κ)",
        -12.795685687434554
      ],
      [
        "(Y*",
        -12.796170924448212
      ],
      [
        "(V)**",
        -12.796835717663162
      ],
      [
        "ι_α",
        -12.798095267340646
      ],
      [
        "ζ_a",
        -12.800074060264336
      ],
      [
        "h_Π",
        -12.801981876974963
      ],
      [
        "log(R)",
        -12.802077292282231
      ],
      [
        "_l))",
        -12.803944717294524
      ],
      [
        "/8)*",
        -12.805848819000143
      ],
      [
        "(ι)*",
        -12.806338109929266
      ],
      [
        "(L)**",
        -12.81052650849044
      ],
      [
        "sqrt(u)",
        -12.810599505111675
      ],
      [
        "*ν)",
        -12.813183961145313
      ],
      [
        "p_B",
        -12.813839409228745
      ],
      [
        "η_χ",
        -12.815858575498362
      ],
      [
        "(F)*",
        -12.816334251004305
      ],
      [
        "log(υ)",
        -12.817492041188416
      ],
      [
        "log(τ)",
        -12.817909349046328
      ],
      [
        "(X)*",
        -12.821931541322213
      ],
      [
        "sqrt(5)*sqrt(",
        -12.822986079473786
      ],
      [
        "(P)/",
        -12.82327222838347
      ],
      [
        "**5)*",
        -12.823336318795484
      ],
      [
        "P_H",
        -12.826967346734602
      ],
      [
        "/2)/",
        -12.827377218934647
      ],
      [
        "Α_c",
        -12.828852627751958
      ],
      [
        "Υ_E",
        -12.8297108786492
      ],
      [
        "Υ_ο",
        -12.830918546396873
      ],
      [
        "/h)",
        -12.831681405725417
      ],
      [
        "**V)",
        -12.831955657669019
      ],
      [
        "sqrt(z)",
        -12.833286816064646
      ],
      [
        "*Σ)",
        -12.837351261350825
      ],
      [
        "_υ))",
        -12.839360637686621
      ],
      [
        "_D))",
        -12.839798210280012
      ],
      [
        "sqrt(ζ)",
        -12.841146369573101
      ],
      [
        "(τ)**",
        -12.842615363212257
      ],
      [
        "(j)/",
        -12.84279433876354
      ],
      [
        "Ψ_Π",
        -12.8447306962291
      ],
      [
        "(ι)**",
        -12.84537669539444
      ],
      [
        "(C)**",
        -12.847086097043784
      ],
      [
        "(q)**",
        -12.848032387444734
      ],
      [
        "_b))",
        -12.850789297804022
      ],
      [
        "/Ρ)",
        -12.852531168318803
      ],
      [
        "(D)/",
        -12.853346165528066
      ],
      [
        "sqrt(γ)",
        -12.853948320580553
      ],
      [
        "F_Ψ",
        -12.855395495714552
      ],
      [
        "(θ)**",
        -12.85762089931989
      ],
      [
        "_Φ))",
        -12.86163073431586
      ],
      [
        "b_Ι",
        -12.863205931250057
      ],
      [
        "(Λ)**",
        -12.864614984522849
      ],
      [
        "t_ο",
        -12.864914869609082
      ],
      [
        "_B))",
        -12.867074724529761
      ],
      [
        "G_Ψ",
        -12.869784839151576
      ],
      [
        "*ξ)",
        -12.870093069235718
      ],
      [
        "(x)*",
        -12.870484064816745
      ],
      [
        "5*sqrt(",
        -12.871202999294992
      ],
      [
        "_m))",
        -12.871622113598956
      ],
      [
        "log(t)",
        -12.874485642676541
      ],
      [
        "(y)/",
        -12.87903637545431
      ],
      [
        "Sum(9*",
        -12.879775430005228
      ],
      [
        "log(Θ)",
        -12.882159086750162
      ],
      [
        "Λ_τ",
        -12.882609355464199
      ],
      [
        "**7)*",
        -12.885197570016567
      ],
      [
        "X_L",
        -12.886826869638302
      ],
      [
        "(s)/",
        -12.887789128113663
      ],
      [
        "Derivative(4*",
        -12.890678653403643
      ],
      [
        "ρ_5",
        -12.892275862821123
      ],
      [
        "(φ)/",
        -12.898146511219894
      ],
      [
        "*ψ)",
        -12.90020078045569
      ],
      [
        "j_H",
        -12.902019489246173
      ],
      [
        "(Ε)/",
        -12.90473734114428
      ],
      [
        "Ψ_a",
        -12.905663248331877
      ],
      [
        "_g))",
        -12.906390600966322
      ],
      [
        "(B*",
        -12.909373218428094
      ],
      [
        "/ε)",
        -12.914775601221605
      ],
      [
        "_6))",
        -12.91568618172231
      ],
      [
        "v_1",
        -12.916339465258211
      ],
      [
        "log(W)",
        -12.917485410190656
      ],
      [
        "Integral(7*",
        -12.917776196269145
      ],
      [
        "sqrt(V)",
        -12.918889757504777
      ],
      [
        "(σ)**",
        -12.919449060007576
      ],
      [
        "Sum(5*",
        -12.921613342779445
      ],
      [
        "log(x)",
        -12.922321188444348
      ],
      [
        "_Κ))",
        -12.92236408545712
      ],
      [
        "*Ρ)",
        -12.923369272089625
      ],
      [
        "Derivative(9*",
        -12.923994188796554
      ],
      [
        "*v)",
        -12.924411977573577
      ],
      [
        "/Τ)",
        -12.924691043060792
      ],
      [
        "(Ε)*",
        -12.927359267824741
      ],
      [
        "/ξ)",
        -12.936230314722362
      ],
      [
        "sqrt(Ρ)",
        -12.938473120650128
      ],
      [
        "log(Ω)",
        -12.939842064178654
      ],
      [
        "(χ)/",
        -12.94031901765858
      ],
      [
        "(H)/",
        -12.940896922986978
      ],
      [
        "(E)/",
        -12.941448666251683
      ],
      [
        "sqrt(h)",
        -12.941706853473162
      ],
      [
        "(Η)*",
        -12.942270003702312
      ],
      [
        "(f)/",
        -12.942492738145432
      ],
      [
        "(Ε)**",
        -12.947152075722705
      ],
      [
        "log(b_",
        -12.947653568029487
      ],
      [
        "(G)**",
        -12.947845755782879
      ],
      [
        "/5)*",
        -12.948361786757292
      ],
      [
        "sqrt(g)",
        -12.949907573375299
      ],
      [
        "*β)",
        -12.951454602822274
      ],
      [
        "**6)*",
        -12.955383589939808
      ],
      [
        "u_f",
        -12.958428490354246
      ],
      [
        "(ν)/",
        -12.963504840763521
      ],
      [
        "**Z)",
        -12.965236626563767
      ],
      [
        "_Β))",
        -12.967232941587861
      ],
      [
        "(t**",
        -12.968792259065909
      ],
      [
        "A_ΨΗ",
        -12.969470520242352
      ],
      [
        "ε_Ηg",
        -12.969519395274647
      ],
      [
        "(χ)*",
        -12.969559282833384
      ],
      [
        "B_W",
        -12.969649894494292
      ],
      [
        "Σ_Κ",
        -12.969689844609318
      ],
      [
        "P_κ",
        -12.96970009530724
      ],
      [
        "Ν_ο",
        -12.969722419822533
      ],
      [
        "Z_Π",
        -12.969724683593006
      ],
      [
        "τ_Δ",
        -12.969726545612767
      ],
      [
        "A_H",
        -12.969730021724358
      ],
      [
        "Ν_9",
        -12.969761838112829
      ],
      [
        "(y)*",
        -12.969829036750365
      ],
      [
        "θ_β",
        -12.969873818923341
      ],
      [
        "σ_1",
        -12.969897117916576
      ],
      [
        "f_K",
        -12.969904856774606
      ],
      [
        "φ_A",
        -12.969959167014956
      ],
      [
        "δ_R",
        -12.969979565525819
      ],
      [
        "ψ_R",
        -12.969995211133687
      ],
      [
        "δ_U",
        -12.970012121979664
      ],
      [
        "Σ_Ψ",
        -12.97007953444221
      ],
      [
        "**(sqrt(2)*sqrt(",
        -12.9711377638956
      ],
      [
        "ω_w",
        -12.971645275691344
      ],
      [
        ")**(6**",
        -12.972082684509848
      ],
      [
        "Derivative(6*",
        -12.972958216779576
      ],
      [
        "S_Χ",
        -12.974768388540213
      ],
      [
        "z_Φ",
        -12.975023462885195
      ],
      [
        "(J)*",
        -12.975581055861932
      ],
      [
        "/χ)",
        -12.976518189695321
      ],
      [
        "λ_t",
        -12.976903361646254
      ],
      [
        "Ω_ρ",
        -12.977580560387537
      ],
      [
        "S_j",
        -12.977988910143615
      ],
      [
        "W_I",
        -12.978340333589495
      ],
      [
        "(f*",
        -12.979446874929165
      ],
      [
        "W_Q",
        -12.980042054812824
      ],
      [
        "(ψ)/",
        -12.980374774616976
      ],
      [
        "(g)/",
        -12.980655771728049
      ],
      [
        "/P)",
        -12.98250364783188
      ],
      [
        "j_G",
        -12.983148952252982
      ],
      [
        "j_ζ",
        -12.983693815928214
      ],
      [
        ")*log(R)",
        -12.984485667572342
      ],
      [
        "/G)",
        -12.984916320856614
      ],
      [
        "σ_Ξ",
        -12.98585151417454
      ],
      [
        "/Γ)",
        -12.986034114220796
      ],
      [
        "/Α)",
        -12.987946274947516
      ],
      [
        "U_ε",
        -12.989282054037854
      ],
      [
        "(Ο)*",
        -12.990302432563809
      ],
      [
        "(Η)**",
        -12.990587674462157
      ],
      [
        "ζ_λ",
        -12.991023932154224
      ],
      [
        "**8)*",
        -12.99136539727738
      ],
      [
        "(ι)/",
        -12.992207365693226
      ],
      [
        "log(s)",
        -12.994924492388181
      ],
      [
        "V_β",
        -12.99545570887917
      ],
      [
        "x_h",
        -12.99589727827941
      ],
      [
        "k_Μ",
        -12.996367934831834
      ],
      [
        "Derivative(log(ω",
        -12.996895894821572
      ],
      [
        "sqrt(η)",
        -12.996911164345418
      ],
      [
        "Χ_Μ",
        -12.997176373370305
      ],
      [
        "σ_Μ",
        -12.998158904756671
      ],
      [
        "**ι)",
        -12.998752499913678
      ],
      [
        "φ_Ε",
        -12.99988291361909
      ],
      [
        "Γ_L",
        -13.001958627102907
      ],
      [
        "*x)",
        -13.002066594942757
      ],
      [
        "z_ι",
        -13.002522906378179
      ],
      [
        "log(C)/",
        -13.002797112053535
      ],
      [
        "α_ι",
        -13.00344315582094
      ],
      [
        "S_A",
        -13.003777286600311
      ],
      [
        "i_Η",
        -13.00379032178003
      ],
      [
        "δ_δ",
        -13.00380266613404
      ],
      [
        "Η_h",
        -13.003839363667751
      ],
      [
        "ω_8",
        -13.004210796893194
      ],
      [
        "Ω_f",
        -13.006013941990112
      ],
      [
        "δ_Σ",
        -13.006701869143452
      ],
      [
        "ζ_V",
        -13.007380497059703
      ],
      [
        "**g)",
        -13.008661062233331
      ],
      [
        "**3)*",
        -13.008797308065947
      ],
      [
        "F_ξ",
        -13.008961490759301
      ],
      [
        "Ψ_Λ",
        -13.009559968067379
      ],
      [
        "p_η",
        -13.014533135211314
      ],
      [
        "log(ξ)",
        -13.015551597630694
      ],
      [
        "(Y)**",
        -13.015732024984688
      ],
      [
        "(m)*",
        -13.016012884973518
      ],
      [
        "Ξ_Β",
        -13.016216160840909
      ],
      [
        "sqrt(Ν)",
        -13.017362780280491
      ],
      [
        "w_Μ",
        -13.017554569341492
      ],
      [
        "ρ_G",
        -13.018526528473597
      ],
      [
        "ρ_κ",
        -13.019020137708363
      ],
      [
        "H_ζ",
        -13.020438751237108
      ],
      [
        "(Ο)/",
        -13.02257525977317
      ],
      [
        "Ρ_δ",
        -13.023477794962481
      ],
      [
        "sqrt(Η)",
        -13.026141918992726
      ],
      [
        "M_t",
        -13.026298650924572
      ],
      [
        "(h)/",
        -13.026484934266913
      ],
      [
        "Ψ_Ξ",
        -13.02705724279035
      ],
      [
        "(Z)*",
        -13.02719403807937
      ],
      [
        "_u))",
        -13.030637406240801
      ],
      [
        "Π_H",
        -13.03094203750308
      ],
      [
        "**c)",
        -13.034115330856718
      ],
      [
        "K_S",
        -13.034414337410063
      ],
      [
        ")/(3*",
        -13.035696320352828
      ],
      [
        "x_Ν",
        -13.035707528222506
      ],
      [
        "(E*",
        -13.036156464919758
      ],
      [
        "P_Φ",
        -13.036577368079278
      ],
      [
        "_2))",
        -13.037968554963376
      ],
      [
        "_z))",
        -13.03904786541784
      ],
      [
        "(Α)**",
        -13.040703875877579
      ],
      [
        "K_Ν",
        -13.041498633844643
      ],
      [
        "n_T",
        -13.042115844584051
      ],
      [
        "(V/",
        -13.042699925296255
      ],
      [
        "sqrt(P)",
        -13.043580475048355
      ],
      [
        "(α)**",
        -13.045049068473904
      ],
      [
        "Χ_Ε",
        -13.045092284228069
      ],
      [
        "_L))",
        -13.045750762122365
      ],
      [
        "ε_J",
        -13.046558505653229
      ],
      [
        "ξ_D",
        -13.046582803743267
      ],
      [
        "Ω_b",
        -13.047726467309072
      ],
      [
        "(a/",
        -13.048167643045737
      ],
      [
        "(Υ)/",
        -13.04943627192096
      ],
      [
        "Β_1",
        -13.049922908081495
      ],
      [
        "*Χ)",
        -13.050485100684101
      ],
      [
        "(ρ)**",
        -13.052325632284319
      ],
      [
        "Y_Θ",
        -13.054087201584094
      ],
      [
        "(a)**",
        -13.054459407796902
      ],
      [
        "ξ_ρ",
        -13.055159747693814
      ],
      [
        "(t)*",
        -13.055446169504176
      ],
      [
        "M_ο",
        -13.055952924114399
      ],
      [
        "α_Φ",
        -13.056221295214733
      ],
      [
        "Integral(6*",
        -13.056461185066581
      ],
      [
        "(ξ)**",
        -13.056618769293781
      ],
      [
        "κ_t",
        -13.056942447169591
      ],
      [
        "Ν_g",
        -13.060288806167895
      ],
      [
        "(R)/",
        -13.060392701317886
      ],
      [
        "Ρ_M",
        -13.060968411309025
      ],
      [
        "sqrt(d)*",
        -13.064200100296603
      ],
      [
        "(J)**",
        -13.065315085494891
      ],
      [
        "x_a",
        -13.066012013840314
      ],
      [
        "ο_ω",
        -13.066479942831167
      ],
      [
        "sqrt(Ξ_",
        -13.067794183310859
      ],
      [
        "*Ε)",
        -13.069230564566215
      ],
      [
        "*κ)",
        -13.071163369616416
      ],
      [
        "(η)/",
        -13.077711008834493
      ],
      [
        "sqrt(Ζ)",
        -13.080861123399217
      ],
      [
        "**F)",
        -13.082843563996393
      ],
      [
        "Z_f",
        -13.084478836496055
      ],
      [
        "Β_u",
        -13.084674248726394
      ],
      [
        "/s)",
        -13.087301012150204
      ],
      [
        "Β_L",
        -13.0887186305452
      ],
      [
        "Β_υ",
        -13.0902750778355
      ],
      [
        "/V)",
        -13.091325397659334
      ],
      [
        "sqrt(B)",
        -13.097785642454973
      ],
      [
        "g_3",
        -13.098069262113427
      ],
      [
        "b_α",
        -13.099286706881985
      ],
      [
        "*Υ)",
        -13.102274200707635
      ],
      [
        "*Μ)",
        -13.104770711325642
      ],
      [
        "(w/",
        -13.112829965086938
      ],
      [
        "_4))",
        -13.113728673107895
      ],
      [
        "Σ_7",
        -13.114747605238732
      ],
      [
        "sqrt(H)/",
        -13.116689571790161
      ],
      [
        "Δ_7",
        -13.117074521294894
      ],
      [
        "*α)",
        -13.12096108143948
      ],
      [
        "(θ)*",
        -13.12406005374055
      ],
      [
        "(δ)/",
        -13.133152151896498
      ],
      [
        "Τ_7",
        -13.13596510773291
      ],
      [
        "Θ_R",
        -13.135976985648828
      ],
      [
        "ψ_Π7",
        -13.136137263924324
      ],
      [
        "Β_οσ",
        -13.136140581984286
      ],
      [
        "C_λξ",
        -13.13614830990318
      ],
      [
        "α_Υγ",
        -13.136151967558748
      ],
      [
        "w_ξ6",
        -13.136155674874667
      ],
      [
        "f_ΣU",
        -13.136156604760169
      ],
      [
        "V_aT",
        -13.136157782234307
      ],
      [
        "Β_ΣX",
        -13.136158316883769
      ],
      [
        "h_mΞ",
        -13.136158829780184
      ],
      [
        "j_φΚ",
        -13.136159448714533
      ],
      [
        "κ_Rψ",
        -13.136171683070136
      ],
      [
        "b_PR",
        -13.136178397153513
      ],
      [
        "ε_Uο",
        -13.136181941243178
      ],
      [
        "v_τη",
        -13.136183451784788
      ],
      [
        "φ_Μλ",
        -13.136184467567226
      ],
      [
        "m_ΒΗ",
        -13.136200099840357
      ],
      [
        "c_J6",
        -13.136214129354201
      ],
      [
        "ο_SΟ",
        -13.136219529709177
      ],
      [
        "Ι_N",
        -13.136266552667816
      ],
      [
        "Μ_pΣ",
        -13.136278536957176
      ],
      [
        "ι_Q",
        -13.136296797716096
      ],
      [
        "Ζ_N",
        -13.136309319745898
      ],
      [
        "10",
        -13.136331787269668
      ],
      [
        "f_I",
        -13.13633651747081
      ],
      [
        "ω_N",
        -13.136338035358719
      ],
      [
        "Γ_N",
        -13.136343243614451
      ],
      [
        "ψ_Q",
        -13.136344810419086
      ],
      [
        "k_Ο",
        -13.136385580948966
      ],
      [
        "P_Π",
        -13.136395758213627
      ],
      [
        "ι_h",
        -13.136398763722454
      ],
      [
        "Ο_ιι",
        -13.136401108853818
      ],
      [
        "θ_ο",
        -13.136401445756118
      ],
      [
        "δ_γ",
        -13.136403884898684
      ],
      [
        "τ_G",
        -13.136405744105454
      ],
      [
        "h_a",
        -13.13640695224823
      ],
      [
        "P_z",
        -13.136419113833778
      ],
      [
        "σ_U",
        -13.136419287176187
      ],
      [
        "σ_W",
        -13.136419816093792
      ],
      [
        "Τ_G",
        -13.136421772982086
      ],
      [
        "τ_μ",
        -13.13642918850028
      ],
      [
        "g_Γ",
        -13.136439193629162
      ],
      [
        "ζ_H",
        -13.136439447448582
      ],
      [
        "ψ_ρ",
        -13.13644165768833
      ],
      [
        "Ζ_k",
        -13.136443568197057
      ],
      [
        "ψ_Y",
        -13.136444896426326
      ],
      [
        "ζ_k",
        -13.136445272669691
      ],
      [
        "Θ_H",
        -13.136447487215447
      ],
      [
        "Θ_z",
        -13.136447941037519
      ],
      [
        "φ_R",
        -13.13644866035283
      ],
      [
        "Σ_v",
        -13.136449163159453
      ],
      [
        "ψ_τ",
        -13.13647700964933
      ],
      [
        "Γ_σ",
        -13.13650207008539
      ],
      [
        "Ν_4",
        -13.136541893394979
      ],
      [
        "θ_9",
        -13.136572720007266
      ],
      [
        "Α_5",
        -13.136585298137192
      ],
      [
        "Γ_I",
        -13.136646010167059
      ],
      [
        "Integral(sqrt(R)",
        -13.136709801524798
      ],
      [
        "g_β",
        -13.136730224828684
      ],
      [
        "sqrt(C)",
        -13.13676275228461
      ],
      [
        "Ζ_9",
        -13.136872896652074
      ],
      [
        "h_Ι",
        -13.136906664953724
      ],
      [
        ")/(2*sqrt(",
        -13.137084098758237
      ],
      [
        "z_ξψ",
        -13.137161567309699
      ],
      [
        "C_Υ",
        -13.137941635534048
      ],
      [
        "τ_ι",
        -13.138346148886441
      ],
      [
        "Ι_z",
        -13.138636147406764
      ],
      [
        "δ_ι",
        -13.138668745254448
      ],
      [
        "Ι_q",
        -13.138924389099419
      ],
      [
        "Z_α",
        -13.139620469799613
      ],
      [
        "D_U",
        -13.139637675033692
      ],
      [
        "Σ_Ι",
        -13.139639884376425
      ],
      [
        "S_N",
        -13.139769450825067
      ],
      [
        "D_ν",
        -13.1398375280111
      ],
      [
        "Τ_4",
        -13.139999243917707
      ],
      [
        "Θ_α",
        -13.140050091465781
      ],
      [
        "B_q",
        -13.140318351710816
      ],
      [
        "Ρ_μ",
        -13.140760045037378
      ],
      [
        "s_P",
        -13.141312345352041
      ],
      [
        "**4)*",
        -13.141501516356602
      ],
      [
        "Φ_Z",
        -13.141814462581479
      ],
      [
        "Υ_γ",
        -13.141864980673697
      ],
      [
        "S_ι",
        -13.141885015129073
      ],
      [
        "Φ_z",
        -13.142128186771117
      ],
      [
        "Ρ_b",
        -13.14257411428408
      ],
      [
        "Φ_α",
        -13.142625299379262
      ],
      [
        "(τ)/",
        -13.14281974898065
      ],
      [
        "λ_Υ",
        -13.14351509468145
      ],
      [
        "Χ_Ι",
        -13.143557268607701
      ],
      [
        "λ_C",
        -13.143643992242167
      ],
      [
        "Β_Ο",
        -13.14369470194189
      ],
      [
        "Β_X",
        -13.14371438037426
      ],
      [
        "λ_Z",
        -13.143807400163055
      ],
      [
        "Β_Φ",
        -13.143853321455556
      ],
      [
        "Β_K",
        -13.143902965537919
      ],
      [
        "/ω)",
        -13.143983443007397
      ],
      [
        "Χ_Y",
        -13.144098041608009
      ],
      [
        "X_a",
        -13.144210705946115
      ],
      [
        "(Υ)**",
        -13.14425043089532
      ],
      [
        "λ_F",
        -13.144283107825213
      ],
      [
        "λ_ο",
        -13.14429408116388
      ],
      [
        "λ_τ",
        -13.144347080029247
      ],
      [
        "Β_α",
        -13.144405837024472
      ],
      [
        "Sum(2*sqrt(",
        -13.144630799920934
      ],
      [
        "z_Z",
        -13.144677572682511
      ],
      [
        "r_1",
        -13.14520651440986
      ],
      [
        "Ξ_F",
        -13.145960805563954
      ],
      [
        "Ξ_Γ",
        -13.146035122574466
      ],
      [
        "β_κ",
        -13.146397224603561
      ],
      [
        "(C*",
        -13.146461309707139
      ],
      [
        "S_L",
        -13.146989341572931
      ],
      [
        "sqrt(L)*",
        -13.14717003769568
      ],
      [
        "**P)",
        -13.147296414055145
      ],
      [
        "Τ_z",
        -13.147366593491821
      ],
      [
        "z_7",
        -13.147689639823142
      ],
      [
        "S_Ξ",
        -13.147753349275032
      ],
      [
        "Ν_Ξ",
        -13.148018754568913
      ],
      [
        "sqrt(M)*",
        -13.148035288674965
      ],
      [
        "*h)",
        -13.148693502206688
      ],
      [
        "a_Β",
        -13.148805537056628
      ],
      [
        "sqrt(Ω)*",
        -13.14884111666259
      ],
      [
        "U_Z",
        -13.150811358433483
      ],
      [
        "W_ο",
        -13.151021432988607
      ],
      [
        "/W)",
        -13.152301351943382
      ],
      [
        "sqrt(A)*",
        -13.155143970953702
      ],
      [
        "Integral(sqrt(k)",
        -13.156109742994506
      ],
      [
        "δ_c",
        -13.156349439656202
      ],
      [
        "Ρ_Α",
        -13.15647181302623
      ],
      [
        "_D)**",
        -13.156770389731857
      ],
      [
        "/K)",
        -13.15711441337461
      ],
      [
        "ζ_P",
        -13.157235797178407
      ],
      [
        "Μ_Φ",
        -13.157366844758961
      ],
      [
        "P_c",
        -13.157715634240859
      ],
      [
        "/α)",
        -13.158306914307664
      ],
      [
        "φ_ω",
        -13.159442492818966
      ],
      [
        "(Ξ)/",
        -13.159925042995855
      ],
      [
        "O_Ω",
        -13.161232124453141
      ],
      [
        "Ο_W",
        -13.161291387832998
      ],
      [
        "ω_ω",
        -13.161540170418771
      ],
      [
        "w_U",
        -13.161942919354114
      ],
      [
        "Α_λ",
        -13.16202355241873
      ],
      [
        "α_T",
        -13.162540909194743
      ],
      [
        "φ_y",
        -13.162551651138727
      ],
      [
        "w_X",
        -13.162768444898532
      ],
      [
        "Κ_N",
        -13.162914446050104
      ],
      [
        "O_Σ",
        -13.162924505438545
      ],
      [
        "w_Φ",
        -13.16313036127438
      ],
      [
        "**a)",
        -13.163499238473191
      ],
      [
        "y_Π",
        -13.165605270190042
      ],
      [
        "p_I",
        -13.165807522229603
      ],
      [
        "/ν)",
        -13.165845257617182
      ],
      [
        "φ_M",
        -13.167131876149096
      ],
      [
        "**8)**",
        -13.167363532681227
      ],
      [
        ")/(9*",
        -13.167504206818638
      ],
      [
        "Κ_Q",
        -13.169056251416903
      ],
      [
        "f_Ρ",
        -13.169418187234582
      ],
      [
        "Ω_P",
        -13.169678882886183
      ],
      [
        "Φ_y",
        -13.170585458514811
      ],
      [
        "T_u",
        -13.17121202049197
      ],
      [
        "Ψ_Ζ",
        -13.171299714745608
      ],
      [
        "Ν_B",
        -13.172360338557711
      ],
      [
        "Τ_L",
        -13.172732011263747
      ],
      [
        "Z_M",
        -13.173018825178746
      ],
      [
        "φ_Ω",
        -13.17319199589853
      ],
      [
        "Ο_x",
        -13.173228283515368
      ],
      [
        "D_M",
        -13.173423011044706
      ],
      [
        "(Τ)/",
        -13.17376281529641
      ],
      [
        "g_χ",
        -13.174280512896958
      ],
      [
        "φ_g",
        -13.174445609865172
      ],
      [
        "Γ_υ",
        -13.174774014791518
      ],
      [
        "k_M",
        -13.174998507479039
      ],
      [
        "ι_Σ",
        -13.176077429733521
      ],
      [
        "α_ψ",
        -13.17642471438847
      ],
      [
        "σ_M",
        -13.176599693510795
      ],
      [
        "J_Ξ",
        -13.176794238598324
      ],
      [
        "κ_φ",
        -13.17700624982541
      ],
      [
        "R_h",
        -13.177031436466535
      ],
      [
        "V_U",
        -13.17743958509084
      ],
      [
        "S_υ",
        -13.17786780218583
      ],
      [
        "Β_Γ",
        -13.17863213896425
      ],
      [
        "i_Υ",
        -13.178651120827428
      ],
      [
        "D_Ε",
        -13.1787060857563
      ],
      [
        "Θ_2",
        -13.178716787938205
      ],
      [
        "i_Ν",
        -13.179205144211766
      ],
      [
        "Γ_S",
        -13.179270622653318
      ],
      [
        "M_T",
        -13.179827073241071
      ],
      [
        "i_T",
        -13.180723520871105
      ],
      [
        "Θ_Ξ",
        -13.180926234208227
      ],
      [
        "h_Θ",
        -13.181298286406506
      ],
      [
        "Η_γ",
        -13.182088509223409
      ],
      [
        "C_Ε",
        -13.182095035345853
      ],
      [
        "θ_Β",
        -13.182538019915523
      ],
      [
        "Η_J",
        -13.182913878148295
      ],
      [
        "J_Ε",
        -13.18305566556969
      ],
      [
        "α_C",
        -13.183801993812294
      ],
      [
        "Q_N",
        -13.18390359932544
      ],
      [
        "Η_ε",
        -13.184000093745224
      ],
      [
        "h_χ",
        -13.184061854075605
      ],
      [
        "d_μ",
        -13.184421047940514
      ],
      [
        "Ψ_1",
        -13.184685242126996
      ],
      [
        "Ι_6",
        -13.18470676143658
      ],
      [
        "Χ_Ξ",
        -13.1847978873313
      ],
      [
        "Η_Π",
        -13.184939599336833
      ],
      [
        "**t)",
        -13.185089660727648
      ],
      [
        "*Α)",
        -13.185216911093015
      ],
      [
        "Η_z",
        -13.185352180121114
      ],
      [
        "log(κ)",
        -13.186486172028193
      ],
      [
        "Β_κ",
        -13.186851747750051
      ],
      [
        "ρ_θ",
        -13.188206634414321
      ],
      [
        "N_κ",
        -13.188767187718458
      ],
      [
        "Β_Τ",
        -13.18878219434609
      ],
      [
        "Q_C",
        -13.18941600908057
      ],
      [
        "λ_J",
        -13.18993670890405
      ],
      [
        "Η_t",
        -13.189983374385507
      ],
      [
        "Χ_ω",
        -13.19001031573687
      ],
      [
        "F_C",
        -13.19029828645776
      ],
      [
        "Derivative(2*",
        -13.190894725601487
      ],
      [
        "Β_B",
        -13.190954625081801
      ],
      [
        "P_V",
        -13.19108067073331
      ],
      [
        "Θ_8",
        -13.191614430495461
      ],
      [
        "F_a",
        -13.191669364645026
      ],
      [
        "log(Γ_",
        -13.19194579188968
      ],
      [
        "F_ζ",
        -13.192022034235626
      ],
      [
        "Μ_f",
        -13.192647646149544
      ],
      [
        "ρ_A",
        -13.193127787482004
      ],
      [
        "δ_3",
        -13.193131124519654
      ],
      [
        "Q_h",
        -13.193885294434716
      ],
      [
        "Q_Ο",
        -13.194868560095838
      ],
      [
        "Q_ζ",
        -13.195093627842946
      ],
      [
        "z_Ρ",
        -13.195789770926343
      ],
      [
        "Κ_I",
        -13.19621979747043
      ],
      [
        "Q_A",
        -13.199181475645275
      ],
      [
        "Y_U",
        -13.199314192491373
      ],
      [
        "γ_Ω",
        -13.19951473689723
      ],
      [
        "sqrt(ι)",
        -13.199816959089572
      ],
      [
        "(V)/log(",
        -13.200486583433769
      ],
      [
        "w_s",
        -13.200699460714022
      ],
      [
        "j_Β",
        -13.201980202486908
      ],
      [
        "(χ)/sqrt(",
        -13.202500214205642
      ],
      [
        "v_z",
        -13.202705245538821
      ],
      [
        "γ_χ",
        -13.203818214464944
      ],
      [
        "y_Y",
        -13.20455089512169
      ],
      [
        "u_9",
        -13.205080006967364
      ],
      [
        "z_δ",
        -13.205603148670708
      ],
      [
        "R_g",
        -13.20584973761845
      ],
      [
        "ρ_Τ",
        -13.206244880610065
      ],
      [
        "R_φ",
        -13.206310089630001
      ],
      [
        "F_J",
        -13.208807275543453
      ],
      [
        "_Ω))",
        -13.209913941905103
      ],
      [
        "Λ_Δ",
        -13.20995774942718
      ],
      [
        "Q_K",
        -13.210469120466634
      ],
      [
        "Q_Α",
        -13.21225658220291
      ],
      [
        "N_s",
        -13.212814815919023
      ],
      [
        "Λ_ξ",
        -13.213338723478408
      ],
      [
        "Sum(sqrt(n)",
        -13.213425925110611
      ],
      [
        "**L)",
        -13.214037168537391
      ],
      [
        "q_v",
        -13.214320401383638
      ],
      [
        "Q_Κ",
        -13.214980126344203
      ],
      [
        "Φ_χ",
        -13.215134911176285
      ],
      [
        "R_Η",
        -13.215937897510317
      ],
      [
        "Π_γ",
        -13.216124388563582
      ],
      [
        "χ_ξ",
        -13.217277262474335
      ],
      [
        "A_z",
        -13.21790994322189
      ],
      [
        "L_K",
        -13.218027488037489
      ],
      [
        "Η_φ",
        -13.218272894105311
      ],
      [
        "*u)",
        -13.218462329350407
      ],
      [
        "G_ρ",
        -13.220366114846131
      ],
      [
        "V_j",
        -13.22125738551509
      ],
      [
        "Π_Ο",
        -13.221258745904791
      ],
      [
        "t_F",
        -13.222067899334727
      ],
      [
        "Η_δ",
        -13.222540824006817
      ],
      [
        "x_ω",
        -13.225209414482936
      ],
      [
        "Ο_Κ",
        -13.225323828345493
      ],
      [
        "Η_Ξ",
        -13.226795529249364
      ],
      [
        "x_Μ",
        -13.228586030048731
      ],
      [
        "(Ρ)/",
        -13.228832085908804
      ],
      [
        "Κ_h",
        -13.229170816085976
      ],
      [
        "ι_Π",
        -13.229585689229381
      ],
      [
        "G_t",
        -13.230086744745778
      ],
      [
        "l_ο",
        -13.234091397310202
      ],
      [
        "Λ_Λ",
        -13.234499118532998
      ],
      [
        "E_R",
        -13.235654461865545
      ],
      [
        "_P))",
        -13.235699980532358
      ],
      [
        "Ζ_Υ",
        -13.237556990614335
      ],
      [
        "*ο)",
        -13.238061753126564
      ],
      [
        "χ_Λ",
        -13.238703035801075
      ],
      [
        "E_k",
        -13.239234246631176
      ],
      [
        "V_Β",
        -13.240097470899364
      ],
      [
        "η_j",
        -13.240230318979286
      ],
      [
        "/3)*",
        -13.240870616984175
      ],
      [
        "I_H",
        -13.24186399936534
      ],
      [
        "*ζ)",
        -13.243138601411324
      ],
      [
        "υ_Ρ",
        -13.244512030985751
      ],
      [
        "**ψ)",
        -13.245325818814228
      ],
      [
        "a_Κ",
        -13.246114111868117
      ],
      [
        "f_α",
        -13.248860504006945
      ],
      [
        "χ_ο",
        -13.249573330453273
      ],
      [
        "Λ_δ",
        -13.253204561902754
      ],
      [
        "/z)",
        -13.254552599053774
      ],
      [
        "E_4",
        -13.254795221772227
      ],
      [
        "L_k",
        -13.256871303269975
      ],
      [
        "_Π)*",
        -13.257107954006818
      ],
      [
        "ο_Ε",
        -13.25730831340052
      ],
      [
        "v_ω",
        -13.2582283473572
      ],
      [
        "t_Β",
        -13.259107963187102
      ],
      [
        "Ψ_γ",
        -13.266360030053454
      ],
      [
        "I_T",
        -13.269127318125564
      ],
      [
        "L_Θ",
        -13.271655381284353
      ],
      [
        "log(H_",
        -13.272906097606585
      ],
      [
        "L_f",
        -13.273397324740632
      ],
      [
        "I_F",
        -13.27563916630796
      ],
      [
        "a_Ε",
        -13.278975286893312
      ],
      [
        "Derivative(8*",
        -13.28086702624602
      ],
      [
        "**Β)",
        -13.282127427555043
      ],
      [
        "a_Ξ",
        -13.284740985451638
      ],
      [
        "/log(J)",
        -13.285240841857759
      ],
      [
        "(x**",
        -13.28678049326039
      ],
      [
        "x_3",
        -13.287493108878941
      ],
      [
        "Q_σ",
        -13.28811865327118
      ],
      [
        "_4)/",
        -13.292736255775086
      ],
      [
        "ι_Φ",
        -13.299131535597905
      ],
      [
        "t_ρ",
        -13.299238076522034
      ],
      [
        "Σ_D",
        -13.30701716564354
      ],
      [
        "(Σ)**",
        -13.309082950821324
      ],
      [
        "Θ_Π",
        -13.311831986392873
      ],
      [
        "U_t",
        -13.312488910169545
      ],
      [
        ")/(5*sqrt(",
        -13.327509602083085
      ],
      [
        "ε_4",
        -13.331822045129401
      ],
      [
        "*log(F)",
        -13.333129545179204
      ],
      [
        "Ο_Δ",
        -13.33544305546649
      ],
      [
        "O_HτQ",
        -13.336137069616058
      ],
      [
        "L_ΓνS",
        -13.336137086793137
      ],
      [
        "Ν_ΘkW",
        -13.336137088658646
      ],
      [
        "E_τΥ4",
        -13.336137092267613
      ],
      [
        "ο_DΧΚ",
        -13.336137092725172
      ],
      [
        "G_η69",
        -13.3361371409335
      ],
      [
        "w_3BC",
        -13.33613716194071
      ],
      [
        "s_τ5Y",
        -13.336137262429917
      ],
      [
        "f_zχ",
        -13.336137380228028
      ],
      [
        "Λ_l7F",
        -13.336137978236495
      ],
      [
        "M_QoΒ",
        -13.33613886337278
      ],
      [
        "D_bg",
        -13.33615055469226
      ],
      [
        "O_gβ",
        -13.33615217636623
      ],
      [
        "γ_Γ8",
        -13.336425050267819
      ],
      [
        "V_yI",
        -13.336637158564766
      ],
      [
        "r_ωM",
        -13.337904085411747
      ],
      [
        ")**log(6*",
        -13.33806925920216
      ],
      [
        "2*sqrt(2)*sqrt(",
        -13.339184431198824
      ],
      [
        "(b**",
        -13.339922057557981
      ],
      [
        "z_Q",
        -13.342007308765712
      ],
      [
        "/6)*",
        -13.343834093606334
      ],
      [
        "**(sqrt(3)*sqrt(",
        -13.344134949391714
      ],
      [
        "Υ_P",
        -13.34488387421851
      ],
      [
        "(B)**",
        -13.347919057586854
      ],
      [
        "(b)*",
        -13.349816744799313
      ],
      [
        "/x)",
        -13.34995718091841
      ],
      [
        "/B)",
        -13.350622860674925
      ],
      [
        "*log(η)",
        -13.352017464228375
      ],
      [
        "sqrt(f)*",
        -13.352030573768518
      ],
      [
        "Integral(Τ*",
        -13.352257682563058
      ],
      [
        "**Ο)",
        -13.354702222619114
      ],
      [
        "*Z)*",
        -13.354732757591846
      ],
      [
        "Integral(3*sqrt(",
        -13.358694161913226
      ],
      [
        "sqrt(h)*",
        -13.361012475923857
      ],
      [
        "**σ)",
        -13.3634274562129
      ],
      [
        "/t)",
        -13.367939670003988
      ],
      [
        "**Η)",
        -13.368425595092585
      ],
      [
        "α_W",
        -13.369343016685377
      ],
      [
        "**R)",
        -13.370190088132286
      ],
      [
        "/g)",
        -13.370233956661547
      ],
      [
        "Υ_H",
        -13.37339433927384
      ],
      [
        "/γ)",
        -13.374223379139893
      ],
      [
        "sqrt(ω)*",
        -13.375730498831212
      ],
      [
        "_c))",
        -13.376625299842573
      ],
      [
        "/k)",
        -13.377715276577858
      ],
      [
        "**T)",
        -13.382205525481657
      ],
      [
        "**7)/2)",
        -13.390359533063624
      ],
      [
        "_Ξ)**",
        -13.391280429382356
      ],
      [
        "**Ε)",
        -13.392070742960552
      ],
      [
        "log(υ)*",
        -13.397134062673242
      ],
      [
        "(τ/2)",
        -13.397328292491295
      ],
      [
        "**γ)",
        -13.397447264387898
      ],
      [
        "b_Δ",
        -13.40177459163837
      ],
      [
        "log(R_",
        -13.403548884713496
      ],
      [
        "Κ_a",
        -13.406321067608918
      ],
      [
        "Κ_Ε",
        -13.413758309996183
      ],
      [
        ")*cosh(1)",
        -13.435028707500566
      ],
      [
        "_P)/",
        -13.444329161084532
      ],
      [
        "/y)",
        -13.450238760392745
      ],
      [
        "ρ_q",
        -13.512225149252629
      ],
      [
        "sqrt(2)*",
        -13.521489169447248
      ],
      [
        "Z_Χ",
        -13.545107581646565
      ],
      [
        "Rational(",
        -13.564084931657048
      ],
      [
        "_E)*",
        -13.57288664138993
      ],
      [
        "531441",
        -13.586137068208453
      ],
      [
        "Ι_TZλ",
        -13.58613706828629
      ],
      [
        "C_Kξχ",
        -13.586137068286806
      ],
      [
        "ζ_Χγz",
        -13.586137068296186
      ],
      [
        "Σ_ΖΓψ",
        -13.586137068300388
      ],
      [
        "J_HJg",
        -13.586137068300916
      ],
      [
        "f_WLΔ",
        -13.586137068301696
      ],
      [
        "A_YVΦ",
        -13.586137068304103
      ],
      [
        "ι_ο5Q",
        -13.586137068309315
      ],
      [
        "h_ΓΛA",
        -13.586137068312157
      ],
      [
        "Θ_YMm",
        -13.586137068314576
      ],
      [
        "g_ο7Μ",
        -13.586137068337191
      ],
      [
        "Z_N2f",
        -13.586137068339275
      ],
      [
        "θ_1FΘ",
        -13.58613706834895
      ],
      [
        "δ_Q3s",
        -13.586137068356496
      ],
      [
        "B_UkW",
        -13.58613706838639
      ],
      [
        "C_Dην",
        -13.586137068396239
      ],
      [
        "Ζ_ΦΑν",
        -13.586137068403227
      ],
      [
        "Σ_ΥΗΑ",
        -13.586137068408865
      ],
      [
        "Σ_UσΓ",
        -13.58613706841107
      ],
      [
        "A_WΘν",
        -13.586137068426515
      ],
      [
        "φ_ΠΛL",
        -13.586137068430695
      ],
      [
        "ψ_CKZ",
        -13.586137068433057
      ],
      [
        "ω_QλΨ",
        -13.586137068437564
      ],
      [
        "h_zοΟ",
        -13.58613706843985
      ],
      [
        "Α_ΗΟz",
        -13.586137068445339
      ],
      [
        "J_Δkο",
        -13.586137068447588
      ],
      [
        "s_kzT",
        -13.586137068449881
      ],
      [
        "k_zΤF",
        -13.586137068463351
      ],
      [
        "s_ΟθΜ",
        -13.586137068463833
      ],
      [
        "δ_hγμ",
        -13.586137068464858
      ],
      [
        "Ν_kyρ",
        -13.586137068473619
      ],
      [
        "C_UΠλ",
        -13.586137068475589
      ],
      [
        "W_ρΣΕ",
        -13.586137068480554
      ],
      [
        "δ_hXσ",
        -13.586137068492107
      ],
      [
        "W_ρ6h",
        -13.586137068532981
      ],
      [
        "Θ_DxΘ",
        -13.586137068543811
      ],
      [
        "Θ_9UR",
        -13.586137068590139
      ],
      [
        "Ι_ΝΦλ",
        -13.586137068595697
      ],
      [
        "h_A2P",
        -13.586137068619621
      ],
      [
        "f_qMO",
        -13.586137068639324
      ],
      [
        "σ_ΧbΨ",
        -13.586137068643334
      ],
      [
        "Σ_νιw",
        -13.586137068661202
      ],
      [
        "φ_wDα",
        -13.586137068687016
      ],
      [
        "P_εOο",
        -13.586137068728261
      ],
      [
        "Θ_Αz7",
        -13.586137068744236
      ],
      [
        "s_bΔp",
        -13.586137068746087
      ],
      [
        "ζ_Xψ8",
        -13.586137068837981
      ],
      [
        "Φ_INt",
        -13.586137068936548
      ],
      [
        "Ζ_θs6",
        -13.586137068961728
      ],
      [
        "Α_Πac",
        -13.586137069052754
      ],
      [
        "ψ_Δcm",
        -13.586137069090851
      ],
      [
        "Z_Zjp",
        -13.586137069292956
      ],
      [
        "k_wτω",
        -13.586137069415972
      ],
      [
        "Α_Κ36",
        -13.586137069438283
      ],
      [
        "ω_pFν",
        -13.586137069491667
      ],
      [
        "Γ_ιwT",
        -13.586137069589578
      ],
      [
        "Ζ_hΥc",
        -13.58613707002065
      ],
      [
        "h_wλA",
        -13.586137070137166
      ],
      [
        "Φ_εyΧ",
        -13.586137070270027
      ],
      [
        "Χ_kJυ",
        -13.58613707028005
      ],
      [
        "S_Τυm",
        -13.586137070324302
      ],
      [
        "A_1yp",
        -13.586137070400342
      ],
      [
        "ω_ΝqΦ",
        -13.586137070423062
      ],
      [
        "s_2φP",
        -13.586137070531052
      ],
      [
        "λ_ΑηA",
        -13.586137070595969
      ],
      [
        "g_nθz",
        -13.586137070603119
      ],
      [
        "λ_ΑΔω",
        -13.58613707067676
      ],
      [
        "Θ_bΙd",
        -13.586137071060204
      ],
      [
        "Υ_εΛ5",
        -13.586137071102197
      ],
      [
        "Υ_ν9φ",
        -13.586137071124286
      ],
      [
        "Ι_yΠO",
        -13.586137071718632
      ],
      [
        "w_σMS",
        -13.58613707251292
      ],
      [
        "k_1oO",
        -13.586137072534413
      ],
      [
        "W_ΦΓΡ",
        -13.586137072883691
      ],
      [
        "Μ_gQO",
        -13.586137073278735
      ],
      [
        "Τ_nCW",
        -13.586137073313765
      ],
      [
        "β_hsb",
        -13.586137073385405
      ],
      [
        "R_ζMI",
        -13.586137073735687
      ],
      [
        "ω_2Oι",
        -13.586137073949434
      ],
      [
        "α_ΑΘι",
        -13.586137074925787
      ],
      [
        "i_εΨN",
        -13.586137075126471
      ],
      [
        "A_nCR",
        -13.586137075169363
      ],
      [
        "Χ_MOa",
        -13.586137075757833
      ],
      [
        "T_xΝU",
        -13.586137075853145
      ],
      [
        "ω_nAυ",
        -13.58613707588569
      ],
      [
        "y_hΧk",
        -13.586137076136334
      ],
      [
        "B_oHF",
        -13.586137076170372
      ],
      [
        "r_vIΥ",
        -13.586137076255419
      ],
      [
        "Μ_Dω9",
        -13.586137076638463
      ],
      [
        "C_2Πu",
        -13.586137076644249
      ],
      [
        "V_ΗYα",
        -13.586137076715152
      ],
      [
        "Ψ_οψJ",
        -13.58613707695496
      ],
      [
        "D_IMσ",
        -13.586137077001952
      ],
      [
        "Τ_ΡhY",
        -13.586137077650882
      ],
      [
        "R_ιρΝ",
        -13.586137077695676
      ],
      [
        "u_ΔU4",
        -13.586137078257646
      ],
      [
        "ψ_rtτ",
        -13.5861370783168
      ],
      [
        "E_Qυζ",
        -13.58613707837867
      ],
      [
        "q_ΙWΔ",
        -13.586137078629923
      ],
      [
        "R_ψCΚ",
        -13.586137078646171
      ],
      [
        "b_εθΛ",
        -13.586137078722134
      ],
      [
        "u_ηΥο",
        -13.586137078738343
      ],
      [
        "Η_ηΛυ",
        -13.586137078798412
      ],
      [
        "Ζ_υσΨ",
        -13.586137078869097
      ],
      [
        "R_tLW",
        -13.58613707908658
      ],
      [
        "Ι_χαK",
        -13.58613707911614
      ],
      [
        "h_MM3",
        -13.586137079268486
      ],
      [
        "b_ΑJk",
        -13.586137079433914
      ],
      [
        "I_ΟTI",
        -13.586137079508699
      ],
      [
        "α_Ζτj",
        -13.586137079644878
      ],
      [
        "Ψ_7Εh",
        -13.58613707975138
      ],
      [
        "o_JOΟ",
        -13.586137080384036
      ],
      [
        "α_DψΛ",
        -13.586137080575018
      ],
      [
        "X_υυκ",
        -13.586137080591538
      ],
      [
        "ζ_χΕΠ",
        -13.586137080609706
      ],
      [
        "Η_ΔγΘ",
        -13.586137080638558
      ],
      [
        "Y_ASR",
        -13.586137080673765
      ],
      [
        "δ_λNχ",
        -13.58613708089867
      ],
      [
        "d_γvε",
        -13.586137080909367
      ],
      [
        "Φ_ΥTε",
        -13.586137080953675
      ],
      [
        "Σ_LUΚ",
        -13.586137081480313
      ],
      [
        "Κ_αxν",
        -13.58613708175794
      ],
      [
        "ρ_ε4M",
        -13.58613708176992
      ],
      [
        "r_HαH",
        -13.586137081937096
      ],
      [
        "E_ΧXg",
        -13.58613708231329
      ],
      [
        "u_Aνt",
        -13.586137082427582
      ],
      [
        "A_3Ζm",
        -13.586137082580754
      ],
      [
        "Ζ_Ωξν",
        -13.586137082695375
      ],
      [
        "Ο_ΣBι",
        -13.586137083299466
      ],
      [
        "H_1χη",
        -13.58613708339618
      ],
      [
        "Υ_δΩJ",
        -13.586137083397729
      ],
      [
        "F_ΥχΕ",
        -13.586137084146442
      ],
      [
        "Κ_ΦΓb",
        -13.58613708419958
      ],
      [
        "F_Νuγ",
        -13.58613708427837
      ],
      [
        "r_σΠΟ",
        -13.586137084331874
      ],
      [
        "Π_aΡj",
        -13.586137084536471
      ],
      [
        "X_EIδ",
        -13.5861370849471
      ],
      [
        "Φ_ΧRE",
        -13.586137085410572
      ],
      [
        "Π_2uN",
        -13.586137085565216
      ],
      [
        "R_ρ5F",
        -13.586137085673688
      ],
      [
        "s_qxr",
        -13.586137085772606
      ],
      [
        "R_zbm",
        -13.58613708582376
      ],
      [
        "α_μ9χ",
        -13.586137085846067
      ],
      [
        "b_Ug9",
        -13.586137085902767
      ],
      [
        "r_νΜk",
        -13.586137086121276
      ],
      [
        "q_z8Σ",
        -13.5861370861356
      ],
      [
        "N_BθG",
        -13.586137086300187
      ],
      [
        "χ_NΔΤ",
        -13.5861370869075
      ],
      [
        "L_tΑO",
        -13.58613708714694
      ],
      [
        "p_ρTμ",
        -13.586137087211677
      ],
      [
        "X_cgO",
        -13.586137087374683
      ],
      [
        "χ_υΛI",
        -13.586137087431808
      ],
      [
        "j_x4Μ",
        -13.58613708744405
      ],
      [
        "Ρ_οκU",
        -13.586137087542593
      ],
      [
        "ω_xΑω",
        -13.58613708757792
      ],
      [
        "b_4Γk",
        -13.586137087669359
      ],
      [
        "γ_ΑΙK",
        -13.586137087748032
      ],
      [
        "f_iξΦ",
        -13.586137087880319
      ],
      [
        "i_UΗ3",
        -13.58613708805701
      ],
      [
        "t_IΣλ",
        -13.586137088074107
      ],
      [
        "Γ_OχM",
        -13.586137088132633
      ],
      [
        "o_ΚΧΡ",
        -13.586137088342863
      ],
      [
        "i_ψΩ3",
        -13.586137088514961
      ],
      [
        "U_7ντ",
        -13.586137088514963
      ],
      [
        "l_JtΠ",
        -13.586137089022502
      ],
      [
        "y_vD2",
        -13.586137089073318
      ],
      [
        "x_αSβ",
        -13.586137089279681
      ],
      [
        "ο_Jgj",
        -13.586137089518822
      ],
      [
        "o_GΙ1",
        -13.586137089538028
      ],
      [
        "J_OΣu",
        -13.586137089630933
      ],
      [
        "V_Lωλ",
        -13.58613708973376
      ],
      [
        "Φ_TPυ",
        -13.586137090095761
      ],
      [
        "Χ_EΛV",
        -13.586137090222197
      ],
      [
        "V_ΡζΝ",
        -13.586137090638966
      ],
      [
        "ι_ΞLθ",
        -13.58613709077645
      ],
      [
        "χ_YUθ",
        -13.58613709088217
      ],
      [
        "Θ_xη6",
        -13.586137091264348
      ],
      [
        "G_yYΜ",
        -13.586137091281921
      ],
      [
        "S_Dοχ",
        -13.58613709135405
      ],
      [
        "C_jZΥ",
        -13.586137091603618
      ],
      [
        "κ_μtθ",
        -13.586137091644954
      ],
      [
        "Φ_ΑgΒ",
        -13.586137091769235
      ],
      [
        "Β_ιιX",
        -13.586137091958022
      ],
      [
        "g_ΡΨΝ",
        -13.586137092341378
      ],
      [
        "Θ_saY",
        -13.586137092600833
      ],
      [
        "Θ_Pθλ",
        -13.586137092859733
      ],
      [
        "E_ΙΛY",
        -13.586137093076877
      ],
      [
        "L_RφC",
        -13.586137093297143
      ],
      [
        "η_ΟBh",
        -13.58613709340455
      ],
      [
        "B_Ξβε",
        -13.586137093435308
      ],
      [
        "m_ΖXθ",
        -13.58613709357182
      ],
      [
        "j_Jwκ",
        -13.586137094139005
      ],
      [
        "Δ_Γyg",
        -13.58613709454918
      ],
      [
        "M_PXg",
        -13.586137094820884
      ],
      [
        "H_κτk",
        -13.586137094882448
      ],
      [
        "v_ψΩρ",
        -13.586137094893779
      ],
      [
        "a_ρΒΥ",
        -13.586137095183977
      ],
      [
        "z_μMq",
        -13.58613709524352
      ],
      [
        "Y_jΞΟ",
        -13.58613709550208
      ],
      [
        "G_ΟLν",
        -13.586137095733005
      ],
      [
        "t_ΔQη",
        -13.586137095770361
      ],
      [
        "O_νBt",
        -13.586137095799309
      ],
      [
        "θ_2ΒT",
        -13.586137096248148
      ],
      [
        "Γ_νΧt",
        -13.586137096409676
      ],
      [
        "β_σWj",
        -13.586137096428349
      ],
      [
        "ν_vΤθ",
        -13.586137096450802
      ],
      [
        "g_ΩΥγ",
        -13.5861370966933
      ],
      [
        "Φ_δ5Ω",
        -13.586137096791237
      ],
      [
        "Q_7Xx",
        -13.586137096795373
      ],
      [
        "ξ_sQΚ",
        -13.586137096833331
      ],
      [
        "Ξ_m9χ",
        -13.58613709685564
      ],
      [
        "A_λbD",
        -13.586137096979884
      ],
      [
        "Ω_θΛΖ",
        -13.586137097160936
      ],
      [
        "H_ψxΧ",
        -13.586137097697513
      ],
      [
        "t_ΚμΛ",
        -13.586137097705802
      ],
      [
        "λ_UgΗ",
        -13.586137098173548
      ],
      [
        "x_KVΜ",
        -13.586137098777547
      ],
      [
        "ν_ΝZκ",
        -13.586137099226478
      ],
      [
        "A_φΑR",
        -13.586137099251685
      ],
      [
        "χ_ΡχΕ",
        -13.586137099278229
      ],
      [
        "Ζ_ΕYΑ",
        -13.586137099634414
      ],
      [
        "φ_LΛy",
        -13.586137099718508
      ],
      [
        "W_gμz",
        -13.586137099994263
      ],
      [
        "Ε_ΦμΖ",
        -13.586137100334145
      ],
      [
        "Ε_θΞY",
        -13.586137100891692
      ],
      [
        "Μ_υΔX",
        -13.586137101345376
      ],
      [
        "Κ_5χι",
        -13.586137101354403
      ],
      [
        "Δ_ξωο",
        -13.5861371015406
      ],
      [
        "μ_ΚΥΜ",
        -13.586137101741976
      ],
      [
        "x_YΩP",
        -13.586137101822686
      ],
      [
        "ω_ΜsΔ",
        -13.586137102004193
      ],
      [
        "x_κιΓ",
        -13.5861371021804
      ],
      [
        "Ω_εΞZ",
        -13.586137102481082
      ],
      [
        "σ_chw",
        -13.58613710268777
      ],
      [
        "χ_ιζΗ",
        -13.586137102762681
      ],
      [
        "s_3μV",
        -13.586137102769468
      ],
      [
        "Q_Τ7Π",
        -13.586137103214408
      ],
      [
        "p_4χH",
        -13.586137103254691
      ],
      [
        "κ_Tsη",
        -13.586137103878052
      ],
      [
        "Ξ_ΖΙa",
        -13.586137103915117
      ],
      [
        "Ψ_χΙΥ",
        -13.58613710402078
      ],
      [
        "K_kMΧ",
        -13.58613710415878
      ],
      [
        "d_ΚyΕ",
        -13.5861371043287
      ],
      [
        "Η_Pνx",
        -13.5861371043761
      ],
      [
        "Ω_aωΛ",
        -13.5861371044718
      ],
      [
        "l_1ΡT",
        -13.58613710448249
      ],
      [
        "ε_τzΓ",
        -13.58613710500197
      ],
      [
        "Δ_ΧΖΦ",
        -13.586137105502702
      ],
      [
        "M_θzΞ",
        -13.586137105529495
      ],
      [
        "θ_6θD",
        -13.586137105813924
      ],
      [
        "Μ_ΕΥy",
        -13.586137106057397
      ],
      [
        "H_χΕ5",
        -13.586137106618349
      ],
      [
        "Ω_ξΡΙ",
        -13.586137107026468
      ],
      [
        "x_ΒBK",
        -13.58613710709474
      ],
      [
        "j_6ωC",
        -13.586137107293725
      ],
      [
        "j_χxZ",
        -13.586137107353114
      ],
      [
        "τ_ΒΡk",
        -13.586137107991163
      ],
      [
        "f_Mtμ",
        -13.586137108393897
      ],
      [
        "M_FaΙ",
        -13.586137108569945
      ],
      [
        "T_Βο9",
        -13.586137108572453
      ],
      [
        "I_MmS",
        -13.586137109652444
      ],
      [
        "B_ΘΞB",
        -13.586137110045259
      ],
      [
        "Υ_bΗο",
        -13.586137111624602
      ],
      [
        "κ_λχΑ",
        -13.586137111635294
      ],
      [
        "ε_kσs",
        -13.586137112186313
      ],
      [
        "G_Μθω",
        -13.586137113394003
      ],
      [
        "ο_θbg",
        -13.586137113843485
      ],
      [
        "Η_ΩΧy",
        -13.586137114011555
      ],
      [
        "Y_hkv",
        -13.58613711439824
      ],
      [
        "χ_ΣξΥ",
        -13.58613711488288
      ],
      [
        "Y_AΧ5",
        -13.58613711515081
      ],
      [
        "s_Τv",
        -13.58613711518231
      ],
      [
        "I_Θfν",
        -13.586137115226357
      ],
      [
        "ε_ξμμ",
        -13.586137115312347
      ],
      [
        "u_ΕTA",
        -13.58613711624578
      ],
      [
        "β_οθσ",
        -13.586137116311548
      ],
      [
        "Β_ι1Ι",
        -13.586137116418772
      ],
      [
        "Ζ_ΘΘu",
        -13.586137116465583
      ],
      [
        "ν_ξΞX",
        -13.586137116656172
      ],
      [
        "υ_8δξ",
        -13.586137116663874
      ],
      [
        "x_Α4Ν",
        -13.586137117086626
      ],
      [
        "c_βΒτ",
        -13.586137117249518
      ],
      [
        "λ_2ag",
        -13.58613711793696
      ],
      [
        "η_sΓυ",
        -13.58613711849573
      ],
      [
        "Υ_Εγt",
        -13.58613711897043
      ],
      [
        "c_7οU",
        -13.586137119518998
      ],
      [
        "s_sΝ8",
        -13.586137119524896
      ],
      [
        "η_fφΞ",
        -13.586137120051506
      ],
      [
        "χ_szb",
        -13.586137120180304
      ],
      [
        "b_ΒβΧ",
        -13.586137120450665
      ],
      [
        "Δ_γΞ1",
        -13.586137120539409
      ],
      [
        "I_7βu",
        -13.586137120584391
      ],
      [
        "χ_PΜΕ",
        -13.586137121124848
      ],
      [
        "G_ΛβΖ",
        -13.586137121337774
      ],
      [
        "Λ_MζH",
        -13.58613712171924
      ],
      [
        "S_7λσ",
        -13.586137122114561
      ],
      [
        "ο_Α1Κ",
        -13.586137122973845
      ],
      [
        "b_Vδz",
        -13.586137123417895
      ],
      [
        "Κ_bsΞ",
        -13.586137123998913
      ],
      [
        "ν_τΧξ",
        -13.586137124848541
      ],
      [
        "Β_ζΥ8",
        -13.586137125340423
      ],
      [
        "I_λθτ",
        -13.586137125435137
      ],
      [
        "ξ_ΛΙβ",
        -13.586137125564573
      ],
      [
        "Υ_ΒΕL",
        -13.58613712644281
      ],
      [
        "K_OνC",
        -13.586137126782223
      ],
      [
        "ο_4uω",
        -13.586137129063445
      ],
      [
        "β_ΡhΣ",
        -13.586137129553526
      ],
      [
        "ν_LΜG",
        -13.586137131531782
      ],
      [
        "L_sYΚ",
        -13.586137132617141
      ],
      [
        "μ_uωΜ",
        -13.586137133267625
      ],
      [
        "κ_2IB",
        -13.586137133352487
      ],
      [
        "ο_Π6Β",
        -13.586137133426309
      ],
      [
        "a_φCz",
        -13.586137134463868
      ],
      [
        "β_yΙα",
        -13.586137134592223
      ],
      [
        "Ξ_ο6μ",
        -13.586137135059664
      ],
      [
        "H_55Η",
        -13.586137135441215
      ],
      [
        "ο_yδσ",
        -13.586137136409226
      ],
      [
        "c_ΣPM",
        -13.58613713705481
      ],
      [
        "D_Σbμ",
        -13.586137137859698
      ],
      [
        "x_4νψ",
        -13.586137139137854
      ],
      [
        "z_2wΝ",
        -13.586137139593854
      ],
      [
        "v_ΦD1",
        -13.586137140955657
      ],
      [
        "Ε_υαξ",
        -13.586137142234865
      ],
      [
        "Χ_M4Y",
        -13.586137142802274
      ],
      [
        "t_4t9",
        -13.586137144091268
      ],
      [
        "χ_3xR",
        -13.586137149679166
      ],
      [
        "J_mτE",
        -13.58613715116563
      ],
      [
        "Σ_JjI",
        -13.58613715140456
      ],
      [
        "α_VsΕ",
        -13.586137152160187
      ],
      [
        "t_Yω3",
        -13.586137154499106
      ],
      [
        "o_ΧH8",
        -13.586137157253008
      ],
      [
        "y_86L",
        -13.586137157822233
      ],
      [
        "A_cpT",
        -13.586137158618914
      ],
      [
        "ψ_oγh",
        -13.586137159206226
      ],
      [
        "l_jηD",
        -13.586137160767201
      ],
      [
        "β_N76",
        -13.586137161787557
      ],
      [
        "Ι_ZO",
        -13.586137163017977
      ],
      [
        "Υ_6fΒ",
        -13.58613716488118
      ],
      [
        "Δ_WΣ1",
        -13.586137165534176
      ],
      [
        "E_οP2",
        -13.586137167004964
      ],
      [
        "Ν_ΑO",
        -13.586137167341931
      ],
      [
        "ξ_αβ2",
        -13.586137169182038
      ],
      [
        "R_qΛΞ",
        -13.58613717130291
      ],
      [
        "ζ_νO",
        -13.586137173737164
      ],
      [
        "Β_7YΨ",
        -13.586137178509382
      ],
      [
        "p_PΣ3",
        -13.586137180197028
      ],
      [
        "w_ΒIκ",
        -13.586137182396058
      ],
      [
        "V_εqΓ",
        -13.586137182573479
      ],
      [
        "N_J63",
        -13.586137187182235
      ],
      [
        "β_μΧ8",
        -13.586137188329396
      ],
      [
        "Θ_χΓE",
        -13.586137192875109
      ],
      [
        "i_λMt",
        -13.586137193719104
      ],
      [
        "Ω_n6ε",
        -13.5861371953498
      ],
      [
        "Θ_δΛ2",
        -13.58613719540825
      ],
      [
        "ν_Ω4Κ",
        -13.58613719658518
      ],
      [
        "κ_3bΔ",
        -13.586137197791171
      ],
      [
        "J_AQ",
        -13.58613720240386
      ],
      [
        "R_cΑΗ",
        -13.586137202669812
      ],
      [
        "μ_iWQ",
        -13.586137203760714
      ],
      [
        "d_Σ9k",
        -13.58613720871423
      ],
      [
        "o_ΗΤE",
        -13.586137208751072
      ],
      [
        "υ_uC2",
        -13.586137213033162
      ],
      [
        "θ_ΦS",
        -13.586137214469394
      ],
      [
        "ξ_OZ1",
        -13.586137216873695
      ],
      [
        "z_Rιo",
        -13.58613722325233
      ],
      [
        "n_YVq",
        -13.586137225200249
      ],
      [
        "ε_ΔB6",
        -13.586137229500908
      ],
      [
        "d_7w1",
        -13.586137232276325
      ],
      [
        "f_sW8",
        -13.586137237563324
      ],
      [
        "B_ΟΗ",
        -13.586137243358888
      ],
      [
        "τ_ζρ",
        -13.586137244388562
      ],
      [
        "δ_ξu",
        -13.586137249184494
      ],
      [
        "C_Θsq",
        -13.586137249307935
      ],
      [
        "ρ_1Ψk",
        -13.586137255026793
      ],
      [
        "Φ_gOl",
        -13.586137255481198
      ],
      [
        "C_A7μ",
        -13.586137279221747
      ],
      [
        "x_χup",
        -13.58613727976908
      ],
      [
        "g_Ηο",
        -13.58613728098612
      ],
      [
        "Ν_Xω",
        -13.586137283935951
      ],
      [
        "θ_Ιb",
        -13.58613728506131
      ],
      [
        "Ψ_ΓΜS",
        -13.58613729018277
      ],
      [
        "t_wτh",
        -13.586137293225905
      ],
      [
        "φ_ρD",
        -13.586137295607386
      ],
      [
        "Θ_HΛS",
        -13.586137303306131
      ],
      [
        "Δ_cοj",
        -13.58613730795431
      ],
      [
        "Ε_Φνw",
        -13.586137310156333
      ],
      [
        "Π_υDΤ",
        -13.586137310722254
      ],
      [
        "P_ΠSΒ",
        -13.586137318016165
      ],
      [
        "T_Xt",
        -13.586137319767518
      ],
      [
        "q_Y7q",
        -13.586137324593608
      ],
      [
        "K_nΚI",
        -13.586137326019509
      ],
      [
        "ξ_qνο",
        -13.586137326193281
      ],
      [
        "s_qO",
        -13.586137331963796
      ],
      [
        "Ξ_zrΒ",
        -13.586137347255566
      ],
      [
        "Y_qΡε",
        -13.586137351466885
      ],
      [
        "σ_Χt",
        -13.586137354905247
      ],
      [
        "ξ_ψEY",
        -13.586137356307113
      ],
      [
        "Q_ΟιK",
        -13.58613736281329
      ],
      [
        "V_ξHW",
        -13.586137367820832
      ],
      [
        "v_AcL",
        -13.586137375323899
      ],
      [
        "z_κpζ",
        -13.586137385507678
      ],
      [
        "s_Iα",
        -13.586137390010595
      ],
      [
        "w_νδΞ",
        -13.586137399060771
      ],
      [
        "Ω_Pθu",
        -13.586137400495833
      ],
      [
        "Π_pPZ",
        -13.586137405024658
      ],
      [
        "Q_σHf",
        -13.58613743513112
      ],
      [
        "q_μlψ",
        -13.58613743758718
      ],
      [
        "ξ_ΗBp",
        -13.586137442194689
      ],
      [
        "ω_wPμ",
        -13.58613744481066
      ],
      [
        "z_ΦψΥ",
        -13.586137446782029
      ],
      [
        "Η_hτΤ",
        -13.5861374645077
      ],
      [
        "Θ_Ζθ",
        -13.586137472039868
      ],
      [
        "n_ωφΚ",
        -13.586137482462581
      ],
      [
        "s_zj",
        -13.586137487618927
      ],
      [
        "Ι_ΔC",
        -13.586137488061826
      ],
      [
        "c_cχW",
        -13.586137491049259
      ],
      [
        "r_O3Ρ",
        -13.586137503941798
      ],
      [
        "Ο_tε",
        -13.586137506867644
      ],
      [
        "α_Γ33",
        -13.586137507337394
      ],
      [
        "ι_W5",
        -13.586137517619852
      ],
      [
        "ζ_L1d",
        -13.58613753549766
      ],
      [
        "J_DV",
        -13.586137537712771
      ],
      [
        "l_υNΧ",
        -13.586137545886888
      ],
      [
        "ρ_qtm",
        -13.586137546354365
      ],
      [
        "B_ψP",
        -13.586137547293905
      ],
      [
        "ψ_εΩ",
        -13.586137553358077
      ],
      [
        "β_BdΔ",
        -13.586137560308488
      ],
      [
        "f_γσΡ",
        -13.5861375633472
      ],
      [
        "τ_ΠV",
        -13.58613756959755
      ],
      [
        "θ_UΦ",
        -13.586137571118066
      ],
      [
        "s_γχ",
        -13.586137578763234
      ],
      [
        "C_hι",
        -13.586137585158859
      ],
      [
        "I_pAV",
        -13.586137586495008
      ],
      [
        "k_TM",
        -13.58613758884075
      ],
      [
        "A_Tβ",
        -13.586137591383636
      ],
      [
        "K_phγ",
        -13.586137592133042
      ],
      [
        "δ_ηs",
        -13.586137593762361
      ],
      [
        "A_ζT",
        -13.586137602098102
      ],
      [
        "H_λjd",
        -13.586137604820319
      ],
      [
        "P_Δy",
        -13.586137607550784
      ],
      [
        "U_vι",
        -13.586137610629946
      ],
      [
        "A_ΝΦ",
        -13.586137612499364
      ],
      [
        "A_ΑF",
        -13.58613761438832
      ],
      [
        "Τ_ΔL",
        -13.586137615738515
      ],
      [
        "ι_αΨι",
        -13.586137621405175
      ],
      [
        "Ι_θμ",
        -13.586137627126993
      ],
      [
        "A_Gx",
        -13.586137648832606
      ],
      [
        "C_bν",
        -13.586137661644983
      ],
      [
        "u_rεI",
        -13.586137672012024
      ],
      [
        "m_ηpτ",
        -13.586137678339211
      ],
      [
        "f_ξΤ",
        -13.586137686919885
      ],
      [
        "s_ΦU",
        -13.586137695027848
      ],
      [
        "Ψ_Λ4Γ",
        -13.586137720930065
      ],
      [
        "k_ΗB",
        -13.586137731511927
      ],
      [
        "Z_vμ",
        -13.586137737652608
      ],
      [
        "ψ_UΘ",
        -13.586137740822007
      ],
      [
        "ο_ΦpΨ",
        -13.586137743169717
      ],
      [
        "τ_tΧ",
        -13.58613775254478
      ],
      [
        "τ_Ww",
        -13.586137774540045
      ],
      [
        "ο_ΒηJ",
        -13.586137781074141
      ],
      [
        "Q_λΨl",
        -13.586137787309834
      ],
      [
        "Σ_U5",
        -13.586137794759486
      ],
      [
        "σ_ψf",
        -13.586137813711408
      ],
      [
        "ι_Lrξ",
        -13.586137850310356
      ],
      [
        "J_Ρkb",
        -13.586137852270241
      ],
      [
        "j_γGw",
        -13.586137902771606
      ],
      [
        "Τ_ΣLo",
        -13.586137915799165
      ],
      [
        "ω_tw",
        -13.586137987219635
      ],
      [
        "b_Lwc",
        -13.586137990345218
      ],
      [
        "U_Κ5r",
        -13.586137994621561
      ],
      [
        "H_Ηκr",
        -13.586138014181635
      ],
      [
        "Β_fεr",
        -13.586138086215756
      ],
      [
        "Ι_4Β",
        -13.58613809120905
      ],
      [
        "Κ_ΚQY",
        -13.58613809121258
      ],
      [
        "C_8E2",
        -13.586138092490463
      ],
      [
        "β_Eψl",
        -13.586138094986055
      ],
      [
        "δ_Γw",
        -13.586138143270142
      ],
      [
        "μ_δβi",
        -13.586138150663889
      ],
      [
        "Τ_κw",
        -13.5861381946844
      ],
      [
        "K_Sf7",
        -13.586138195706939
      ],
      [
        "H_n3ο",
        -13.586138199481134
      ],
      [
        "U_rPΒ",
        -13.586138310299258
      ],
      [
        "Z_EN",
        -13.586138330292341
      ],
      [
        "Τ_νQκ",
        -13.58613839933008
      ],
      [
        "M_Uψ8",
        -13.586138525077834
      ],
      [
        "k_εSU",
        -13.58613853430316
      ],
      [
        "ε_Ψui",
        -13.586138601656716
      ],
      [
        "M_GKo",
        -13.586138652262438
      ],
      [
        "a_ΛΙo",
        -13.586138670390763
      ],
      [
        "θ_ΓIA",
        -13.586138719639841
      ],
      [
        "T_Γ6",
        -13.586138719811405
      ],
      [
        "α_3nΣ",
        -13.586138720584389
      ],
      [
        "ι_aτh",
        -13.586138743100356
      ],
      [
        "α_Γac",
        -13.58613876765763
      ],
      [
        "ζ_Nεy",
        -13.586138791067214
      ],
      [
        "Π_SlΑ",
        -13.586138807181797
      ],
      [
        "k_ΖDζ",
        -13.586138820016478
      ],
      [
        "P_aXρ",
        -13.586138892288291
      ],
      [
        "V_Ω5i",
        -13.586138906036865
      ],
      [
        "h_bLG",
        -13.586138927918821
      ],
      [
        "H_Yqχ",
        -13.586138940318113
      ],
      [
        "P_ΙΥB",
        -13.586138973704156
      ],
      [
        "z_φdk",
        -13.58613898073167
      ],
      [
        "Ψ_TaU",
        -13.586138990225635
      ],
      [
        "t_oIΤ",
        -13.586139052630998
      ],
      [
        "h_4αR",
        -13.586139090791223
      ],
      [
        "J_7Gμ",
        -13.586139107076091
      ],
      [
        "T_θp",
        -13.586139149334917
      ],
      [
        "ψ_bc",
        -13.58613915854577
      ],
      [
        "f_7Ρδ",
        -13.58613917564326
      ],
      [
        "i_iyT",
        -13.586139222346546
      ],
      [
        "κ_iLΑ",
        -13.586139298736295
      ],
      [
        "Z_βxΜ",
        -13.586139300249409
      ],
      [
        "Α_EΧ",
        -13.586139345333745
      ],
      [
        "w_μφθ",
        -13.586139363528934
      ],
      [
        "m_iαΠ",
        -13.58613940916366
      ],
      [
        "E_2Eκ",
        -13.58613944593378
      ],
      [
        "Σ_ιΩΨ",
        -13.586139474541636
      ],
      [
        "ω_ΖΖ",
        -13.586139480642633
      ],
      [
        "Φ_νN",
        -13.586139603631581
      ],
      [
        "P_ρρ",
        -13.586139626730244
      ],
      [
        "i_δDx",
        -13.586139807299912
      ],
      [
        "x_rΤΠ",
        -13.586139831996357
      ],
      [
        "r_jγλ",
        -13.586139837722143
      ],
      [
        "ω_8OΔ",
        -13.58613984137729
      ],
      [
        "R_8υK",
        -13.586139879418683
      ],
      [
        "Δ_iομ",
        -13.58613988570042
      ],
      [
        "ψ_Jp",
        -13.586139919734963
      ],
      [
        "v_rυω",
        -13.586139928535577
      ],
      [
        "ε_iσδ",
        -13.586140202356953
      ],
      [
        "ψ_Γf",
        -13.586140240160992
      ],
      [
        "m_rδλ",
        -13.586140240892407
      ],
      [
        "Χ_ψI",
        -13.586140353790878
      ],
      [
        "Ι_wA",
        -13.586140490417533
      ],
      [
        "r_YΧ",
        -13.586140605740809
      ],
      [
        "A_ZSl",
        -13.586140614090926
      ],
      [
        "s_6rδ",
        -13.586140644608903
      ],
      [
        "w_Uθα",
        -13.586140767062597
      ],
      [
        "U_νSl",
        -13.58614077115282
      ],
      [
        "i_i2φ",
        -13.586140947134544
      ],
      [
        "Β_zQ",
        -13.586140962376469
      ],
      [
        "R_φxy",
        -13.586141059476219
      ],
      [
        "f_wΜ",
        -13.586141099792014
      ],
      [
        "Υ_βΣ",
        -13.586141162442225
      ],
      [
        "ι_YΞκ",
        -13.586141169197498
      ],
      [
        "ρ_ψΙΣ",
        -13.586141179244565
      ],
      [
        "Γ_kkX",
        -13.586141184356322
      ],
      [
        "A_ρφ8",
        -13.586141232883344
      ],
      [
        "ρ_Τχx",
        -13.586141255518408
      ],
      [
        "r_Vgο",
        -13.586141263153284
      ],
      [
        "r_Xb",
        -13.586141270751241
      ],
      [
        "s_ΡG",
        -13.586141449827444
      ],
      [
        "E_44j",
        -13.586141455908107
      ],
      [
        "J_p3",
        -13.58614145893094
      ],
      [
        "σ_σn",
        -13.586141470844225
      ],
      [
        "B_qJp",
        -13.586141809427135
      ],
      [
        "z_ιψF",
        -13.586141878995205
      ],
      [
        "C_nΒ",
        -13.586141942181557
      ],
      [
        "Φ_bj",
        -13.586142102906681
      ],
      [
        "g_kA1",
        -13.586142443440268
      ],
      [
        "θ_dm",
        -13.586142600347607
      ],
      [
        "V_β1η",
        -13.586142626245945
      ],
      [
        "Τ_Ιd",
        -13.586142733097727
      ],
      [
        "Η_δmΘ",
        -13.58614285373643
      ],
      [
        "O_ψζ",
        -13.58614287927002
      ],
      [
        "h_Τxο",
        -13.586143164152029
      ],
      [
        "V_σΘT",
        -13.58614347167949
      ],
      [
        "Z_τn",
        -13.586143662390326
      ],
      [
        "S_Pu",
        -13.58614372422368
      ],
      [
        "Ξ_Gψ",
        -13.586143879577639
      ],
      [
        "ι_αΥΙ",
        -13.586143883483345
      ],
      [
        "δ_ωI",
        -13.586144018409296
      ],
      [
        "Ξ_ΑΨ",
        -13.586144031037257
      ],
      [
        "β_UR",
        -13.586144337813625
      ],
      [
        "η_φXΦ",
        -13.586144576207763
      ],
      [
        "Ψ_ν12",
        -13.586145084845606
      ],
      [
        "l_ω8i",
        -13.586145878690893
      ],
      [
        "Τ_Oκn",
        -13.586145960520327
      ],
      [
        "Μ_bO",
        -13.586146264954154
      ],
      [
        "R_gΒ8",
        -13.586146483849822
      ],
      [
        "u_QΕ",
        -13.586146915657201
      ],
      [
        "a_6dw",
        -13.586147602515313
      ],
      [
        "κ_1Β",
        -13.58614792676006
      ],
      [
        "W_Rξ7",
        -13.586148300065584
      ],
      [
        "Μ_Νf",
        -13.586149628263936
      ],
      [
        "y_Y7n",
        -13.586150204632213
      ],
      [
        "Κ_4yβ",
        -13.586150494480059
      ],
      [
        "m_Νpd",
        -13.586150783073702
      ],
      [
        "Ι_Ur",
        -13.586150991096202
      ],
      [
        "b_rpZ",
        -13.58615142531617
      ],
      [
        "Ο_Tξ",
        -13.586151741712431
      ],
      [
        "Ο_κΑ",
        -13.586151834269717
      ],
      [
        "α_ZL",
        -13.58615208966351
      ],
      [
        "U_XD",
        -13.586152823229314
      ],
      [
        "V_ΗB",
        -13.58615301914559
      ],
      [
        "x_fO",
        -13.586153281001986
      ],
      [
        "ψ_nΟ",
        -13.586153654127164
      ],
      [
        "U_IJ",
        -13.586154503821817
      ],
      [
        "U_lΣ",
        -13.586155484922731
      ],
      [
        "ι_lx",
        -13.586156441300592
      ],
      [
        "Z_υK",
        -13.586156841207233
      ],
      [
        "Η_Qζ",
        -13.586157063672466
      ],
      [
        "Ζ_ΛΟ",
        -13.58615742787421
      ],
      [
        "Μ_ο3",
        -13.586157653212377
      ],
      [
        "k_rm",
        -13.586158373589079
      ],
      [
        "u_T9",
        -13.58615860890928
      ],
      [
        "W_1S",
        -13.586159526129176
      ],
      [
        "D_υH",
        -13.586159674898164
      ],
      [
        "V_μK",
        -13.58616030643216
      ],
      [
        "v_qiΨ",
        -13.586160401416704
      ],
      [
        "δ_φο",
        -13.586161191309406
      ],
      [
        "H_jO",
        -13.586161228173331
      ],
      [
        "ε_wiΞ",
        -13.586161362221613
      ],
      [
        "τ_ΩD",
        -13.586161490640306
      ],
      [
        "l_Mlz",
        -13.586162205382966
      ],
      [
        "α_Τη",
        -13.586162246516459
      ],
      [
        "y_ξ8",
        -13.58616244802807
      ],
      [
        "q_ρη",
        -13.586162832409887
      ],
      [
        "q_kι",
        -13.58616300527997
      ],
      [
        "δ_mβ",
        -13.58616319829973
      ],
      [
        "X_ΘS",
        -13.586163238444094
      ],
      [
        "w_4μ",
        -13.586163535269808
      ],
      [
        "j_sΠ",
        -13.586164123842547
      ],
      [
        "u_Ι2r",
        -13.58616431638094
      ],
      [
        "Ρ_mj",
        -13.586164407543073
      ],
      [
        "Η_Ικ",
        -13.586164471123562
      ],
      [
        "Ρ_2A",
        -13.586164581947681
      ],
      [
        "f_2T",
        -13.58616463377609
      ],
      [
        "Η_noh",
        -13.586164829792798
      ],
      [
        "U_UB",
        -13.586165172185847
      ],
      [
        "u_hv",
        -13.586165382891108
      ],
      [
        "b_XΒ",
        -13.586165502683457
      ],
      [
        "H_LN",
        -13.586165538253647
      ],
      [
        "L_ΛN",
        -13.586165553437397
      ],
      [
        "r_ZΑ",
        -13.586165728572194
      ],
      [
        "d_ηΣ",
        -13.58616583278797
      ],
      [
        "Δ_vε",
        -13.586167239895506
      ],
      [
        "σ_Ukr",
        -13.586167313300722
      ],
      [
        "W_uu",
        -13.58616736772835
      ],
      [
        "Ξ_δS",
        -13.586167630415272
      ],
      [
        "X_gΡ",
        -13.586168165256371
      ],
      [
        "Ι_ΞΓ",
        -13.586168291243593
      ],
      [
        "K_yO",
        -13.586168958245644
      ],
      [
        "Ω_BV",
        -13.586169052796867
      ],
      [
        "α_Yt",
        -13.586169646455732
      ],
      [
        "q_Ys",
        -13.586170630323203
      ],
      [
        "y_υΕ",
        -13.58617194965829
      ],
      [
        "r_βκ",
        -13.586172626571887
      ],
      [
        "Ρ_HV",
        -13.586172629893392
      ],
      [
        "T_CE7",
        -13.586173322112836
      ],
      [
        "q_γθ",
        -13.586174176663128
      ],
      [
        "u_οΡ",
        -13.586174490037902
      ],
      [
        "α_Πu",
        -13.58617516015601
      ],
      [
        "γ_hC",
        -13.586176577746636
      ],
      [
        "Β_y1",
        -13.586177075286912
      ],
      [
        "Γ_rν",
        -13.58617725330004
      ],
      [
        "Π_DI",
        -13.586177526719352
      ],
      [
        "Φ_ΑP",
        -13.586178040021885
      ],
      [
        "q_Dι",
        -13.586178079213104
      ],
      [
        "z_εν",
        -13.586178098604687
      ],
      [
        "u_1Ψ",
        -13.58617812004589
      ],
      [
        "Σ_ΡΡ",
        -13.586178320676018
      ],
      [
        "R_9α",
        -13.5861785092291
      ],
      [
        "θ_Λρ",
        -13.586178537832252
      ],
      [
        "η_ιΔo",
        -13.586179042168908
      ],
      [
        "Ψ_Μt",
        -13.586179130759781
      ],
      [
        "q_ζu",
        -13.586180189651436
      ],
      [
        "F_fa",
        -13.586180745107661
      ],
      [
        "P_sΑ",
        -13.586180749760066
      ],
      [
        "Λ_vs",
        -13.5861809754004
      ],
      [
        "γ_1Κ",
        -13.586181143917639
      ],
      [
        "i_Φθ",
        -13.586181453876947
      ],
      [
        "Ρ_Τμ",
        -13.586182369344133
      ],
      [
        "Ι_rζ",
        -13.586184078577709
      ],
      [
        "Κ_DΡ",
        -13.586184527830454
      ],
      [
        "E_bΒ",
        -13.58618478380037
      ],
      [
        "Ν_xA",
        -13.58618691190486
      ],
      [
        "Γ_sν",
        -13.586187157642378
      ],
      [
        "z_ΠG",
        -13.586187765577796
      ],
      [
        "Π_ζΤ",
        -13.586187876357009
      ],
      [
        "X_CE",
        -13.586188101355237
      ],
      [
        "O_Αj",
        -13.586188168055484
      ],
      [
        "h_uH",
        -13.586188508476681
      ],
      [
        "i_ΨΑ",
        -13.586188710386871
      ],
      [
        "o_στ",
        -13.58618901424128
      ],
      [
        "χ_kθ",
        -13.586189437559627
      ],
      [
        "Χ_ΤV",
        -13.58618946945061
      ],
      [
        "p_τU",
        -13.586190006212835
      ],
      [
        "Ψ_ioa",
        -13.586190781237248
      ],
      [
        "Y_ωλ",
        -13.58619100680593
      ],
      [
        "h_λφ",
        -13.586191016629456
      ],
      [
        "d_XH",
        -13.586191878060422
      ],
      [
        "v_ΨΝ",
        -13.586193802317224
      ],
      [
        "Κ_τL",
        -13.58619393927341
      ],
      [
        "g_φj",
        -13.58619448054608
      ],
      [
        "Τ_Μυ",
        -13.5861945436808
      ],
      [
        "Μ_ΠlT",
        -13.586195234390557
      ],
      [
        "v_aδ",
        -13.586195601265162
      ],
      [
        "q_ψz",
        -13.586195885678936
      ],
      [
        "x_NR",
        -13.58619600319905
      ],
      [
        "w_u5",
        -13.586196629025606
      ],
      [
        "v_HD",
        -13.586196980214362
      ],
      [
        "Δ_αΗ",
        -13.586197240503722
      ],
      [
        "U_Ma",
        -13.586197268855727
      ],
      [
        "d_ιΝ",
        -13.5861973212361
      ],
      [
        "k_Vg",
        -13.586197903404834
      ],
      [
        "s_ΞH",
        -13.586197996417376
      ],
      [
        "Β_ΙX",
        -13.586198718491131
      ],
      [
        "ξ_ΓΣ",
        -13.58619879786459
      ],
      [
        "M_RΟ",
        -13.586199005686028
      ],
      [
        "d_HΚ",
        -13.586199280603712
      ],
      [
        "ψ_gν",
        -13.586200006620674
      ],
      [
        "Β_RZ",
        -13.586200091010905
      ],
      [
        "d_HJ",
        -13.58620014733701
      ],
      [
        "X_ρY",
        -13.586200467729066
      ],
      [
        "W_t9",
        -13.586200604213147
      ],
      [
        "X_οο",
        -13.586201531320857
      ],
      [
        "Ζ_υψ",
        -13.586202134315368
      ],
      [
        "κ_ΖW",
        -13.58620331418049
      ],
      [
        "p_ωQ",
        -13.586203495797921
      ],
      [
        "Ξ_Rro",
        -13.586203575211954
      ],
      [
        "ω_Mβ",
        -13.586204010503634
      ],
      [
        "λ_ΙJ",
        -13.586204042492044
      ],
      [
        "Γ_MΦ",
        -13.586204201927973
      ],
      [
        "Β_ZB",
        -13.586204274919705
      ],
      [
        "Integral(5*log(",
        -13.586205293070487
      ],
      [
        "X_kF",
        -13.586206672344062
      ],
      [
        "Ε_sS",
        -13.586206815253146
      ],
      [
        "Π_Yg",
        -13.586206944861116
      ],
      [
        "ε_ξW",
        -13.586207216904452
      ],
      [
        "Π_Ky",
        -13.586207356073473
      ],
      [
        "l_γψ",
        -13.586207859070049
      ],
      [
        "ν_οC",
        -13.586208445930769
      ],
      [
        "o_εΗ",
        -13.58620866998183
      ],
      [
        "γ_Ca",
        -13.5862098894526
      ],
      [
        "E_Λυ",
        -13.586211693195418
      ],
      [
        "Ε_Cκ",
        -13.586211794476032
      ],
      [
        "Δ_κJ",
        -13.586211925077599
      ],
      [
        "c_ξu",
        -13.58621213080449
      ],
      [
        "Σ_Μλ",
        -13.58621229026046
      ],
      [
        "t_ΥC",
        -13.586212627653579
      ],
      [
        "χ_αμ",
        -13.586212688296168
      ],
      [
        "C_VH",
        -13.586212761940573
      ],
      [
        "w_Wxp",
        -13.586213060582187
      ],
      [
        "c_JL",
        -13.586213285551581
      ],
      [
        "Μ_ΞΥ",
        -13.586213301593427
      ],
      [
        "N_ζs",
        -13.586213641814425
      ],
      [
        "Γ_ΣF",
        -13.586214084383153
      ],
      [
        "Π_OX",
        -13.586215434238593
      ],
      [
        "l_7ρ",
        -13.586215632980906
      ],
      [
        "δ_mζ",
        -13.586215690353905
      ],
      [
        "γ_Λη",
        -13.58621582548361
      ],
      [
        "ξ_Hφ",
        -13.586216800602317
      ],
      [
        "n_τ1",
        -13.586217417376513
      ],
      [
        "s_Ξα",
        -13.586217949230177
      ],
      [
        "Χ_ψp",
        -13.586218245159518
      ],
      [
        "L_gλ",
        -13.586218257955494
      ],
      [
        "I_ιL",
        -13.586218873619378
      ],
      [
        "o_bΞ",
        -13.586219682616738
      ],
      [
        "χ_Fγ",
        -13.586219702036692
      ],
      [
        "β_οΚ",
        -13.586220502235383
      ],
      [
        "χ_ΠΚ",
        -13.58622134458005
      ],
      [
        "D_lΟ",
        -13.586221510996005
      ],
      [
        "L_UC",
        -13.586221833207498
      ],
      [
        "ζ_mΟ",
        -13.586222122534794
      ],
      [
        "c_ΙΤ",
        -13.58622228378411
      ],
      [
        "U_Rw",
        -13.586223630309904
      ],
      [
        "Χ_I8",
        -13.586224756632
      ],
      [
        "U_3Σ",
        -13.586225028366197
      ],
      [
        "Λ_αK",
        -13.58622560352244
      ],
      [
        "n_ψΗ",
        -13.586225604090117
      ],
      [
        "ν_AΠ",
        -13.586226320070931
      ],
      [
        "Α_kpβ",
        -13.586226371506255
      ],
      [
        "A_fz",
        -13.586226480767708
      ],
      [
        "K_Αx",
        -13.586227255402303
      ],
      [
        "β_ΩΑ",
        -13.5862275393332
      ],
      [
        "β_σJ",
        -13.586229695329237
      ],
      [
        "K_Hx",
        -13.586229752687835
      ],
      [
        "ρ_Lκ",
        -13.58622990622409
      ],
      [
        "V_ΩΧ",
        -13.58623383105133
      ],
      [
        "ν_Πο",
        -13.586234321734622
      ],
      [
        "T_SL",
        -13.586234703830385
      ],
      [
        "p_4ξ",
        -13.586235565389849
      ],
      [
        "δ_Vψ",
        -13.58623732066272
      ],
      [
        "ε_ΨΑ",
        -13.586238331475155
      ],
      [
        "Φ_Ρt",
        -13.586238692239943
      ],
      [
        "D_φu",
        -13.586239977296742
      ],
      [
        "a_σy",
        -13.586240837263846
      ],
      [
        "m_Hμ",
        -13.586241241832537
      ],
      [
        "O_ΒΓ",
        -13.586241255362165
      ],
      [
        "Θ_ΒT",
        -13.586241539185583
      ],
      [
        "μ_Βθ",
        -13.586242094988297
      ],
      [
        "N_ZΦ",
        -13.586242304112957
      ],
      [
        "ο_Σι",
        -13.586245968252578
      ],
      [
        "ν_1P",
        -13.58624650068614
      ],
      [
        "y_gΕ",
        -13.586246543200676
      ],
      [
        "H_LH",
        -13.586247774017963
      ],
      [
        "c_DX",
        -13.586248376047399
      ],
      [
        "ε_Sσ",
        -13.586248522820314
      ],
      [
        "δ_i6",
        -13.586248826435321
      ],
      [
        "L_Lε",
        -13.586251221971319
      ],
      [
        "Η_mF",
        -13.586253594951858
      ],
      [
        "η_ΡC",
        -13.586253845075902
      ],
      [
        "N_9β",
        -13.586256030844396
      ],
      [
        "E_Oο",
        -13.586256119061183
      ],
      [
        "Δ_D1",
        -13.586257931441061
      ],
      [
        "μ_Up",
        -13.586259483524431
      ],
      [
        "N_VΚ",
        -13.586262603586967
      ],
      [
        "Ε_5Ν",
        -13.586263209155547
      ],
      [
        "Λ_fΞ",
        -13.586264109167782
      ],
      [
        "ο_LΔ",
        -13.586267359863413
      ],
      [
        "Χ_yκ",
        -13.586267987130812
      ],
      [
        "Α_OB",
        -13.586268204599676
      ],
      [
        "H_X1",
        -13.58627007345855
      ],
      [
        "μ_χY",
        -13.58627191220215
      ],
      [
        "Β_χP",
        -13.5862748559535
      ],
      [
        "F_6Λ",
        -13.586275456196084
      ],
      [
        "Δ_MF",
        -13.586276050134543
      ],
      [
        "A_u8",
        -13.586277455095548
      ],
      [
        "Y_LΩ",
        -13.586277482476664
      ],
      [
        "ν_ΘK",
        -13.586277765706637
      ],
      [
        "c_ωs",
        -13.586279877654803
      ],
      [
        "Δ_δj",
        -13.586280899433115
      ],
      [
        "ε_vσ",
        -13.586280950603154
      ],
      [
        "N_ΘΧ",
        -13.586282487236925
      ],
      [
        "g_M3",
        -13.586282912585203
      ],
      [
        "a_Mκ",
        -13.58628367088323
      ],
      [
        "i_κ2",
        -13.586284163701487
      ],
      [
        "m_ΩΑ",
        -13.586285750544475
      ],
      [
        "m_2α",
        -13.586287170158311
      ],
      [
        "ξ_ΞR",
        -13.58628728878479
      ],
      [
        "V_δλ",
        -13.586287940737304
      ],
      [
        "ε_jΩ",
        -13.586290335551992
      ],
      [
        "l_ωΟ",
        -13.586290611191778
      ],
      [
        "y_Eg",
        -13.586292468677465
      ],
      [
        "Θ_βdj",
        -13.58629801771791
      ],
      [
        "Δ_Ξγ",
        -13.586300716964564
      ],
      [
        "Β_ΕΣ",
        -13.586301829524743
      ],
      [
        "Y_Pξ",
        -13.586301893530182
      ],
      [
        "Ξ_δΦ",
        -13.586303555202264
      ],
      [
        "η_8Ζ",
        -13.586305195564957
      ],
      [
        "K_Βψ",
        -13.586307697668975
      ],
      [
        "Δ_ΒΔ",
        -13.586315329709018
      ],
      [
        "ε_δΩ",
        -13.586315336170234
      ],
      [
        "sqrt(Ψ_",
        -13.586315749144564
      ],
      [
        "I_3ξ",
        -13.586320332130981
      ],
      [
        "χ_sv",
        -13.586323706189402
      ],
      [
        "X_3Ο",
        -13.586344361445116
      ],
      [
        "L_3Δ",
        -13.586346290000082
      ],
      [
        "L_Εu",
        -13.586355274804673
      ],
      [
        "S_unσ",
        -13.58636183825081
      ],
      [
        "Δ_a4",
        -13.586364450062092
      ],
      [
        "Χ_ME",
        -13.586365161929777
      ],
      [
        "Π_tag",
        -13.586370355475696
      ],
      [
        "β_U6",
        -13.586379343426696
      ],
      [
        "k_BE",
        -13.586391020169959
      ],
      [
        "W_uw",
        -13.586394193212845
      ],
      [
        "n_Vμ",
        -13.586395231945948
      ],
      [
        "V_Γq",
        -13.586402943598221
      ],
      [
        "N_43",
        -13.586418286116306
      ],
      [
        "(-8*",
        -13.586432087182626
      ],
      [
        "o_ΛΧ",
        -13.586443803924846
      ],
      [
        "W_pλ",
        -13.586451202030993
      ],
      [
        "Ξ_Ii",
        -13.586457207047008
      ],
      [
        "E_wP",
        -13.586467366534125
      ],
      [
        "η_Σ3",
        -13.586490164487056
      ],
      [
        "Β_s6",
        -13.586496673748062
      ],
      [
        "ξ_v2",
        -13.586496906088989
      ],
      [
        "B_K",
        -13.586501442539365
      ],
      [
        "N_λro",
        -13.586508818192119
      ],
      [
        "Θ_Vc",
        -13.586528012325887
      ],
      [
        "θ_Γ",
        -13.586529130703212
      ],
      [
        "ξ_wι",
        -13.586531440523748
      ],
      [
        "w_mJ",
        -13.58653597487249
      ],
      [
        "j_lΘ",
        -13.586540085266638
      ],
      [
        "H_Ικ",
        -13.586541453647813
      ],
      [
        "σ_86",
        -13.586555220913862
      ],
      [
        "Φ_Vq",
        -13.586557180163894
      ],
      [
        "p_λν",
        -13.586642686537912
      ],
      [
        "w_lK",
        -13.58664839816062
      ],
      [
        "φ_Γ",
        -13.586651397581836
      ],
      [
        "Z_ν",
        -13.586687344814473
      ],
      [
        "Z_Y",
        -13.586706592472341
      ],
      [
        "Λ_Ηq",
        -13.586726524465636
      ],
      [
        "m_fc",
        -13.586744735818591
      ],
      [
        "z_cρ",
        -13.586765680648533
      ],
      [
        "l_qλ",
        -13.586792139600291
      ],
      [
        "a_cJ",
        -13.586807414111732
      ],
      [
        "w_fJ",
        -13.586816727052762
      ],
      [
        "P_DB",
        -13.586892002271599
      ],
      [
        "p_Ση",
        -13.586923034861627
      ],
      [
        "b_lJ",
        -13.586961005241134
      ],
      [
        "W_ε",
        -13.586965186076869
      ],
      [
        "Ω_EΘ",
        -13.586980716359836
      ],
      [
        "j_oΠ",
        -13.58701856711126
      ],
      [
        "q_VE",
        -13.587067162819311
      ],
      [
        "Τ_η",
        -13.587230538703306
      ],
      [
        "ι_5",
        -13.5872396784762
      ],
      [
        "ω_W",
        -13.587257268401624
      ],
      [
        "ψ_H",
        -13.587262272633657
      ],
      [
        "n_yΑ",
        -13.58726672076886
      ],
      [
        "Sum(sqrt(Φ)",
        -13.587273263484194
      ],
      [
        "C_Y",
        -13.587300133632725
      ],
      [
        "p_3a",
        -13.587367482475894
      ],
      [
        "Τ_Η",
        -13.587437732016067
      ],
      [
        "Α_ι",
        -13.58744434088273
      ],
      [
        "h_Ν",
        -13.587482992489823
      ],
      [
        "ω_T",
        -13.587489841328544
      ],
      [
        "P_Li",
        -13.58751768420591
      ],
      [
        "w_On",
        -13.587589808624294
      ],
      [
        "χ_5n",
        -13.587598442708646
      ],
      [
        "Α_ξ",
        -13.587713705616402
      ],
      [
        "l_E4",
        -13.588012264413951
      ],
      [
        "σ_fi",
        -13.58837212309145
      ],
      [
        "I_Ωn",
        -13.588434703607232
      ],
      [
        "n_nΞ",
        -13.588570018669108
      ],
      [
        "l_6D",
        -13.588607117028914
      ],
      [
        "o_ωP",
        -13.588775633165234
      ],
      [
        "d_6Χ",
        -13.588870278930706
      ],
      [
        "r_ωΚ",
        -13.589109246578875
      ],
      [
        "r_rY",
        -13.58911037695817
      ],
      [
        "κ_dk",
        -13.589144934443526
      ],
      [
        "q_μo",
        -13.589188569228336
      ],
      [
        "α_oΦ",
        -13.589447348092685
      ],
      [
        "Π_Σi",
        -13.589462530117009
      ],
      [
        "p_Md",
        -13.589680049382038
      ],
      [
        "Y_νr",
        -13.589693370661712
      ],
      [
        "r_PΒ",
        -13.58975424163261
      ],
      [
        "n_Wi",
        -13.589872399102681
      ],
      [
        "Σ_E",
        -13.590135942673605
      ],
      [
        "i_d3",
        -13.590301427221206
      ],
      [
        "i_φΟ",
        -13.59047772262915
      ],
      [
        "v_oο",
        -13.590919733435912
      ],
      [
        "f_ο",
        -13.591043637991088
      ],
      [
        "o_2Π",
        -13.59121498252495
      ],
      [
        ")/(6*sqrt(",
        -13.591336240913183
      ],
      [
        "t_αr",
        -13.592184262729987
      ],
      [
        "M_ρo",
        -13.592237281314873
      ],
      [
        "o_3Ν",
        -13.592831066509781
      ],
      [
        "r_VΛ",
        -13.593204316005048
      ],
      [
        "z_ou",
        -13.594744754585118
      ],
      [
        "i_M8",
        -13.595419393345825
      ],
      [
        "Integral(sqrt(K)",
        -13.596478772337319
      ],
      [
        "i_Β8",
        -13.599501804504072
      ],
      [
        "Integral(sqrt(D)",
        -13.599703473165949
      ],
      [
        "**(sqrt(5)*sqrt(",
        -13.599933630782163
      ],
      [
        "log(k)/",
        -13.600327563718363
      ],
      [
        "Integral(log(Η)",
        -13.610962952092718
      ],
      [
        "U_Υ",
        -13.616290058479704
      ],
      [
        "R_N",
        -13.616433213591488
      ],
      [
        "V_W",
        -13.618081195829252
      ],
      [
        "Integral(log(P)",
        -13.619697680637307
      ],
      [
        "α_ο",
        -13.620673470901098
      ],
      [
        "Integral(sqrt(Z)",
        -13.622791825051937
      ],
      [
        "y_Ο",
        -13.62341172128392
      ],
      [
        "Integral(sqrt(ρ_",
        -13.628320689857324
      ],
      [
        "R_μ",
        -13.633417613421788
      ],
      [
        "R_Δ",
        -13.63574585130397
      ],
      [
        "q_F",
        -13.643453674738874
      ],
      [
        "V_ζ",
        -13.64532758171979
      ],
      [
        "α_ε",
        -13.646883687686817
      ],
      [
        "α_k",
        -13.648456102790504
      ],
      [
        "log(K**",
        -13.661070349208092
      ],
      [
        ")/log(σ)",
        -13.66803084855122
      ],
      [
        "_H)/",
        -13.675302875509374
      ],
      [
        "Q_D",
        -13.677587229819583
      ],
      [
        "/2**",
        -13.685347472905578
      ],
      [
        "log(Φ)/",
        -13.694449582886655
      ],
      [
        "Q_η",
        -13.718039890242691
      ],
      [
        "(-Φ)",
        -13.728881401669804
      ],
      [
        "**(8**",
        -13.730518964236841
      ],
      [
        "log(Ι_",
        -13.732297996859733
      ],
      [
        "j_q",
        -13.738550402313086
      ],
      [
        "log(Ζ_",
        -13.748092395220759
      ],
      [
        "_a)/",
        -13.750247822614401
      ],
      [
        "w_HR",
        -13.784212548013377
      ],
      [
        "sqrt(R_",
        -13.806725676926769
      ],
      [
        "-sqrt(7)*sqrt(",
        -13.832078495627549
      ],
      [
        "*η)*",
        -13.848685639247316
      ],
      [
        "J_ΟP",
        -13.913909394159838
      ],
      [
        "s_σNΩ",
        -13.919470401558906
      ],
      [
        "s_αΡM",
        -13.919470401567658
      ],
      [
        "s_CJΚ",
        -13.919470401567915
      ],
      [
        "s_οΤR",
        -13.91947040156964
      ],
      [
        "s_Νσk",
        -13.91947040157057
      ],
      [
        "s_vΦΗ",
        -13.919470401573216
      ],
      [
        "s_αax",
        -13.919470401574044
      ],
      [
        "s_Φψv",
        -13.919470401574074
      ],
      [
        "ψ_WIO",
        -13.919470401578002
      ],
      [
        ":",
        -13.919470401581668
      ],
      [
        "s_bsK",
        -13.919470401584228
      ],
      [
        "Ι_ΑWI",
        -13.919470401594172
      ],
      [
        "C_IGΜ",
        -13.91947040159518
      ],
      [
        "ζ_WOγ",
        -13.919470401596937
      ],
      [
        "θ_NΚQ",
        -13.919470401599765
      ],
      [
        "Ζ_ΤIθ",
        -13.919470401601039
      ],
      [
        "g_YNa",
        -13.919470401601691
      ],
      [
        "ζ_IZε",
        -13.91947040160437
      ],
      [
        "B_NΨΩ",
        -13.919470401604462
      ],
      [
        "ζ_ΖDO",
        -13.91947040160576
      ],
      [
        "s_ΥO8",
        -13.919470401607857
      ],
      [
        "Α_NρQ",
        -13.919470401608564
      ],
      [
        "Σ_IHΔ",
        -13.919470401608761
      ],
      [
        "C_ΝζN",
        -13.919470401612626
      ],
      [
        "B_QΡω",
        -13.919470401613662
      ],
      [
        "σ_FUN",
        -13.919470401618389
      ],
      [
        "C_hOΞ",
        -13.919470401621188
      ],
      [
        "B_ψQΒ",
        -13.919470401622798
      ],
      [
        "k_TΡI",
        -13.919470401622839
      ],
      [
        "Α_ΥOχ",
        -13.919470401625247
      ],
      [
        "k_Ngη",
        -13.919470401625885
      ],
      [
        "Σ_NΞΠ",
        -13.919470401626926
      ],
      [
        "τ_οωN",
        -13.919470401627109
      ],
      [
        "W_ιμΙ",
        -13.919470401627487
      ],
      [
        "θ_μO8",
        -13.919470401627686
      ],
      [
        "Τ_αNδ",
        -13.91947040162804
      ],
      [
        "Σ_IΟZ",
        -13.919470401628262
      ],
      [
        "Ο_ΥRj",
        -13.919470401628976
      ],
      [
        "θ_θΞΡ",
        -13.919470401630006
      ],
      [
        "τ_JNy",
        -13.919470401630285
      ],
      [
        "Σ_NGV",
        -13.919470401630443
      ],
      [
        "Ι_ΠΕD",
        -13.919470401630742
      ],
      [
        "Θ_FsO",
        -13.919470401631392
      ],
      [
        "Z_IDk",
        -13.919470401631811
      ],
      [
        "Α_GΕβ",
        -13.919470401632417
      ],
      [
        "W_κμΓ",
        -13.919470401632566
      ],
      [
        "Α_NYB",
        -13.919470401632603
      ],
      [
        "Ο_μXK",
        -13.919470401632658
      ],
      [
        "ι_ζKν",
        -13.919470401632697
      ],
      [
        "δ_ΓΧQ",
        -13.9194704016331
      ],
      [
        "Ν_ZΞΨ",
        -13.91947040163608
      ],
      [
        "B_Rλh",
        -13.919470401636692
      ],
      [
        "h_βΤL",
        -13.919470401636984
      ],
      [
        "C_QTΧ",
        -13.91947040163716
      ],
      [
        "B_αxN",
        -13.919470401637184
      ],
      [
        "J_ηzκ",
        -13.919470401637357
      ],
      [
        "Θ_ζρI",
        -13.919470401637678
      ],
      [
        "τ_CQΣ",
        -13.919470401637788
      ],
      [
        "U_ΤBP",
        -13.919470401637838
      ],
      [
        "Ζ_ΟΡh",
        -13.919470401638046
      ],
      [
        "ψ_εhΥ",
        -13.919470401638153
      ],
      [
        "ι_ΓΦS",
        -13.919470401638197
      ],
      [
        "τ_ξUh",
        -13.919470401638543
      ],
      [
        "ψ_UUι",
        -13.919470401638568
      ],
      [
        "φ_ΤΣΝ",
        -13.91947040163862
      ],
      [
        "P_FξΠ",
        -13.919470401638941
      ],
      [
        "B_νθQ",
        -13.919470401639272
      ],
      [
        "k_αMM",
        -13.919470401639638
      ],
      [
        "Ο_GzΩ",
        -13.91947040163986
      ],
      [
        "A_ΚLO",
        -13.91947040163993
      ],
      [
        "Ι_Y9O",
        -13.9194704016408
      ],
      [
        "f_κjΖ",
        -13.919470401640947
      ],
      [
        "Z_WYS",
        -13.91947040164096
      ],
      [
        "Z_DMσ",
        -13.919470401641156
      ],
      [
        "C_ζbN",
        -13.919470401641226
      ],
      [
        "Ι_ΧRΔ",
        -13.919470401642917
      ],
      [
        "φ_ιHF",
        -13.9194704016433
      ],
      [
        "C_οWα",
        -13.91947040164336
      ],
      [
        "B_τDa",
        -13.91947040164366
      ],
      [
        "Ν_Qηy",
        -13.919470401643704
      ],
      [
        "A_ΙιS",
        -13.919470401644482
      ],
      [
        "τ_Jολ",
        -13.919470401644984
      ],
      [
        "Τ_κtC",
        -13.91947040164522
      ],
      [
        "θ_NΟb",
        -13.919470401645272
      ],
      [
        "φ_ZUΦ",
        -13.919470401645722
      ],
      [
        "A_εCQ",
        -13.91947040164577
      ],
      [
        "τ_Πβσ",
        -13.919470401645803
      ],
      [
        "k_θζσ",
        -13.919470401646032
      ],
      [
        "ι_Ηvh",
        -13.919470401647004
      ],
      [
        "σ_ζΥξ",
        -13.919470401647086
      ],
      [
        "τ_ZΞΣ",
        -13.919470401647114
      ],
      [
        "Ο_YKΔ",
        -13.919470401647565
      ],
      [
        "U_ΨxΤ",
        -13.919470401647622
      ],
      [
        "h_JΚk",
        -13.919470401647756
      ],
      [
        "ψ_ΑTΞ",
        -13.919470401647885
      ],
      [
        "Γ_αΝM",
        -13.919470401648121
      ],
      [
        "φ_aTY",
        -13.91947040164859
      ],
      [
        "σ_7Oτ",
        -13.919470401649367
      ],
      [
        "δ_ρQh",
        -13.919470401649503
      ],
      [
        "θ_ψΔζ",
        -13.919470401649587
      ],
      [
        "Σ_tΕM",
        -13.919470401649662
      ],
      [
        "U_ΧεY",
        -13.919470401649994
      ],
      [
        "ι_ΙΔk",
        -13.919470401650026
      ],
      [
        "Z_ΚΦο",
        -13.919470401650273
      ],
      [
        "A_7yN",
        -13.91947040165046
      ],
      [
        "Ν_αyι",
        -13.919470401650607
      ],
      [
        "Ι_γθμ",
        -13.919470401650676
      ],
      [
        "σ_FSη",
        -13.9194704016507
      ],
      [
        "Z_hUΛ",
        -13.919470401650974
      ],
      [
        "Θ_WxΜ",
        -13.919470401651388
      ],
      [
        "Ι_KKH",
        -13.91947040165172
      ],
      [
        "ι_Υξη",
        -13.919470401651731
      ],
      [
        "Ζ_ζΨL",
        -13.91947040165178
      ],
      [
        "Α_YN8",
        -13.919470401652106
      ],
      [
        "k_QUν",
        -13.919470401652394
      ],
      [
        "Θ_TλΣ",
        -13.919470401652648
      ],
      [
        "T_ΠΒΔ",
        -13.919470401652912
      ],
      [
        "δ_ρaΚ",
        -13.919470401652944
      ],
      [
        "Θ_DθΦ",
        -13.919470401654838
      ],
      [
        "P_kΚz",
        -13.919470401654957
      ],
      [
        "Z_HΓΒ",
        -13.91947040165518
      ],
      [
        "ψ_Nλ9",
        -13.919470401655241
      ],
      [
        "ζ_Jhj",
        -13.919470401655701
      ],
      [
        "ζ_ΧtΕ",
        -13.919470401655973
      ],
      [
        "ι_ΗΘΟ",
        -13.919470401656145
      ],
      [
        "θ_ΥXι",
        -13.91947040165656
      ],
      [
        "Τ_θΠΤ",
        -13.919470401656701
      ],
      [
        "τ_θ6S",
        -13.919470401656842
      ],
      [
        "Θ_KhA",
        -13.919470401656849
      ],
      [
        "P_σUΒ",
        -13.919470401656923
      ],
      [
        "ω_HTΧ",
        -13.919470401657081
      ],
      [
        "φ_GN7",
        -13.91947040165725
      ],
      [
        "ω_ΧFQ",
        -13.919470401657502
      ],
      [
        "τ_αωa",
        -13.919470401657515
      ],
      [
        "k_ΨΚa",
        -13.91947040165755
      ],
      [
        "Ν_ΥΠΣ",
        -13.91947040165786
      ],
      [
        "Ι_ξεB",
        -13.919470401658138
      ],
      [
        "Ι_ΤδΠ",
        -13.919470401658783
      ],
      [
        "k_ιFz",
        -13.919470401658991
      ],
      [
        "B_bKφ",
        -13.919470401659666
      ],
      [
        "A_vGτ",
        -13.919470401659751
      ],
      [
        "T_ιΝC",
        -13.919470401660185
      ],
      [
        "φ_ιjδ",
        -13.919470401660384
      ],
      [
        "τ_tβΞ",
        -13.919470401661039
      ],
      [
        "C_γGz",
        -13.919470401661066
      ],
      [
        "θ_Χjφ",
        -13.919470401661144
      ],
      [
        "τ_εjΩ",
        -13.919470401661341
      ],
      [
        "σ_CTY",
        -13.919470401662004
      ],
      [
        "θ_ρασ",
        -13.919470401662158
      ],
      [
        "ι_γηΓ",
        -13.919470401662359
      ],
      [
        "s_Οs2",
        -13.919470401662553
      ],
      [
        "B_γzβ",
        -13.919470401662776
      ],
      [
        "C_aΝΣ",
        -13.919470401663714
      ],
      [
        "J_FΔψ",
        -13.919470401663872
      ],
      [
        "g_FΝa",
        -13.919470401663979
      ],
      [
        "ι_ΗΥX",
        -13.919470401664261
      ],
      [
        "f_Wχj",
        -13.919470401664448
      ],
      [
        "Τ_ΙPK",
        -13.919470401664935
      ],
      [
        "Ι_aλΦ",
        -13.919470401665336
      ],
      [
        "f_XαF",
        -13.919470401665809
      ],
      [
        "g_XΥΖ",
        -13.919470401666214
      ],
      [
        "τ_NΗ8",
        -13.919470401666361
      ],
      [
        "τ_ΖΥZ",
        -13.91947040166664
      ],
      [
        "k_κΝM",
        -13.919470401666985
      ],
      [
        "B_Ψjζ",
        -13.919470401667017
      ],
      [
        "Ν_aKx",
        -13.919470401667036
      ],
      [
        "Σ_νuΦ",
        -13.919470401667095
      ],
      [
        "Ν_Yhm",
        -13.919470401667201
      ],
      [
        "Θ_Γhν",
        -13.91947040166787
      ],
      [
        "Ν_ιtW",
        -13.919470401668097
      ],
      [
        "ζ_YΓσ",
        -13.919470401668509
      ],
      [
        "Τ_γρζ",
        -13.91947040166909
      ],
      [
        "φ_hsλ",
        -13.919470401669106
      ],
      [
        "B_Ιξζ",
        -13.919470401669201
      ],
      [
        "U_ΚsH",
        -13.919470401669486
      ],
      [
        "Ι_ΦχT",
        -13.919470401669646
      ],
      [
        "P_ξΖΡ",
        -13.919470401669837
      ],
      [
        "Γ_zσP",
        -13.919470401670461
      ],
      [
        "φ_ψβξ",
        -13.91947040167053
      ],
      [
        "Ν_ΙΗa",
        -13.919470401671363
      ],
      [
        "g_YXβ",
        -13.919470401672312
      ],
      [
        "B_UΣφ",
        -13.919470401672456
      ],
      [
        "B_UυY",
        -13.91947040167246
      ],
      [
        "B_ΝHΔ",
        -13.91947040167289
      ],
      [
        "φ_JJΣ",
        -13.919470401672895
      ],
      [
        "ζ_Yιg",
        -13.919470401672978
      ],
      [
        "g_ΟΡα",
        -13.919470401673928
      ],
      [
        "T_aΝP",
        -13.919470401674028
      ],
      [
        "g_XgΓ",
        -13.919470401674074
      ],
      [
        "ψ_γφΙ",
        -13.919470401674374
      ],
      [
        "Ν_J6j",
        -13.919470401674733
      ],
      [
        "Τ_αUC",
        -13.919470401675326
      ],
      [
        "Ν_τN3",
        -13.919470401675525
      ],
      [
        "B_ΤΕψ",
        -13.919470401676168
      ],
      [
        "Σ_Υοφ",
        -13.919470401676449
      ],
      [
        "τ_ΝΗΖ",
        -13.919470401676517
      ],
      [
        "Σ_kμβ",
        -13.919470401676744
      ],
      [
        "A_ΝΞM",
        -13.919470401676955
      ],
      [
        "k_ΥDJ",
        -13.919470401677076
      ],
      [
        "ψ_ΚBΠ",
        -13.9194704016771
      ],
      [
        "g_7GM",
        -13.919470401677172
      ],
      [
        "A_RWλ",
        -13.919470401677968
      ],
      [
        "g_XkΔ",
        -13.9194704016787
      ],
      [
        "C_σLε",
        -13.919470401679032
      ],
      [
        "J_ιλx",
        -13.919470401679096
      ],
      [
        "Τ_TΣA",
        -13.919470401679279
      ],
      [
        "Τ_εhv",
        -13.919470401679309
      ],
      [
        "ψ_Ψxψ",
        -13.919470401679343
      ],
      [
        "T_bVJ",
        -13.919470401679423
      ],
      [
        "Α_θPφ",
        -13.919470401679634
      ],
      [
        "T_hBk",
        -13.919470401679716
      ],
      [
        "Z_ΤΝσ",
        -13.919470401679733
      ],
      [
        "P_ΧTT",
        -13.91947040168128
      ],
      [
        "Ν_εΛΘ",
        -13.91947040168131
      ],
      [
        "θ_ΙAο",
        -13.91947040168142
      ],
      [
        "B_ΝyΤ",
        -13.919470401681819
      ],
      [
        "Τ_οfK",
        -13.9194704016819
      ],
      [
        "k_KψΤ",
        -13.919470401682652
      ],
      [
        "τ_1Tμ",
        -13.919470401682677
      ],
      [
        "τ_ξkk",
        -13.919470401682862
      ],
      [
        "ω_YMZ",
        -13.919470401683007
      ],
      [
        "Γ_γΦη",
        -13.91947040168321
      ],
      [
        "Α_γVΤ",
        -13.919470401683629
      ],
      [
        "Θ_εhΝ",
        -13.919470401683856
      ],
      [
        "B_Ψτg",
        -13.919470401683958
      ],
      [
        "P_ξvT",
        -13.919470401684412
      ],
      [
        "P_kΞG",
        -13.919470401684677
      ],
      [
        "f_κΕu",
        -13.919470401684695
      ],
      [
        "Ι_σαm",
        -13.91947040168476
      ],
      [
        "A_μΝV",
        -13.919470401684965
      ],
      [
        "k_Gην",
        -13.91947040168518
      ],
      [
        "ψ_ΤνΕ",
        -13.919470401685345
      ],
      [
        "Ι_vΗF",
        -13.919470401685544
      ],
      [
        "g_ΖT8",
        -13.919470401685713
      ],
      [
        "T_Υhy",
        -13.919470401686226
      ],
      [
        "k_Ι1β",
        -13.919470401686233
      ],
      [
        "Γ_ΓΩι",
        -13.919470401686757
      ],
      [
        "Z_GσΛ",
        -13.91947040168686
      ],
      [
        "P_tμΕ",
        -13.91947040168732
      ],
      [
        "τ_ψψg",
        -13.919470401688217
      ],
      [
        "Σ_ηHP",
        -13.919470401688837
      ],
      [
        "ι_μsξ",
        -13.919470401688883
      ],
      [
        "Z_κΧF",
        -13.919470401689075
      ],
      [
        "Z_DΦΙ",
        -13.919470401689178
      ],
      [
        "g_HαL",
        -13.919470401689727
      ],
      [
        "J_ΗΓχ",
        -13.919470401690042
      ],
      [
        "φ_ΝΕ5",
        -13.919470401690123
      ],
      [
        "Σ_ηΗΚ",
        -13.919470401690143
      ],
      [
        "Α_CAP",
        -13.919470401690312
      ],
      [
        "Τ_Ν4ε",
        -13.919470401691276
      ],
      [
        "τ_zYR",
        -13.919470401691497
      ],
      [
        "A_Υαη",
        -13.919470401691722
      ],
      [
        "h_τΚΛ",
        -13.919470401691736
      ],
      [
        "Ζ_κΛΖ",
        -13.919470401691775
      ],
      [
        "A_RBz",
        -13.919470401692083
      ],
      [
        "ψ_Δζρ",
        -13.919470401692282
      ],
      [
        "h_ψνh",
        -13.919470401692342
      ],
      [
        "τ_YLΟ",
        -13.919470401692553
      ],
      [
        "Ζ_σaT",
        -13.919470401692614
      ],
      [
        "A_Kγ5",
        -13.919470401692845
      ],
      [
        "Σ_γGy",
        -13.919470401693074
      ],
      [
        "f_ιUy",
        -13.919470401693843
      ],
      [
        "Σ_Rtυ",
        -13.919470401694554
      ],
      [
        "ψ_κxD",
        -13.91947040169464
      ],
      [
        "f_HσΕ",
        -13.91947040169468
      ],
      [
        "Θ_UΝY",
        -13.919470401695559
      ],
      [
        "Σ_XκΒ",
        -13.919470401696417
      ],
      [
        "Ν_Yεt",
        -13.919470401696808
      ],
      [
        "h_γΨy",
        -13.919470401697097
      ],
      [
        "Α_ρφA",
        -13.919470401697232
      ],
      [
        "W_9ΞP",
        -13.919470401698366
      ],
      [
        "k_Xδν",
        -13.919470401698934
      ],
      [
        "k_kuU",
        -13.91947040169918
      ],
      [
        "Σ_kοs",
        -13.919470401700003
      ],
      [
        "Θ_Tzω",
        -13.919470401700297
      ],
      [
        "ψ_FνF",
        -13.919470401700906
      ],
      [
        "φ_TI2",
        -13.919470401701115
      ],
      [
        "Σ_ΔΚΨ",
        -13.919470401701224
      ],
      [
        "ω_αΓγ",
        -13.919470401702416
      ],
      [
        "k_ιαΖ",
[...]
