{
  "version": "1.0",
  "truncation": null,
  "padding": null,
  "added_tokens": [
    {
      "id": 0,
      "content": "[PAD]",
      "single_word": false,
      "lstrip": false,
      "rstrip": false,
      "normalized": false,
      "special": true
    },
    {
      "id": 1,
      "content": "[BOS]",
      "single_word": false,
      "lstrip": false,
      "rstrip": false,
      "normalized": false,
      "special": true
    },
    {
      "id": 2,
      "content": "[EOS]",
      "single_word": false,
      "lstrip": false,
      "rstrip": false,
      "normalized": false,
      "special": true
    },
    {
      "id": 3,
      "content": "[UNK]",
      "single_word": false,
      "lstrip": false,
      "rstrip": false,
      "normalized": false,
      "special": true
    },
    {
      "id": 4,
      "content": "<mml:mo>",
      "single_word": false,
      "lstrip": false,
      "rstrip": false,
      "normalized": false,
      "special": true
    },
    {
      "id": 5,
      "content": "</mml:mo>",
      "single_word": false,
      "lstrip": false,
      "rstrip": false,
      "normalized": false,
      "special": true
    },
    {
      "id": 6,
      "content": "<mml:mi>",
      "single_word": false,
      "lstrip": false,
      "rstrip": false,
      "normalized": false,
      "special": true
    },
    {
      "id": 7,
      "content": "</mml:mi>",
      "single_word": false,
      "lstrip": false,
      "rstrip": false,
      "normalized": false,
      "special": true
    },
    {
      "id": 8,
      "content": "<mml:msub>",
      "single_word": false,
      "lstrip": false,
      "rstrip": false,
      "normalized": false,
      "special": true
    },
    {
      "id": 9,
      "content": "</mml:msub>",
      "single_word": false,
      "lstrip": false,
      "rstrip": false,
      "normalized": false,
      "special": true
    },
    {
      "id": 10,
      "content": "<mml:msup>",
      "single_word": false,
      "lstrip": false,
      "rstrip": false,
      "normalized": false,
      "special": true
    },
    {
      "id": 11,
      "content": "</mml:msup>",
      "single_word": false,
      "lstrip": false,
      "rstrip": false,
      "normalized": false,
      "special": true
    },
    {
      "id": 12,
      "content": "<mml:mrow>",
      "single_word": false,
      "lstrip": false,
      "rstrip": false,
      "normalized": false,
      "special": true
    },
    {
      "id": 13,
      "content": "</mml:mrow>",
      "single_word": false,
      "lstrip": false,
      "rstrip": false,
      "normalized": false,
      "special": true
    },
    {
      "id": 14,
      "content": "<mml:mfrac>",
      "single_word": false,
      "lstrip": false,
      "rstrip": false,
      "normalized": false,
      "special": true
    },
    {
      "id": 15,
      "content": "</mml:mfrac><mml:mtext>",
      "single_word": false,
      "lstrip": false,
      "rstrip": false,
      "normalized": false,
      "special": true
    },
    {
      "id": 16,
      "content": "</mml:mtext>",
      "single_word": false,
      "lstrip": false,
      "rstrip": false,
      "normalized": false,
      "special": true
    }
  ],
  "normalizer": {
    "type": "Sequence",
    "normalizers": [
      {
        "type": "NFKC"
      }
    ]
  },
  "pre_tokenizer": {
    "type": "Split",
    "pattern": {
      "Regex": "<[^>]+>|\"\"\"[^\"]*\"\"\"|'''[^']*'''|\"[^\"]*\"|'[^']*'|\\bdef\\b|\\bclass\\b|\\bfor\\b|\\bwhile\\b|\\bif\\b|\\belif\\b|\\belse\\b|\\breturn\\b|\\bimport\\b|\\bfrom\\b|\\bas\\b|\\bwith\\b|\\btry\\b|\\bexcept\\b|==|!=|<=|>=|\\+=|-=|\\*=|/=|=>|->|\\bSymbol\\b|\\bEq\\b|\\bexp\\b|\\bsin\\b|\\bcos\\b|\\btan\\b|\\bdiff\\b|^\\s+|\\s+"
    },
    "behavior": "Isolated",
    "invert": false
  },
  "post_processor": null,
  "decoder": {
    "type": "ByteLevel",
    "add_prefix_space": true,
    "trim_offsets": true,
    "use_regex": true
  },
  "model": {
    "type": "BPE",
    "dropout": null,
    "unk_token": "[UNK]",
    "continuing_subword_prefix": null,
    "end_of_word_suffix": null,
    "fuse_unk": false,
    "byte_fallback": false,
    "ignore_merges": false,
    "vocab": {
      "[PAD]": 0,
      "[BOS]": 1,
      "[EOS]": 2,
      "[UNK]": 3,
      "<mml:mo>": 4,
      "</mml:mo>": 5,
      "<mml:mi>": 6,
      "</mml:mi>": 7,
      "<mml:msub>": 8,
      "</mml:msub>": 9,
      "<mml:msup>": 10,
      "</mml:msup>": 11,
      "<mml:mrow>": 12,
      "</mml:mrow>": 13,
      "<mml:mfrac>": 14,
      "</mml:mfrac><mml:mtext>": 15,
      "</mml:mtext>": 16,
      "\n": 17,
      " ": 18,
      "'": 19,
      "(": 20,
      ")": 21,
      "*": 22,
      "+": 23,
      ",": 24,
      "-": 25,
      "/": 26,
      "0": 27,
      "1": 28,
      "2": 29,
      "3": 30,
      "4": 31,
      "5": 32,
      "6": 33,
      "7": 34,
      "8": 35,
      "9": 36,
      ":": 37,
      "<": 38,
      "=": 39,
      ">": 40,
      "A": 41,
      "B": 42,
      "C": 43,
      "D": 44,
      "E": 45,
      "F": 46,
      "G": 47,
      "H": 48,
      "I": 49,
      "J": 50,
      "K": 51,
      "L": 52,
      "M": 53,
      "N": 54,
      "O": 55,
      "P": 56,
      "Q": 57,
      "R": 58,
      "S": 59,
      "T": 60,
      "U": 61,
      "V": 62,
      "W": 63,
      "X": 64,
      "Y": 65,
      "Z": 66,
      "_": 67,
      "a": 68,
      "b": 69,
      "c": 70,
      "d": 71,
      "e": 72,
      "f": 73,
      "g": 74,
      "h": 75,
      "i": 76,
      "j": 77,
      "k": 78,
      "l": 79,
      "m": 80,
      "n": 81,
      "o": 82,
      "p": 83,
      "q": 84,
      "r": 85,
      "s": 86,
      "t": 87,
      "u": 88,
      "v": 89,
      "w": 90,
      "x": 91,
      "y": 92,
      "z": 93,
      "Α": 94,
      "Β": 95,
      "Γ": 96,
      "Δ": 97,
      "Ε": 98,
      "Ζ": 99,
      "Η": 100,
      "Θ": 101,
      "Ι": 102,
      "Κ": 103,
      "Λ": 104,
      "Μ": 105,
      "Ν": 106,
      "Ξ": 107,
      "Ο": 108,
      "Π": 109,
      "Ρ": 110,
      "Σ": 111,
      "Τ": 112,
      "Υ": 113,
      "Φ": 114,
      "Χ": 115,
      "Ψ": 116,
      "Ω": 117,
      "α": 118,
      "β": 119,
      "γ": 120,
      "δ": 121,
      "ε": 122,
      "ζ": 123,
      "η": 124,
      "θ": 125,
      "ι": 126,
      "κ": 127,
      "λ": 128,
      "μ": 129,
      "ν": 130,
      "ξ": 131,
      "ο": 132,
      "ρ": 133,
      "σ": 134,
      "τ": 135,
      "υ": 136,
      "φ": 137,
      "χ": 138,
      "ψ": 139,
      "ω": 140,
      "∂": 141,
      "∑": 142,
      "∫": 143,
      "ml": 144,
      ":m": 145,
      "mml": 146,
      "mml:m": 147,
      "/mml:m": 148,
      "<mml:m": 149,
      "</mml:m": 150,
      "i>": 151,
      "ro": 152,
      "w>": 153,
      "row>": 154,
      "o>": 155,
      "su": 156,
      "ym": 157,
      "ol": 158,
      "Sym": 159,
      "bol": 160,
      "Symbol": 161,
      "nc": 162,
      "d>": 163,
      "enc": 164,
      "ed>": 165,
      "fenc": 166,
      "fenced>": 167,
      "sub": 168,
      "sub>": 169,
      "n>": 170,
      "<mml:mfenced>": 171,
      "</mml:mfenced>": 172,
      "p>": 173,
      "sup>": 174,
      "ra": 175,
      "ex": 176,
      "t>": 177,
      "))": 178,
      "c>": 179,
      "fra": 180,
      "frac>": 181,
      "Eq": 182,
      "<mml:mn>": 183,
      "</mml:mn>": 184,
      "sq": 185,
      "sqr": 186,
      "in": 187,
      "sin": 188,
      "ta": 189,
      "tex": 190,
      "text>": 191,
      "tan": 192,
      "co": 193,
      "cos": 194,
      "exp": 195,
      "og": 196,
      "log": 197,
      "sqrt>": 198,
      "er": 199,
      "</mml:mfrac>": 200,
      "),": 201,
      ")*": 202,
      "nd": 203,
      "ero": 204,
      "und": 205,
      "ver": 206,
      "erover": 207,
      "underover": 208,
      "underover>": 209,
      "iv": 210,
      "<mml:mtext>": 211,
      "log(": 212,
      ")))": 213,
      "t(": 214,
      "<mml:msqrt>": 215,
      "</mml:msqrt>": 216,
      "sqrt(": 217,
      ")/": 218,
      ")**": 219,
      "at": 220,
      "Su": 221,
      "m(": 222,
      "<mml:munderover>": 223,
      "</mml:munderover>": 224,
      "Sum(": 225,
      "Der": 226,
      "e(": 227,
      "ivat": 228,
      "ive(": 229,
      "Derivat": 230,
      "Derivative(": 231,
      "l(": 232,
      "subsup>": 233,
      "nt": 234,
      "Int": 235,
      "eg": 236,
      "ral(": 237,
      "Integ": 238,
      "Integral(": 239,
      "**": 240,
      "<mml:msubsup>": 241,
      "</mml:msubsup>": 242,
      "_Β": 243,
      "Q_": 244,
      "Z_": 245,
      "F_": 246,
      "h_": 247,
      "3,": 248,
      "ξ_": 249,
      "Π_": 250,
      "5,": 251,
      "6,": 252,
      "n_": 253,
      "μ_": 254,
      "4,": 255,
      "Θ_": 256,
      "T_": 257,
      "1,": 258,
      "f_": 259,
      "7,": 260,
      "Η_": 261,
      "2,": 262,
      "B_": 263,
      "X_": 264,
      "Υ_": 265,
      "τ_": 266,
      "ν_": 267,
      "γ_": 268,
      "9,": 269,
      "η_": 270,
      "G_": 271,
      "a_": 272,
      "Κ_": 273,
      "υ_": 274,
      "Ο_": 275,
      "J_": 276,
      "y_": 277,
      "W_": 278,
      "Δ_": 279,
      "l_": 280,
      "f'": 281,
      "A_": 282,
      "ε_": 283,
      "C_": 284,
      "q_": 285,
      "Ι_": 286,
      "Ρ_": 287,
      "I_": 288,
      "ο_": 289,
      "g_": 290,
      "8,": 291,
      "R_": 292,
      "κ_": 293,
      "L_": 294,
      "χ_": 295,
      "Λ_": 296,
      "Γ_": 297,
      "ω_": 298,
      "ψ_": 299,
      "r_": 300,
      "Σ_": 301,
      ")**(": 302,
      "'P": 303,
      "E_": 304,
      "U_": 305,
      "Χ_": 306,
      "α_": 307,
      "A'": 308,
      "Φ_": 309,
      "'Ξ": 310,
      "k'": 311,
      "Λ'": 312,
      "Ν_": 313,
      "K_": 314,
      "k_": 315,
      "s'": 316,
      "t_": 317,
      "ρ_": 318,
      "σ_": 319,
      "y'": 320,
      "i_": 321,
      "Α_": 322,
      "w_": 323,
      "x'": 324,
      "l'": 325,
      "'m": 326,
      "F'": 327,
      "λ'": 328,
      "c_": 329,
      "p_": 330,
      "ρ'": 331,
      "'φ": 332,
      "N_": 333,
      "s_": 334,
      "c'": 335,
      "Π'": 336,
      "z_": 337,
      "g'": 338,
      "'ζ": 339,
      "D_": 340,
      "R'": 341,
      "b_": 342,
      "γ'": 343,
      "σ'": 344,
      "'Ε": 345,
      "W'": 346,
      "Y_": 347,
      "n'": 348,
      "υ'": 349,
      "**(": 350,
      "t'": 351,
      "Ψ_": 352,
      "θ_": 353,
      "ψ'": 354,
      "Ι'": 355,
      "α'": 356,
      "G'": 357,
      "U'": 358,
      "Τ'": 359,
      "Ω_": 360,
      "Z'": 361,
      "'H": 362,
      "h'": 363,
      "i'": 364,
      "x_": 365,
      "Θ'": 366,
      "Ψ'": 367,
      "β'": 368,
      "ν'": 369,
      "d_": 370,
      "Μ_": 371,
      "Χ'": 372,
      "Y'": 373,
      "a'": 374,
      "θ'": 375,
      "r'": 376,
      "Κ'": 377,
      "X'": 378,
      "Φ'": 379,
      "'o": 380,
      "Α'": 381,
      "ω'": 382,
      "K'": 383,
      "O_": 384,
      "S_": 385,
      "β_": 386,
      "δ_": 387,
      "ξ'": 388,
      "d'": 389,
      "u'": 390,
      "w'": 391,
      "C'": 392,
      "δ'": 393,
      "M'": 394,
      "ο'": 395,
      "V'": 396,
      "v_": 397,
      "λ_": 398,
      "'ι": 399,
      "Ζ'": 400,
      "Ρ'": 401,
      "B'": 402,
      "κ'": 403,
      "τ'": 404,
      "j'": 405,
      "Ζ_": 406,
      "η'": 407,
      "J'": 408,
      "ε'": 409,
      ")/2": 410,
      "Μ'": 411,
      "Σ'": 412,
      "χ'": 413,
      "L'": 414,
      "Η'": 415,
      "T'": 416,
      "p'": 417,
      "D'": 418,
      "q'": 419,
      "'Β": 420,
      "M_": 421,
      "j_": 422,
      "Γ'": 423,
      "Δ'": 424,
      "Ο'": 425,
      "z'": 426,
      "Τ_": 427,
      "Ν'": 428,
      "Sum(sqrt(": 429,
      "Ω'": 430,
      "μ'": 431,
      "V_": 432,
      "b'": 433,
      "v'": 434,
      "Υ'": 435,
      "u_": 436,
      "Derivative(sqrt(": 437,
      ")*log(": 438,
      "'f'": 439,
      "Integral(sqrt(": 440,
      "(-": 441,
      "'g'": 442,
      "'P'": 443,
      "'Λ'": 444,
      "'Ξ'": 445,
      "'A'": 446,
      "'s'": 447,
      "P_": 448,
      "'F'": 449,
      "'m'": 450,
      "'k'": 451,
      "'R'": 452,
      "'n'": 453,
      "Ξ_": 454,
      "'ζ'": 455,
      "'φ'": 456,
      "'x'": 457,
      "(H": 458,
      "Derivative(-": 459,
      "'γ'": 460,
      "'ν'": 461,
      "'ω'": 462,
      "'H'": 463,
      "'Z'": 464,
      "'λ'": 465,
      "'Χ'": 466,
      "Sum(-": 467,
      "Sum(log(": 468,
      "'Ε'": 469,
      "'τ'": 470,
      "Integral(-": 471,
      "'y'": 472,
      "'c'": 473,
      "'t'": 474,
      "'α'": 475,
      "Ε_": 476,
      "'ρ'": 477,
      "'Τ'": 478,
      "'Π'": 479,
      "'Y'": 480,
      "'C'": 481,
      "(φ": 482,
      "'Ι'": 483,
      "'i'": 484,
      "(m": 485,
      "'ι'": 486,
      "'σ'": 487,
      "'G'": 488,
      "'w'": 489,
      "'l'": 490,
      "'h'": 491,
      "'Ψ'": 492,
      "'Κ'": 493,
      ")),": 494,
      ")/log(": 495,
      "'a'": 496,
      "(Β": 497,
      "'T'": 498,
      "'Θ'": 499,
      "'β'": 500,
      "'Α'": 501,
      "'L'": 502,
      "(o": 503,
      "'o'": 504,
      "'ψ'": 505,
      "'θ'": 506,
      "'Φ'": 507,
      "'J'": 508,
      "'ε'": 509,
      "'υ'": 510,
      "'ξ'": 511,
      "'δ'": 512,
      "'W'": 513,
      "'q'": 514,
      "'B'": 515,
      "'κ'": 516,
      "'Ρ'": 517,
      "(ι": 518,
      "ζ_": 519,
      "'X'": 520,
      "'u'": 521,
      "'ο'": 522,
      "'Μ'": 523,
      "'Σ'": 524,
      "'Η'": 525,
      ")/sqrt(": 526,
      "'Γ'": 527,
      "'U'": 528,
      "'r'": 529,
      "'η'": 530,
      "'Ο'": 531,
      "'Β'": 532,
      "'χ'": 533,
      "'d'": 534,
      "'K'": 535,
      "Derivative(log(": 536,
      "'M'": 537,
      "'Ω'": 538,
      "Integral(log(": 539,
      "'Ζ'": 540,
      "'V'": 541,
      "'j'": 542,
      "'D'": 543,
      "'v'": 544,
      "'Ν'": 545,
      "'μ'": 546,
      "'b'": 547,
      "'Δ'": 548,
      "'z'": 549,
      "'Υ'": 550,
      "'p'": 551,
      "Q'": 552,
      ")**(sqrt(": 553,
      "O'": 554,
      "I'": 555,
      ")**log(": 556,
      "(R": 557,
      "(g": 558,
      "E'": 559,
      "(A": 560,
      "N'": 561,
      "S'": 562,
      "(n": 563,
      "(f": 564,
      ")*sqrt(": 565,
      "(F": 566,
      "(i": 567,
      "(C": 568,
      "(t": 569,
      "(P": 570,
      "(q": 571,
      "(Λ": 572,
      "(J": 573,
      "m_": 574,
      "(s": 575,
      "(Z": 576,
      "(a": 577,
      "(Ξ": 578,
      "(L": 579,
      "(γ": 580,
      "(Ε": 581,
      "(α": 582,
      "(ρ": 583,
      "(y": 584,
      "(Ι": 585,
      "(Π": 586,
      "(Α": 587,
      "2*": 588,
      "(B": 589,
      "(Y": 590,
      "(Τ": 591,
      "(Χ": 592,
      "(Ψ": 593,
      "(Ο": 594,
      "(U": 595,
      "(c": 596,
      "H_": 597,
      "(l": 598,
      "(x": 599,
      "(δ": 600,
      "(λ": 601,
      "(W": 602,
      "(k": 603,
      "(Σ": 604,
      "(K": 605,
      "(G": 606,
      "(Κ": 607,
      "(V": 608,
      "(h": 609,
      "(Μ": 610,
      "(κ": 611,
      "(ν": 612,
      "(τ": 613,
      "(ω": 614,
      "(T": 615,
      "(Ρ": 616,
      "φ_": 617,
      "(Ζ": 618,
      "(η": 619,
      "(u": 620,
      "(D": 621,
      "(β": 622,
      "(σ": 623,
      "(υ": 624,
      "(Φ": 625,
      "(Ω": 626,
      "o_": 627,
      "Β_": 628,
      "'F_": 629,
      "(X": 630,
      "(Θ": 631,
      "(ε": 632,
      "ι_": 633,
      "'Q_": 634,
      "'Z_": 635,
      "'h_": 636,
      "(d": 637,
      "(ζ": 638,
      "(ψ": 639,
      "(r": 640,
      "(ξ": 641,
      "(M": 642,
      "'ξ_": 643,
      "(Γ": 644,
      "(Η": 645,
      "'Π_": 646,
      "(j": 647,
      "(p": 648,
      "'n_": 649,
      "(Ν": 650,
      "(Υ": 651,
      "(z": 652,
      "(Δ": 653,
      "4)))": 654,
      "(ο": 655,
      "5'": 656,
      "'μ_": 657,
      "'Θ_": 658,
      "'T_": 659,
      "'f_": 660,
      "(b": 661,
      "'Η_": 662,
      "'B_": 663,
      "'ν_": 664,
      "(χ": 665,
      "'η_": 666,
      "(θ": 667,
      "'X_": 668,
      "'Υ_": 669,
      "'τ_": 670,
      "(v": 671,
      "(w": 672,
      "3)))": 673,
      "4)": 674,
      "'γ_": 675,
      "(E": 676,
      "'G_": 677,
      "'υ_": 678,
      "'J_": 679,
      "'y_": 680,
      "'a_": 681,
      "'A_": 682,
      "'Κ_": 683,
      "'Ο_": 684,
      "'W_": 685,
      "'Δ_": 686,
      "*log(": 687,
      "'l_": 688,
      "'C_": 689,
      "'Ι_": 690,
      "(μ": 691,
      "'ε_": 692,
      "'Ρ_": 693,
      "'ο_": 694,
      "'q_": 695,
      "'g_": 696,
      "'R_": 697,
      "'I_": 698,
      "'κ_": 699,
      "'ω_": 700,
      "'ψ_": 701,
      "'χ_": 702,
      "'Γ_": 703,
      "'U_": 704,
      "'Χ_": 705,
      "2)": 706,
      "2)))": 707,
      "'L_": 708,
      "'Λ_": 709,
      "'Σ_": 710,
      "'α_": 711,
      "'Φ_": 712,
      "9*": 713,
      "'r_": 714,
      "'E_": 715,
      "'k_": 716,
      "1'": 717,
      "5)": 718,
      "9'": 719,
      "'K_": 720,
      "'t_": 721,
      "'ρ_": 722,
      "'i_": 723,
      "6)))": 724,
      "8)))": 725,
      "9)))": 726,
      ")/(": 727,
      "'Ξ_": 728,
      "'σ_": 729,
      "'P_": 730,
      "'Ν_": 731,
      "'Α_": 732,
      "'w_": 733,
      "'c_": 734,
      "'p_": 735,
      "'N_": 736,
      "'b_": 737,
      "3*": 738,
      "4*": 739,
      "'z_": 740,
      "'D_": 741,
      "1)))": 742,
      "Q,": 743,
      "'s_": 744,
      "7)": 745,
      "'Ε_": 746,
      "'Ψ_": 747,
      "'θ_": 748,
      "'Ω_": 749,
      "'d_": 750,
      "3)": 751,
      "7*": 752,
      "'m_": 753,
      "'Y_": 754,
      "'x_": 755,
      "5)))": 756,
      "8'": 757,
      "9)": 758,
      "φ'": 759,
      "'Μ_": 760,
      "7)))": 761,
      "o'": 762,
      "2'": 763,
      "'β_": 764,
      "4'": 765,
      "7'": 766,
      "'φ_": 767,
      "'O_": 768,
      "'S_": 769,
      "'δ_": 770,
      "'v_": 771,
      "3'": 772,
      "8*": 773,
      "Ξ'": 774,
      "'λ_": 775,
      "'Ζ_": 776,
      "O,": 777,
      "S,": 778,
      "ζ'": 779,
      "'ζ_": 780,
      "'o_": 781,
      "N,": 782,
      "6)": 783,
      "'M_": 784,
      "'H_": 785,
      "'j_": 786,
      "'Τ_": 787,
      "(B_": 788,
      "H'": 789,
      "'Β_": 790,
      "(y_": 791,
      "2),": 792,
      "I,": 793,
      "P'": 794,
      "'V_": 795,
      "(T_": 796,
      "6'": 797,
      "'ι_": 798,
      "'u_": 799,
      "(ν_": 800,
      "5*": 801,
      "Ε'": 802,
      "ι'": 803,
      ")/2),": 804,
      "(R_": 805,
      "(F_": 806,
      "m'": 807,
      "(Κ_": 808,
      "(Θ_": 809,
      "(τ_": 810,
      "(J_": 811,
      "(r_": 812,
      "(f,": 813,
      "'O'": 814,
      "(Ο_": 815,
      "(Ν_": 816,
      "8)": 817,
      "(ω,": 818,
      "(η_": 819,
      "(χ_": 820,
      "(Q_": 821,
      "(Z_": 822,
      "(Π_": 823,
      "(f_": 824,
      "(C_": 825,
      "(R,": 826,
      "(ξ_": 827,
      "(Η_": 828,
      "(W_": 829,
      "(Δ_": 830,
      "(l_": 831,
      "(Ι_": 832,
      "(I_": 833,
      "(g,": 834,
      "(h_": 835,
      "(Υ_": 836,
      "(γ_": 837,
      "(G_": 838,
      "(L_": 839,
      "(H,": 840,
      "(Β,": 841,
      "(t,": 842,
      "(κ,": 843,
      "6*": 844,
      "(n,": 845,
      "(Z,": 846,
      "(n_": 847,
      "(μ_": 848,
      "(ω_": 849,
      "(Φ_": 850,
      "(i_": 851,
      "(A,": 852,
      "(Τ,": 853,
      "'Q'": 854,
      "(X_": 855,
      "(Γ_": 856,
      "(U_": 857,
      "-sqrt(": 858,
      "(ο_": 859,
      "(Μ_": 860,
      "(φ,": 861,
      "(P,": 862,
      "(τ,": 863,
      "(υ_": 864,
      "(γ,": 865,
      "'I'": 866,
      "'S'": 867,
      "(q_": 868,
      "(k_": 869,
      "(d_": 870,
      "(o,": 871,
      "(Λ,": 872,
      "(J,": 873,
      "(Σ,": 874,
      "(a_": 875,
      "(A_": 876,
      "(Ω_": 877,
      "Β'": 878,
      ")/2)": 879,
      "(a,": 880,
      "(α,": 881,
      "(c,": 882,
      "(ε_": 883,
      "(t_": 884,
      "(c_": 885,
      "(p_": 886,
      "(b_": 887,
      "(Ξ,": 888,
      "(Π,": 889,
      "(δ,": 890,
      "(Ω,": 891,
      "(Σ_": 892,
      "(α_": 893,
      "(w_": 894,
      "(P_": 895,
      "(O,": 896,
      "(F,": 897,
      "(q,": 898,
      "(x,": 899,
      "(λ,": 900,
      "(W,": 901,
      "(σ_": 902,
      "(S_": 903,
      "2))": 904,
      "(ρ,": 905,
      "(Ι,": 906,
      "(l,": 907,
      "'E'": 908,
      "'N'": 909,
      "(g_": 910,
      "(κ_": 911,
      "(K_": 912,
      "(Α_": 913,
      "(D_": 914,
      "(λ_": 915,
      "(Ψ,": 916,
      "(U,": 917,
      "(K,": 918,
      "(T,": 919,
      "(Γ,": 920,
      "(Η,": 921,
      "(ψ_": 922,
      "(E_": 923,
      "(O_": 924,
      "(β_": 925,
      "(k,": 926,
      "(V,": 927,
      "(υ,": 928,
      "(Ν,": 929,
      "(Χ_": 930,
      "(N_": 931,
      "(Τ_": 932,
      "3),": 933,
      "(ι,": 934,
      "(C,": 935,
      "(Ο,": 936,
      "(Μ,": 937,
      "(ρ_": 938,
      "(θ_": 939,
      "1)": 940,
      "(φ_": 941,
      "(s,": 942,
      "(L,": 943,
      "(Ε,": 944,
      "(Χ,": 945,
      "(Ε_": 946,
      "(Q,": 947,
      ")/2))": 948,
      "(y,": 949,
      "(η,": 950,
      "(u,": 951,
      "(Φ,": 952,
      "(X,": 953,
      "(ζ,": 954,
      "(Ρ_": 955,
      "(Λ_": 956,
      "(j_": 957,
      "(o_": 958,
      "(B,": 959,
      "(G,": 960,
      "(θ,": 961,
      "(m,": 962,
      "(i,": 963,
      "(Ρ,": 964,
      "(Θ,": 965,
      "(r,": 966,
      "(ο,": 967,
      "(M_": 968,
      "(Ξ_": 969,
      "(H_": 970,
      "(ν,": 971,
      "(s_": 972,
      "(z_": 973,
      "(x_": 974,
      "(ζ_": 975,
      "(h,": 976,
      "(Ζ,": 977,
      "(ε,": 978,
      "(j,": 979,
      "(p,": 980,
      "(Y_": 981,
      "(S,": 982,
      "(Y,": 983,
      "(σ,": 984,
      "(χ,": 985,
      "(Ψ_": 986,
      "(v_": 987,
      "(N,": 988,
      "(Α,": 989,
      "(M,": 990,
      "(Υ,": 991,
      "(Ζ_": 992,
      "(β,": 993,
      "9),": 994,
      "(m_": 995,
      "(Β_": 996,
      "(Κ,": 997,
      "(ψ,": 998,
      "(V_": 999,
      "(u_": 1000,
      "**(sqrt(": 1001,
      "(D,": 1002,
      "(ξ,": 1003,
      "(E,": 1004,
      "5),": 1005,
      "(z,": 1006,
      "(w,": 1007,
      "(I,": 1008,
      "4),": 1009,
      "(Δ,": 1010,
      "(δ_": 1011,
      "(ι_": 1012,
      "(b,": 1013,
      "7))": 1014,
      "(v,": 1015,
      "7),": 1016,
      "(μ,": 1017,
      "8),": 1018,
      "σ,": 1019,
      "9))": 1020,
      "d,": 1021,
      "_Β'": 1022,
      "(d,": 1023,
      "-log(": 1024,
      "6),": 1025,
      "8))": 1026,
      "io": 1027,
      "k))": 1028,
      "na": 1029,
      "u))": 1030,
      "5))": 1031,
      "f,": 1032,
      "6))": 1033,
      "Sum(-sqrt(": 1034,
      "l,": 1035,
      "3))": 1036,
      "A,": 1037,
      "atio": 1038,
      "nal(": 1039,
      "ational(": 1040,
      "h,": 1041,
      "Ι))": 1042,
      "Μ))": 1043,
      "(7*": 1044,
      "4))": 1045,
      "U,": 1046,
      "ρ))": 1047,
      "φ,": 1048,
      "G))": 1049,
      "Y,": 1050,
      "ψ))": 1051,
      "H))": 1052,
      "V,": 1053,
      "W,": 1054,
      "f))": 1055,
      "u,": 1056,
      "y,": 1057,
      "y))": 1058,
      "Α,": 1059,
      "Κ))": 1060,
      "ζ))": 1061,
      "(2*": 1062,
      "W))": 1063,
      "X))": 1064,
      "Z,": 1065,
      "o,": 1066,
      "p,": 1067,
      "t))": 1068,
      "Ρ))": 1069,
      "Φ,": 1070,
      "τ))": 1071,
      "2)*sqrt(": 1072,
      "L))": 1073,
      "r,": 1074,
      "Γ))": 1075,
      "Π))": 1076,
      "ν))": 1077,
      "υ,": 1078,
      "χ))": 1079,
      "*sqrt(": 1080,
      "Ζ,": 1081,
      "Ξ))": 1082,
      "Π,": 1083,
      "Τ))": 1084,
      "α))": 1085,
      "ρ,": 1086,
      "φ))": 1087,
      "K))": 1088,
      "w))": 1089,
      "Λ))": 1090,
      "Ξ,": 1091,
      "δ,": 1092,
      "λ))": 1093,
      "ξ))": 1094,
      "υ))": 1095,
      "**(log(": 1096,
      "X,": 1097,
      "i,": 1098,
      "j,": 1099,
      "z,": 1100,
      "Ε))": 1101,
      "Ι,": 1102,
      "Χ,": 1103,
      "η,": 1104,
      "Derivative(-sqrt(": 1105,
      "(9*": 1106,
      "1),": 1107,
      "M))": 1108,
      "P))": 1109,
      "R))": 1110,
      "a,": 1111,
      "d))": 1112,
      "l))": 1113,
      "m,": 1114,
      "x,": 1115,
      "x))": 1116,
      "Θ,": 1117,
      "Σ,": 1118,
      "χ,": 1119,
      "D,": 1120,
      "k,": 1121,
      "p))": 1122,
      "v))": 1123,
      "Δ,": 1124,
      "γ))": 1125,
      "ε))": 1126,
      "ι))": 1127,
      "κ))": 1128,
      "μ,": 1129,
      "σ))": 1130,
      "ω))": 1131,
      "Integral(-sqrt(": 1132,
      "F,": 1133,
      "G,": 1134,
      "R,": 1135,
      "g))": 1136,
      "j))": 1137,
      "s,": 1138,
      "w,": 1139,
      "Ν,": 1140,
      "Ρ,": 1141,
      "Υ,": 1142,
      "β,": 1143,
      "ο,": 1144,
      "b,": 1145,
      "q,": 1146,
      "v,": 1147,
      "Θ)": 1148,
      "Κ,": 1149,
      "Ο,": 1150,
      "Τ,": 1151,
      "ν,": 1152,
      "**log(": 1153,
      "C))": 1154,
      "a))": 1155,
      "c))": 1156,
      "Λ,": 1157,
      "Ψ,": 1158,
      "ν)": 1159,
      "A))": 1160,
      "F))": 1161,
      "J,": 1162,
      "P,": 1163,
      "Y))": 1164,
      "b))": 1165,
      "g,": 1166,
      "i))": 1167,
      "n))": 1168,
      "r))": 1169,
      "s))": 1170,
      "t,": 1171,
      "z))": 1172,
      "Β))": 1173,
      "Δ))": 1174,
      "Σ))": 1175,
      "δ))": 1176,
      "μ))": 1177,
      "ω,": 1178,
      "(8*": 1179,
      "(5*": 1180,
      "/2),": 1181,
      "E,": 1182,
      "K,": 1183,
      "U))": 1184,
      "n,": 1185,
      "Μ,": 1186,
      "Χ))": 1187,
      "β)": 1188,
      "η))": 1189,
      "θ,": 1190,
      "ξ,": 1191,
      "B,": 1192,
      "Z))": 1193,
      "Ο))": 1194,
      "Φ)": 1195,
      "ι,": 1196,
      "1))": 1197,
      "B))": 1198,
      "M,": 1199,
      "c)": 1200,
      "f)": 1201,
      "y)": 1202,
      "Α))": 1203,
      "Ξ),": 1204,
      "Ψ))": 1205,
      "Ω,": 1206,
      "α,": 1207,
      "ζ,": 1208,
      "ο)": 1209,
      "ψ,": 1210,
      "L,": 1211,
      "c,": 1212,
      "Ε,": 1213,
      "Η,": 1214,
      "Η))": 1215,
      "Ω))": 1216,
      "τ,": 1217,
      "G)": 1218,
      "R)": 1219,
      "Rational(": 1220,
      "h))": 1221,
      "s)": 1222,
      "w)": 1223,
      "Γ,": 1224,
      "Ζ)": 1225,
      "ε,": 1226,
      "θ))": 1227,
      "λ,": 1228,
      "σ)": 1229,
      "H,": 1230,
      "z)": 1231,
      "Κ)": 1232,
      "Ν))": 1233,
      "β))": 1234,
      "ζ)": 1235,
      "ρ)": 1236,
      "χ)": 1237,
      "(3*": 1238,
      "C,": 1239,
      "k)": 1240,
      "Θ))": 1241,
      "Φ))": 1242,
      "γ,": 1243,
      "λ)": 1244,
      "ο))": 1245,
      "(6*": 1246,
      "2)*": 1247,
      "A)": 1248,
      "D))": 1249,
      "T,": 1250,
      "T))": 1251,
      "U)": 1252,
      "X)": 1253,
      "Η)": 1254,
      "θ)": 1255,
      "φ)": 1256,
      "B)": 1257,
      "J))": 1258,
      "P)": 1259,
      "Z)": 1260,
      "h)": 1261,
      "o))": 1262,
      "r)": 1263,
      "x)": 1264,
      "Δ)": 1265,
      "Υ)": 1266,
      "Υ))": 1267,
      "ι)": 1268,
      "υ)": 1269,
      "ψ)": 1270,
      "2*sqrt(": 1271,
      "L)": 1272,
      "d)": 1273,
      "m))": 1274,
      "q)": 1275,
      "Ζ))": 1276,
      "Ι)": 1277,
      "Λ)": 1278,
      "α)": 1279,
      "C)": 1280,
      "J)": 1281,
      "K),": 1282,
      "T)": 1283,
      "V)": 1284,
      "m)": 1285,
      "n)": 1286,
      "q))": 1287,
      "v)": 1288,
      "γ)": 1289,
      "ε)": 1290,
      "4)*": 1291,
      "5)*": 1292,
      "M)": 1293,
      "W)": 1294,
      "l)": 1295,
      "p)": 1296,
      "Χ),": 1297,
      "κ)": 1298,
      "λ),": 1299,
      "ν),": 1300,
      "**Rational(": 1301,
      "(4*": 1302,
      "V))": 1303,
      "i)": 1304,
      "Ε)": 1305,
      "Θ),": 1306,
      "Τ)": 1307,
      "Ψ)": 1308,
      "Ω)": 1309,
      "η)": 1310,
      "ξ)": 1311,
      "τ)": 1312,
      "K)": 1313,
      "o)": 1314,
      "Γ)": 1315,
      "κ,": 1316,
      "σ),": 1317,
      "ω)": 1318,
      "ω),": 1319,
      "Derivative(-log(": 1320,
      "Integral(-log(": 1321,
      ")/(sqrt(": 1322,
      "5)*sqrt(": 1323,
      "Y)": 1324,
      "r),": 1325,
      "Α)": 1326,
      "Γ),": 1327,
      "Η),": 1328,
      "Ν)": 1329,
      "Ξ)": 1330,
      "Π)": 1331,
      "α),": 1332,
      "γ),": 1333,
      "δ)": 1334,
      "μ)": 1335,
      "Sum(-log(": 1336,
      "6)*": 1337,
      "F)": 1338,
      "F)))": 1339,
      "X),": 1340,
      "X)))": 1341,
      "h),": 1342,
      "x),": 1343,
      "Μ)": 1344,
      "Ρ)": 1345,
      "Σ)": 1346,
      "Φ),": 1347,
      "Ψ),": 1348,
      "ψ),": 1349,
      "9)*": 1350,
      "I)))": 1351,
      "f),": 1352,
      "n),": 1353,
      "Β,": 1354,
      "Κ),": 1355,
      "Χ)": 1356,
      ")/2,": 1357,
      "E)": 1358,
      "G)))": 1359,
      "H),": 1360,
      "P)))": 1361,
      "V)))": 1362,
      "Z),": 1363,
      "a)": 1364,
      "b)))": 1365,
      "j)))": 1366,
      "k)))": 1367,
      "o),": 1368,
      "Ι),": 1369,
      "Ν)))": 1370,
      "δ),": 1371,
      "ε),": 1372,
      "ε)))": 1373,
      "θ),": 1374,
      "ξ),": 1375,
      "χ)))": 1376,
      "cosh": 1377,
      ")**(log(": 1378,
      "8)*": 1379,
      "P),": 1380,
      "T),": 1381,
      "T)))": 1382,
      "U),": 1383,
      "j)": 1384,
      "p),": 1385,
      "t),": 1386,
      "u)": 1387,
      "w),": 1388,
      "x)))": 1389,
      "z),": 1390,
      "Α),": 1391,
      "Ρ),": 1392,
      "Ω)))": 1393,
      "ζ)))": 1394,
      "ι),": 1395,
      "**4)": 1396,
      "(γ),": 1397,
      "(ψ),": 1398,
      "/2))": 1399,
      "C)))": 1400,
      "E)))": 1401,
      "H)": 1402,
      "O))": 1403,
      "b)": 1404,
      "s),": 1405,
      "Β)": 1406,
      "Π),": 1407,
      "Υ)))": 1408,
      "μ),": 1409,
      "μ)))": 1410,
      "ο),": 1411,
      "υ),": 1412,
      "φ),": 1413,
      ")/3": 1414,
      "(A),": 1415,
      "(F)": 1416,
      "(y),": 1417,
      "(K),": 1418,
      "(Κ),": 1419,
      "6)/": 1420,
      "7)*": 1421,
      "O)))": 1422,
      "W),": 1423,
      "a)))": 1424,
      "d)))": 1425,
      "i)))": 1426,
      "m),": 1427,
      "t)": 1428,
      "Β),": 1429,
      "Ζ),": 1430,
      "Η)))": 1431,
      "Κ)))": 1432,
      "Μ),": 1433,
      "Ρ)))": 1434,
      "Ω),": 1435,
      "β)*": 1436,
      "γ)))": 1437,
      "κ)*": 1438,
      "χ),": 1439,
      ")/7,": 1440,
      "(n),": 1441,
      "(Λ),": 1442,
      "(Ξ)": 1443,
      "(x),": 1444,
      "(E),": 1445,
      "3)*": 1446,
      "A)*": 1447,
      "D)": 1448,
      "E))": 1449,
      "G),": 1450,
      "R)))": 1451,
      "g)": 1452,
      "g),": 1453,
      "i),": 1454,
      "l),": 1455,
      "o)))": 1456,
      "r)))": 1457,
      "Θ)))": 1458,
      "Π)))": 1459,
      "θ)))": 1460,
      "κ),": 1461,
      "ο)))": 1462,
      "ρ),": 1463,
      "τ),": 1464,
      "ψ)))": 1465,
      "ω)))": 1466,
      ")/3)": 1467,
      ")**3,": 1468,
      ")/2)*": 1469,
      "(ρ),": 1470,
      "(ν),": 1471,
      "(Ρ),": 1472,
      "(Ζ),": 1473,
      "/2": 1474,
      "/log(": 1475,
      "/sqrt(": 1476,
      "B),": 1477,
      "M)))": 1478,
      "Q)))": 1479,
      "V),": 1480,
      "W)))": 1481,
      "a),": 1482,
      "l)))": 1483,
      "n)))": 1484,
      "u),": 1485,
      "w)))": 1486,
      "y),": 1487,
      "y)))": 1488,
      "Λ),": 1489,
      "Λ)))": 1490,
      "Ο)": 1491,
      "Υ),": 1492,
      "ζ),": 1493,
      "ν)))": 1494,
      "ξ)))": 1495,
      "ρ)*": 1496,
      "τ)))": 1497,
      "_Β,": 1498,
      "(ι),": 1499,
      "(i)": 1500,
      "(Ε),": 1501,
      "(Α)": 1502,
      "(Α),": 1503,
      "(Ο),": 1504,
      "(σ)": 1505,
      "(w),": 1506,
      "/2)": 1507,
      "F),": 1508,
      "L)))": 1509,
      "Y),": 1510,
      "b),": 1511,
      "c),": 1512,
      "c)))": 1513,
      "d),": 1514,
      "k),": 1515,
      "m)))": 1516,
      "s)))": 1517,
      "Τ),": 1518,
      "η),": 1519,
      "κ)))": 1520,
      "υ)))": 1521,
      ")/6,": 1522,
      ")/5)": 1523,
      ")**4,": 1524,
      "(Rational(": 1525,
      "(i),": 1526,
      "(Ι),": 1527,
      "(ω),": 1528,
      "A),": 1529,
      "A)))": 1530,
      "J)))": 1531,
      "K)))": 1532,
      "Q))": 1533,
      "S))": 1534,
      "k)*": 1535,
      "u)))": 1536,
      "Ε)*": 1537,
      "Μ)))": 1538,
      "Ν),": 1539,
      "Χ)))": 1540,
      "η)))": 1541,
      "ρ)))": 1542,
      "τ)*": 1543,
      "φ)))": 1544,
      ")/5": 1545,
      ")/9,": 1546,
      ")**9,": 1547,
      "(H),": 1548,
      "(φ),": 1549,
      "(Z),": 1550,
      "(Π)": 1551,
      "(B)": 1552,
      "(Μ),": 1553,
      "(ν)": 1554,
      "(D)": 1555,
      "(X)": 1556,
      "(Θ),": 1557,
      "(ε)": 1558,
      "(Rational(1,": 1559,
      "/7)": 1560,
      "/3),": 1561,
      "6)*sqrt(": 1562,
      "K)*": 1563,
      "M),": 1564,
      "R),": 1565,
      "S)))": 1566,
      "Γ)))": 1567,
      "Δ),": 1568,
      "Ζ)))": 1569,
      "Ξ)))": 1570,
      "Ο)))": 1571,
      "β),": 1572,
      "δ)))": 1573,
      "φ)**": 1574,
      "**7),": 1575,
      "**8))": 1576,
      "(Β),": 1577,
      "(ι))": 1578,
      "(R),": 1579,
      "(q)": 1580,
      "(s)": 1581,
      "(Α))": 1582,
      "(Χ),": 1583,
      "(Σ),": 1584,
      "(G),": 1585,
      "(ζ),": 1586,
      "(M)": 1587,
      "(Δ)": 1588,
      "(ο),": 1589,
      "(v),": 1590,
      "1/": 1591,
      "3)*sqrt(": 1592,
      "B)))": 1593,
      "H)))": 1594,
      "Q),": 1595,
      "XΜ": 1596,
      "v)))": 1597,
      "Ι)))": 1598,
      "Ψ)))": 1599,
      "β)))": 1600,
      "ο)*": 1601,
      "log(-": 1602,
      ")**7,": 1603,
      ")**3)": 1604,
      "Derivative(4*": 1605,
      "_Βk": 1606,
      "(f)": 1607,
      "(C)": 1608,
      "(C))": 1609,
      "(t)": 1610,
      "(P),": 1611,
      "(Λ)": 1612,
      "2*log(": 1613,
      "(Χ))": 1614,
      "(c)": 1615,
      "(λ)": 1616,
      "(η),": 1617,
      "(u),": 1618,
      "(β)": 1619,
      "(Φ)": 1620,
      "(r)": 1621,
      "(ξ),": 1622,
      "(χ),": 1623,
      "3*sqrt(": 1624,
      "2*sqrt(2)*sqrt(": 1625,
      "8)**": 1626,
      "C),": 1627,
      "D),": 1628,
      "I)": 1629,
      "L)*": 1630,
      "N)": 1631,
      "N)))": 1632,
      "R)*": 1633,
      "Y)))": 1634,
      "f)*": 1635,
      "h)))": 1636,
      "v),": 1637,
      "Α)))": 1638,
      "Ε),": 1639,
      "Τ)))": 1640,
      "ι)))": 1641,
      "λ)))": 1642,
      "σ)))": 1643,
      "ψ)*": 1644,
      ")/4": 1645,
      "(H)": 1646,
      "(φ)": 1647,
      "(m)": 1648,
      "(m))": 1649,
      "(A)": 1650,
      "(f),": 1651,
      "(P)": 1652,
      "(a)": 1653,
      "(α))": 1654,
      "(δ))": 1655,
      "(δ),": 1656,
      "(λ),": 1657,
      "(K)": 1658,
      "(υ)": 1659,
      "(υ),": 1660,
      "(d)": 1661,
      "(ζ))": 1662,
      "(j)": 1663,
      "(Δ),": 1664,
      "(θ))": 1665,
      "(v)": 1666,
      "/7": 1667,
      "6**": 1668,
      "7)*sqrt(": 1669,
      "D)*": 1670,
      "J),": 1671,
      "L),": 1672,
      "M)*": 1673,
      "M)**": 1674,
      "N))": 1675,
      "Q)": 1676,
      "T)*": 1677,
      "V**": 1678,
      "c)*": 1679,
      "g)))": 1680,
      "j),": 1681,
      "s)*": 1682,
      "tQ": 1683,
      "y)*": 1684,
      "Θ)*": 1685,
      "Ι)*": 1686,
      "Λ)/": 1687,
      "Μδ": 1688,
      "Ο),": 1689,
      "Ρ)*": 1690,
      "Σ)))": 1691,
      "Φ)))": 1692,
      "α)))": 1693,
      "ξ)*": 1694,
      "υ)*": 1695,
      "sqrt(2)*sqrt(": 1696,
      ")/7": 1697,
      ")/5,": 1698,
      "**7)": 1699,
      "**6)": 1700,
      "**2),": 1701,
      "(g)": 1702,
      "(n)": 1703,
      "(F),": 1704,
      "(C),": 1705,
      "(J)": 1706,
      "(s))": 1707,
      "(L),": 1708,
      "(Y)": 1709,
      "(Y))": 1710,
      "(Τ))": 1711,
      "(Τ),": 1712,
      "(Ψ)": 1713,
      "(U)": 1714,
      "(l)": 1715,
      "(Σ)": 1716,
      "(κ)": 1717,
      "(τ),": 1718,
      "(Ρ)": 1719,
      "(u)": 1720,
      "(D),": 1721,
      "(β),": 1722,
      "(Ω))": 1723,
      "(Θ)": 1724,
      "(r))": 1725,
      "(ξ)": 1726,
      "(ξ))": 1727,
      "(b)": 1728,
      "(E))": 1729,
      "/5),": 1730,
      "/9))": 1731,
      "4*log(": 1732,
      "5Ζ": 1733,
      "8**": 1734,
      "9**": 1735,
      "BΝ": 1736,
      "E),": 1737,
      "I))": 1738,
      "aΠ": 1739,
      "a)*": 1740,
      "r)/": 1741,
      "t*": 1742,
      "v)*": 1743,
      "x)*": 1744,
      "Δ)))": 1745,
      "Ο)*": 1746,
      "Σ),": 1747,
      "α)*": 1748,
      "λ)**": 1749,
      "ν)*": 1750,
      ")/3,": 1751,
      "**2": 1752,
      "**6": 1753,
      "**7": 1754,
      "**5)": 1755,
      "**8)": 1756,
      "(g))": 1757,
      "(g),": 1758,
      "(t),": 1759,
      "(J),": 1760,
      "(a),": 1761,
      "(ρ)": 1762,
      "(y)": 1763,
      "(Π),": 1764,
      "(Ψ))": 1765,
      "(Ψ),": 1766,
      "(Ο))": 1767,
      "(U))": 1768,
      "(l),": 1769,
      "(x)": 1770,
      "(G)": 1771,
      "(κ),": 1772,
      "(τ)": 1773,
      "(T),": 1774,
      "(Ζ)": 1775,
      "(β))": 1776,
      "(Ω),": 1777,
      "(ζ)": 1778,
      "(ψ))": 1779,
      "(Η)": 1780,
      "(p),": 1781,
      "(Υ)": 1782,
      "(χ))": 1783,
      "**Rational(9,": 1784,
      "/9)": 1785,
      "/7))": 1786,
      "1)*": 1787,
      "2**": 1788,
      "5**": 1789,
      "9)/": 1790,
      "Dz": 1791,
      "D)))": 1792,
      "I),": 1793,
      "O),": 1794,
      "U)))": 1795,
      "Y)/": 1796,
      "Z)*": 1797,
      "Z)))": 1798,
      "d)*": 1799,
      "fI": 1800,
      "m*": 1801,
      "m)*": 1802,
      "t)*": 1803,
      "vΞ": 1804,
      "Β)))": 1805,
      "Ε)))": 1806,
      "Μ)*": 1807,
      "Ν*": 1808,
      "Σ)*": 1809,
      "Φ)*": 1810,
      "ΨΒ": 1811,
      "σ)*": 1812,
      "υΡ": 1813,
      ")/6)": 1814,
      "Sum(9*": 1815,
      "Derivative(2*": 1816,
      "**9)": 1817,
      "**8),": 1818,
      "**6),": 1819,
      "**6))": 1820,
      "**3))": 1821,
      ")/2)/": 1822,
      "(φ))": 1823,
      "(m),": 1824,
      "(q),": 1825,
      "(Λ))": 1826,
      "(J))": 1827,
      "(Ξ),": 1828,
      "(L)": 1829,
      "(γ)": 1830,
      "(α),": 1831,
      "(W),": 1832,
      "(Κ)": 1833,
      "(Κ))": 1834,
      "(V))": 1835,
      "(h),": 1836,
      "(η)": 1837,
      "(η))": 1838,
      "(Φ),": 1839,
      "(d),": 1840,
      "(ψ)": 1841,
      "(Γ)": 1842,
      "(Η),": 1843,
      "(z))": 1844,
      "(b),": 1845,
      "/4)": 1846,
      "/8),": 1847,
      "/6))": 1848,
      "1j": 1849,
      "1)/": 1850,
      "1)**": 1851,
      "3**": 1852,
      "4)/": 1853,
      "5)**": 1854,
      "5*log(": 1855,
      "D*": 1856,
      "Hδ": 1857,
      "H)*": 1858,
      "Jl": 1859,
      "O)": 1860,
      "Ox": 1861,
      "S)": 1862,
      "S),": 1863,
      "VΚ": 1864,
      "V)*": 1865,
      "Y)*": 1866,
      "a1": 1867,
      "cΛ": 1868,
      "g)*": 1869,
      "h)**": 1870,
      "n)*": 1871,
      "n)/": 1872,
      "p)*": 1873,
      "p)))": 1874,
      "w)*": 1875,
      "zh": 1876,
      "z)*": 1877,
      "z)))": 1878,
      "Γ)*": 1879,
      "Ζp": 1880,
      "Ζ)/": 1881,
      "Ι)/": 1882,
      "Ξ)*": 1883,
      "Τ)/": 1884,
      "Τ**": 1885,
      "ΧX": 1886,
      "δ)*": 1887,
      "ζ)*": 1888,
      "θ)*": 1889,
      "ι)*": 1890,
      "ρ)/": 1891,
      "χ)*": 1892,
      "ω)*": 1893,
      "sqrt(ο_": 1894,
      ")/4)": 1895,
      ")/7)": 1896,
      "Sum(4*": 1897,
      "Sum(8*": 1898,
      "Integral(4*": 1899,
      "**2)": 1900,
      "**3),": 1901,
      "**4),": 1902,
      "_Β))": 1903,
      "_Β),": 1904,
      "(m)**": 1905,
      "(Β)": 1906,
      "(o)": 1907,
      "(o),": 1908,
      "(F))": 1909,
      "(P))": 1910,
      "(s),": 1911,
      "(s)**": 1912,
      "(ρ))": 1913,
      "(B))": 1914,
      "(Y),": 1915,
      "(U),": 1916,
      "(δ)": 1917,
      "(W)": 1918,
      "(k),": 1919,
      "(Μ)": 1920,
      "(τ))": 1921,
      "(T))": 1922,
      "(σ),": 1923,
      "(υ))": 1924,
      "(ε),": 1925,
      "(r),": 1926,
      "(M),": 1927,
      "(Γ),": 1928,
      "(Η))": 1929,
      "(j),": 1930,
      "(Ν))": 1931,
      "(z),": 1932,
      "(v))": 1933,
      "(w))": 1934,
      "(μ),": 1935,
      "7*sqrt(": 1936,
      "cosh(": 1937,
      "/9": 1938,
      "1ο": 1939,
      "3)**": 1940,
      "67": 1941,
      "9/": 1942,
      "9Ρ": 1943,
      "F)*": 1944,
      "J)*": 1945,
      "J)/": 1946,
      "K)/": 1947,
      "N),": 1948,
      "RI": 1949,
      "X)*": 1950,
      "ZK": 1951,
      "bs": 1952,
      "b)*": 1953,
      "cp": 1954,
      "f*": 1955,
      "iγ": 1956,
      "k*": 1957,
      "k**": 1958,
      "lΕ": 1959,
      "l)*": 1960,
      "q)))": 1961,
      "r)*": 1962,
      "r)**": 1963,
      "sε": 1964,
      "t)))": 1965,
      "t)/": 1966,
      "u)*": 1967,
      "x*": 1968,
      "yΕ": 1969,
      "Α)*": 1970,
      "Εμ": 1971,
      "Μ)/": 1972,
      "Χ)*": 1973,
      "Ψ)**": 1974,
      "Ω)*": 1975,
      "ββ": 1976,
      "γq": 1977,
      "γ)*": 1978,
      "γ)/": 1979,
      "κχ": 1980,
      "λp": 1981,
      "λ)*": 1982,
      "ξh": 1983,
      "σ)/": 1984,
      "υκ": 1985,
      "log(Q_": 1986,
      "sqrt(-": 1987,
      "sqrt(Z_": 1988,
      ")**8,": 1989,
      ")**5)": 1990,
      "Integral(3*": 1991,
      "**9),": 1992,
      "**7))": 1993,
      "Ξ_φ": 1994,
      "(H))": 1995,
      "(Β))": 1996,
      "(o))": 1997,
      "(ι)": 1998,
      "(f))": 1999,
      "(q))": 2000,
      "(Ε)": 2001,
      "(α)**": 2002,
      "(Ι)": 2003,
      "(Τ)": 2004,
      "(c),": 2005,
      "(x))": 2006,
      "(λ)**": 2007,
      "(k))": 2008,
      "(V),": 2009,
      "(h)": 2010,
      "(ν))": 2011,
      "(ω)": 2012,
      "(T)": 2013,
      "(u))": 2014,
      "(Ω)**": 2015,
      "(d))": 2016,
      "(p)": 2017,
      "(Υ))": 2018,
      "(z)": 2019,
      "(ο))": 2020,
      "(χ)": 2021,
      "(χ)**": 2022,
      "(θ),": 2023,
      "/9),": 2024,
      "/4),": 2025,
      "/7),": 2026,
      "1τ": 2027,
      "2)/": 2028,
      "3*log(": 2029,
      "4)**": 2030,
      "5)/": 2031,
      "6l": 2032,
      "7Φ": 2033,
      "8)/": 2034,
      "9Φ": 2035,
      "B2": 2036,
      "B)*": 2037,
      "Cρ": 2038,
      "EΖ": 2039,
      "FΒ": 2040,
      "G)*": 2041,
      "G)**": 2042,
      "Hi": 2043,
      "H)/": 2044,
      "IΟ": 2045,
      "JA": 2046,
      "Jδ": 2047,
      "Ld": 2048,
      "Nω": 2049,
      "PΖ": 2050,
      "P)*": 2051,
      "QK": 2052,
      "Qο": 2053,
      "RF": 2054,
      "Rv": 2055,
      "U*": 2056,
      "U9": 2057,
      "UV": 2058,
      "VK": 2059,
      "V_Β": 2060,
      "Wa": 2061,
      "W)*": 2062,
      "Xq": 2063,
      "ZΚ": 2064,
      "a*": 2065,
      "br": 2066,
      "dz": 2067,
      "g**": 2068,
      "ib": 2069,
      "j*": 2070,
      "j)**": 2071,
      "lε": 2072,
      "mα": 2073,
      "nP": 2074,
      "nθ": 2075,
      "n)**": 2076,
      "ot": 2077,
      "p_Β": 2078,
      "q),": 2079,
      "q)*": 2080,
      "v9": 2081,
      "wX": 2082,
      "x)**": 2083,
      "Β)*": 2084,
      "Γε": 2085,
      "Εg": 2086,
      "Η)/": 2087,
      "Η_Β": 2088,
      "Θο": 2089,
      "ΚS": 2090,
      "ΚΥ": 2091,
      "Κ)*": 2092,
      "ΜΚ": 2093,
      "Ν8": 2094,
      "Ξ)**": 2095,
      "Π)*": 2096,
      "Σ)/": 2097,
      "Τ1": 2098,
      "Τ)*": 2099,
      "ΥI": 2100,
      "Υδ": 2101,
      "Υ)**": 2102,
      "Χ)/": 2103,
      "Ψ)/": 2104,
      "Ψ**": 2105,
      "ΩO": 2106,
      "αΗ": 2107,
      "α)/": 2108,
      "βΕ": 2109,
      "ε)*": 2110,
      "ηλ": 2111,
      "η)*": 2112,
      "η)/": 2113,
      "λ*": 2114,
      "μ/": 2115,
      "νν": 2116,
      "ν**": 2117,
      "οm": 2118,
      "τC": 2119,
      "τE": 2120,
      "υD": 2121,
      "ψ)**": 2122,
      "ωJ": 2123,
      "ωa": 2124,
      "ωγ": 2125,
      ")**2)": 2126,
      "Integral(9*": 2127,
      "**9))": 2128,
      "**5))": 2129,
      "**5)*": 2130,
      "G_Δ": 2131,
      "ψ_Ζ": 2132,
      ")**(-": 2133,
      ")*log(-": 2134,
      "(H)**": 2135,
      "(i)**": 2136,
      "(t))": 2137,
      "(q)/": 2138,
      "(a))": 2139,
      "(Ξ))": 2140,
      "(γ)**": 2141,
      "(α)": 2142,
      "(Ι))": 2143,
      "(B),": 2144,
      "(Χ)": 2145,
      "(Ο)/": 2146,
      "(l))": 2147,
      "(h))": 2148,
      "(h)**": 2149,
      "(Μ))": 2150,
      "(Μ)**": 2151,
      "(ν)/": 2152,
      "(D))": 2153,
      "(ε))": 2154,
      "(d)**": 2155,
      "(Ν)": 2156,
      "(Ν),": 2157,
      "(Δ))": 2158,
      "(ο)": 2159,
      "(ο)**": 2160,
      "(μ))": 2161,
      ")/(log(": 2162,
      "**Rational(5,": 2163,
      "/5)": 2164,
      "/5))": 2165,
      "14": 2166,
      "25": 2167,
      "42": 2168,
      "4**": 2169,
      "63": 2170,
      "7)**": 2171,
      "8γ": 2172,
      "8)),": 2173,
      "9i": 2174,
      "A*": 2175,
      "A2": 2176,
      "AI": 2177,
      "Aδ": 2178,
      "B)/": 2179,
      "C*": 2180,
      "Cω": 2181,
      "Dα": 2182,
      "E*": 2183,
      "GG": 2184,
      "GW": 2185,
      "Gη": 2186,
      "IL": 2187,
      "Jσ": 2188,
      "Kc": 2189,
      "LΟ": 2190,
      "L)/": 2191,
      "Mj": 2192,
      "Mk": 2193,
      "Ot": 2194,
      "Pψ": 2195,
      "QZ": 2196,
      "R*": 2197,
      "RΚ": 2198,
      "SΨ": 2199,
      "Tθ": 2200,
      "U)*": 2201,
      "Vψ": 2202,
      "V)/": 2203,
      "XH": 2204,
      "XΕ": 2205,
      "Y1": 2206,
      "ZF": 2207,
      "aa": 2208,
      "aΙ": 2209,
      "bΑ": 2210,
      "b)**": 2211,
      "c2": 2212,
      "c**": 2213,
      "fΒ": 2214,
      "f)))": 2215,
      "hb": 2216,
      "jW": 2217,
      "j)/": 2218,
      "k)/": 2219,
      "lV": 2220,
      "my": 2221,
      "nk": 2222,
      "o)*": 2223,
      "q5": 2224,
      "q_Β": 2225,
      "r9": 2226,
      "rα": 2227,
      "sK": 2228,
      "sW": 2229,
      "sZ": 2230,
      "u)/": 2231,
      "v)**": 2232,
      "wq": 2233,
      "wν": 2234,
      "zα": 2235,
      "zν": 2236,
      "z)**": 2237,
      "Ακ": 2238,
      "Α)/": 2239,
      "Β**": 2240,
      "Γ)/": 2241,
      "Δ)*": 2242,
      "Ευ": 2243,
      "Η)*": 2244,
      "Ι*": 2245,
      "ΙC": 2246,
      "ΚI": 2247,
      "Κτ": 2248,
      "Λμ": 2249,
      "Νυ": 2250,
      "Ν)*": 2251,
      "Ξc": 2252,
      "Οτ": 2253,
      "Ο)**": 2254,
      "ΠR": 2255,
      "Πl": 2256,
      "Π)/": 2257,
      "Ρ5": 2258,
      "ΡN": 2259,
      "ΡO": 2260,
      "Φg": 2261,
      "β8": 2262,
      "βj": 2263,
      "γ)**": 2264,
      "δ)**": 2265,
      "ζ*": 2266,
      "ζΡ": 2267,
      "ιC": 2268,
      "λM": 2269,
      "λΛ": 2270,
      "μ)*": 2271,
      "ξB": 2272,
      "ξG": 2273,
      "ξ)**": 2274,
      "ο9": 2275,
      "οF": 2276,
      "οY": 2277,
      "ρI": 2278,
      "σm": 2279,
      "σp": 2280,
      "σδ": 2281,
      "σξ": 2282,
      "χJ": 2283,
      "χh": 2284,
      "log(n_": 2285,
      "log(A_": 2286,
      "log(x_": 2287,
      ")**5,": 2288,
      ")**4)": 2289,
      "Derivative(9*": 2290,
      "Derivative(8*": 2291,
      "**4": 2292,
      "**5": 2293,
      "**3)": 2294,
      "**2))": 2295,
      "_ΒΧ": 2296,
      "F_h": 2297,
      "μ_ο": 2298,
      "X_a": 2299,
      "Υ_3": 2300,
      "Υ_6": 2301,
      "υ_Ρ": 2302,
      "q_Y": 2303,
      "r_Y": 2304,
      "E_λ": 2305,
      "s_T": 2306,
      ")/2)),": 2307,
      "u_P": 2308,
      "Ξ_μ": 2309,
      "(ι)/": 2310,
      "(n))": 2311,
      "(F)*": 2312,
      "(F)/": 2313,
      "(C)/": 2314,
      "(J)**": 2315,
      "(Z)**": 2316,
      "(L))": 2317,
      "(γ))": 2318,
      "(Ι)/": 2319,
      "(B)/": 2320,
      "(Ψ)/": 2321,
      "(Ο)": 2322,
      "(δ)/": 2323,
      "(λ))": 2324,
      "(W)**": 2325,
      "(Σ)**": 2326,
      "(Ζ))": 2327,
      "(D)*": 2328,
      "(σ)/": 2329,
      "(Ω)": 2330,
      "(X))": 2331,
      "(X),": 2332,
      "(X)/": 2333,
      "(Θ))": 2334,
      "(Θ)**": 2335,
      "(Γ)**": 2336,
      "(j))": 2337,
      "(Υ)**": 2338,
      "(z)**": 2339,
      "(μ)": 2340,
      ")/(5*": 2341,
      "6*sqrt(": 2342,
      "/8)": 2343,
      "1P": 2344,
      "1Β": 2345,
      "1Τ": 2346,
      "29": 2347,
      "2O": 2348,
      "2Ψ": 2349,
      "2)**": 2350,
      "3C": 2351,
      "3d": 2352,
      "3Δ": 2353,
      "40": 2354,
      "48": 2355,
      "4Ξ": 2356,
      "59": 2357,
      "65": 2358,
      "6Y": 2359,
      "6t": 2360,
      "6z": 2361,
      "6Γ": 2362,
      "6)**": 2363,
      "7φ": 2364,
      "7**": 2365,
      "8d": 2366,
      "8*log(": 2367,
      "9y": 2368,
      "9ζ": 2369,
      "AC": 2370,
      "B/": 2371,
      "Cδ": 2372,
      "EM": 2373,
      "E)*": 2374,
      "F2": 2375,
      "Fp": 2376,
      "Fω": 2377,
      "F)/": 2378,
      "F)**": 2379,
      "HX": 2380,
      "IP": 2381,
      "L1": 2382,
      "LΣ": 2383,
      "Mξ": 2384,
      "NH": 2385,
      "N)*": 2386,
      "OB": 2387,
      "P*": 2388,
      "Rγ": 2389,
      "Rη": 2390,
      "Sρ": 2391,
      "TK": 2392,
      "TΨ": 2393,
      "WK": 2394,
      "Wk": 2395,
      "W)/": 2396,
      "XD": 2397,
      "ZΔ": 2398,
      "Z)**": 2399,
      "bΙ": 2400,
      "c)/": 2401,
      "fβ": 2402,
      "f)/": 2403,
      "g*": 2404,
      "gΖ": 2405,
      "gλ": 2406,
      "hΚ": 2407,
      "h)/": 2408,
      "ig": 2409,
      "jr": 2410,
      "jν": 2411,
      "j)*": 2412,
      "kV": 2413,
      "kn": 2414,
      "l*": 2415,
      "ls": 2416,
      "l**(": 2417,
      "mΑ": 2418,
      "n_Β": 2419,
      "o3": 2420,
      "oj": 2421,
      "o)/": 2422,
      "pR": 2423,
      "pΡ": 2424,
      "q)/": 2425,
      "ry": 2426,
      "rΞ": 2427,
      "s*": 2428,
      "sΘ": 2429,
      "tT": 2430,
      "t)**": 2431,
      "t_Β": 2432,
      "uΕ": 2433,
      "vD": 2434,
      "vY": 2435,
      "vΑ": 2436,
      "vΘ": 2437,
      "v)/": 2438,
      "w*": 2439,
      "xη": 2440,
      "yΡ": 2441,
      "zo": 2442,
      "ΑI": 2443,
      "Αξ": 2444,
      "Α)**": 2445,
      "ΓΑ": 2446,
      "ΔF": 2447,
      "Δf": 2448,
      "Δ)/": 2449,
      "Ε)**": 2450,
      "Ζz": 2451,
      "Ζβ": 2452,
      "Ζ)*": 2453,
      "Ζ_Β": 2454,
      "ΗΞ": 2455,
      "Η)**": 2456,
      "ΚN": 2457,
      "Λ/": 2458,
      "ΜN": 2459,
      "Νv": 2460,
      "Ξf": 2461,
      "Ξ)/": 2462,
      "ΟU": 2463,
      "Πd": 2464,
      "Πs": 2465,
      "Πy": 2466,
      "Πβ": 2467,
      "Πψ": 2468,
      "Ρω": 2469,
      "ΣS": 2470,
      "Σκ": 2471,
      "Τι": 2472,
      "Φ*": 2473,
      "Φz": 2474,
      "Χ/": 2475,
      "Χσ": 2476,
      "Ψ5": 2477,
      "Ψ)*": 2478,
      "Ωι": 2479,
      "αθ": 2480,
      "βΖ": 2481,
      "βσ": 2482,
      "β)/": 2483,
      "β)**": 2484,
      "γj": 2485,
      "δZ": 2486,
      "δΝ": 2487,
      "ε)**": 2488,
      "ζΙ": 2489,
      "ζ)/": 2490,
      "ζ**": 2491,
      "η4": 2492,
      "ηE": 2493,
      "ηP": 2494,
      "θ)/": 2495,
      "ιn": 2496,
      "ιΜ": 2497,
      "ιζ": 2498,
      "κθ": 2499,
      "κ)**": 2500,
      "λk": 2501,
      "λΒ": 2502,
      "μQ": 2503,
      "μY": 2504,
      "μλ": 2505,
      "νE": 2506,
      "νQ": 2507,
      "νg": 2508,
      "ξ)/": 2509,
      "ρδ": 2510,
      "ρ)**": 2511,
      "υz": 2512,
      "φT": 2513,
      "φ)*": 2514,
      "ψg": 2515,
      "ψw": 2516,
      "ψz": 2517,
      "ωh": 2518,
      "log(ν_": 2519,
      "log(E_": 2520,
      "log(Μ_": 2521,
      "sqrt(Θ": 2522,
      "sqrt(δ_": 2523,
      "_ΒΩ": 2524,
      "Z_Z": 2525,
      "h_F": 2526,
      "h_h": 2527,
      "ξ_Ξ": 2528,
      "f_o": 2529,
      "f_Η": 2530,
      "Η_Ω": 2531,
      "X_Σ": 2532,
      "τ_H": 2533,
      "G_4": 2534,
      "Κ_Τ": 2535,
      "A_Z": 2536,
      "κ_t": 2537,
      "ψ_F": 2538,
      "Σ_ι": 2539,
      "U_l": 2540,
      "Y_q": 2541,
      "Ξ_ψ": 2542,
      "Ε_α": 2543,
      "(Β)**": 2544,
      "ζ_Ι": 2545,
      "(R*": 2546,
      "(R))": 2547,
      "(g)/": 2548,
      "(A)/": 2549,
      "(i))": 2550,
      "(i)/": 2551,
      "(t)/": 2552,
      "(q)**": 2553,
      "(Z)/": 2554,
      "(Ξ**": 2555,
      "(L)*": 2556,
      "(L)**": 2557,
      "(Ε))": 2558,
      "(Ε)*": 2559,
      "(Ε)/": 2560,
      "(y)*": 2561,
      "(Ι)**": 2562,
      "(Π)**": 2563,
      "(B)*": 2564,
      "(Τ)/": 2565,
      "(U)/": 2566,
      "(c))": 2567,
      "(c)*": 2568,
      "H_ε": 2569,
      "(l)**": 2570,
      "(k)": 2571,
      "(k)**": 2572,
      "(Κ)*": 2573,
      "(V)": 2574,
      "(κ))": 2575,
      "(T)**": 2576,
      "(Ζ)*": 2577,
      "(η)**": 2578,
      "(D)/": 2579,
      "(σ))": 2580,
      "(Φ))": 2581,
      "(Φ)**": 2582,
      "Β_Ρ": 2583,
      "(r)**": 2584,
      "(ξ)**": 2585,
      "(M))": 2586,
      "(Γ))": 2587,
      "(p)*": 2588,
      "(p)/": 2589,
      "(θ)": 2590,
      "/6),": 2591,
      "13": 2592,
      "1S": 2593,
      "1Ε": 2594,
      "1ν": 2595,
      "2B": 2596,
      "2Z": 2597,
      "2)),": 2598,
      "3/": 2599,
      "3Ω": 2600,
      "3)/": 2601,
      "3)),": 2602,
      "4Μ": 2603,
      "5L": 2604,
      "5V": 2605,
      "5Γ": 2606,
      "6O": 2607,
      "6n": 2608,
      "6η": 2609,
      "6)),": 2610,
      "7/": 2611,
      "7*log(": 2612,
      "81": 2613,
      "8S": 2614,
      "8s": 2615,
      "8w": 2616,
      "9A": 2617,
      "9D": 2618,
      "9P": 2619,
      "9c": 2620,
      "9Μ": 2621,
      "9)**": 2622,
      "AL": 2623,
      "AΗ": 2624,
      "Aζ": 2625,
      "BS": 2626,
      "Bh": 2627,
      "C6": 2628,
      "CS": 2629,
      "C)*": 2630,
      "C)/": 2631,
      "C**": 2632,
      "DΞ": 2633,
      "DΠ": 2634,
      "D)/": 2635,
      "EK": 2636,
      "EΚ": 2637,
      "Eθ": 2638,
      "F*": 2639,
      "FV": 2640,
      "FΚ": 2641,
      "F**": 2642,
      "G5": 2643,
      "GO": 2644,
      "GT": 2645,
      "Gω": 2646,
      "Hn": 2647,
      "HΥ": 2648,
      "Hλ": 2649,
      "IU": 2650,
      "IΝ": 2651,
      "J*": 2652,
      "J3": 2653,
      "Jt": 2654,
      "JΖ": 2655,
      "JΝ": 2656,
      "KA": 2657,
      "KL": 2658,
      "KΧ": 2659,
      "Kφ": 2660,
      "K)**": 2661,
      "Lb": 2662,
      "LΒ": 2663,
      "LΝ": 2664,
      "LΨ": 2665,
      "Mθ": 2666,
      "Nk": 2667,
      "Nρ": 2668,
      "Nυ": 2669,
      "OW": 2670,
      "Ob": 2671,
      "Ok": 2672,
      "Oψ": 2673,
      "O_Β": 2674,
      "PΞ": 2675,
      "Pθ": 2676,
      "QB": 2677,
      "Qy": 2678,
      "QΓ": 2679,
      "QΔ": 2680,
      "QΤ": 2681,
      "Rs": 2682,
      "Rθ": 2683,
      "Sg": 2684,
      "SΟ": 2685,
      "TE": 2686,
      "TW": 2687,
      "TΚ": 2688,
      "TΟ": 2689,
      "Tψ": 2690,
      "U/": 2691,
      "U4": 2692,
      "Ud": 2693,
      "UΨ": 2694,
      "VΗ": 2695,
      "VΜ": 2696,
      "WH": 2697,
      "Wn": 2698,
      "WΕ": 2699,
      "Wν": 2700,
      "W)**": 2701,
      "W**": 2702,
      "XO": 2703,
      "YA": 2704,
      "Yr": 2705,
      "Yy": 2706,
      "YΕ": 2707,
      "Z4": 2708,
      "ZΓ": 2709,
      "a4": 2710,
      "a)**": 2711,
      "b*": 2712,
      "bG": 2713,
      "bO": 2714,
      "bU": 2715,
      "bΛ": 2716,
      "bΡ": 2717,
      "cγ": 2718,
      "cμ": 2719,
      "dJ": 2720,
      "dP": 2721,
      "f/": 2722,
      "gS": 2723,
      "gy": 2724,
      "gψ": 2725,
      "g**(": 2726,
      "hG": 2727,
      "h)*": 2728,
      "iG": 2729,
      "i)*": 2730,
      "i)/": 2731,
      "i**": 2732,
      "ju": 2733,
      "jΟ": 2734,
      "kΛ": 2735,
      "lB": 2736,
      "lΗ": 2737,
      "lψ": 2738,
      "l)/": 2739,
      "mI": 2740,
      "mT": 2741,
      "mδ": 2742,
      "n*": 2743,
      "o*": 2744,
      "p*": 2745,
      "pk": 2746,
      "qτ": 2747,
      "q)**": 2748,
      "rh": 2749,
      "rδ": 2750,
      "rσ": 2751,
      "sx": 2752,
      "sδ": 2753,
      "tζ": 2754,
      "uΔ": 2755,
      "uΗ": 2756,
      "uΛ": 2757,
      "uω": 2758,
      "u)**": 2759,
      "vΔ": 2760,
      "vΦ": 2761,
      "wD": 2762,
      "w)/": 2763,
      "xω": 2764,
      "yΜ": 2765,
      "yΧ": 2766,
      "y)/": 2767,
      "y)**": 2768,
      "zC": 2769,
      "zK": 2770,
      "zS": 2771,
      "Αν": 2772,
      "ΓI": 2773,
      "ΓL": 2774,
      "Γ**": 2775,
      "Δw": 2776,
      "ΖΚ": 2777,
      "Ηη": 2778,
      "Θh": 2779,
      "Θq": 2780,
      "ΘΑ": 2781,
      "ΘΦ": 2782,
      "Θ)**": 2783,
      "ΙY": 2784,
      "Κ*": 2785,
      "Κo": 2786,
      "Λω": 2787,
      "Λ)*": 2788,
      "Νb": 2789,
      "Ξ*": 2790,
      "Ξq": 2791,
      "Ξθ": 2792,
      "Ο*": 2793,
      "Οδ": 2794,
      "ΠΘ": 2795,
      "Πχ": 2796,
      "Π)**": 2797,
      "Σμ": 2798,
      "Σω": 2799,
      "Τ/": 2800,
      "ΤΟ": 2801,
      "Τ)**": 2802,
      "Υ5": 2803,
      "ΦJ": 2804,
      "Φd": 2805,
      "Φf": 2806,
      "ΦΝ": 2807,
      "Φ)/": 2808,
      "Φ**": 2809,
      "ΧE": 2810,
      "Χr": 2811,
      "Ψ7": 2812,
      "Ω2": 2813,
      "Ω9": 2814,
      "ΩY": 2815,
      "ΩΥ": 2816,
      "αΞ": 2817,
      "αΦ": 2818,
      "β*": 2819,
      "βl": 2820,
      "βs": 2821,
      "β**": 2822,
      "γx": 2823,
      "δΟ": 2824,
      "εm": 2825,
      "εφ": 2826,
      "ε)/": 2827,
      "ζX": 2828,
      "ζb": 2829,
      "ζm": 2830,
      "ζv": 2831,
      "ηL": 2832,
      "θV": 2833,
      "θl": 2834,
      "θΓ": 2835,
      "θτ": 2836,
      "θ)**": 2837,
      "ιM": 2838,
      "ιf": 2839,
      "ιΒ": 2840,
      "λε": 2841,
      "λ)/": 2842,
      "μZ": 2843,
      "μΑ": 2844,
      "νT": 2845,
      "νΒ": 2846,
      "ξS": 2847,
      "ξΛ": 2848,
      "οq": 2849,
      "οw": 2850,
      "οΒ": 2851,
      "ογ": 2852,
      "οι": 2853,
      "ργ": 2854,
      "σ*": 2855,
      "σV": 2856,
      "σr": 2857,
      "σ**": 2858,
      "τ/": 2859,
      "τd": 2860,
      "τμ": 2861,
      "υG": 2862,
      "υT": 2863,
      "φE": 2864,
      "φf": 2865,
      "φj": 2866,
      "φΠ": 2867,
      "φδ": 2868,
      "φ**(": 2869,
      "χ/": 2870,
      "χ3": 2871,
      "χΨ": 2872,
      "χυ": 2873,
      "χ**": 2874,
      "ψ*": 2875,
      "ψ/": 2876,
      "ψQ": 2877,
      "ω/": 2878,
      "ωO": 2879,
      "log(f": 2880,
      "log(Ι": 2881,
      "log(h_": 2882,
      "log(ξ_": 2883,
      "log(ε_": 2884,
      "log(Ρ_": 2885,
      "log(Φ_": 2886,
      "log(ρ_": 2887,
      "log(N_": 2888,
      "log(4*": 2889,
      "sqrt(M": 2890,
      "sqrt(5)*sqrt(": 2891,
      "Sum(6*": 2892,
      "Derivative(7*": 2893,
      "**5),": 2894,
      "_ΒU": 2895,
      "_Βr": 2896,
      "_ΒΤ": 2897,
      "_ΒΥ": 2898,
      "Q_η": 2899,
      "ξ_n": 2900,
      "Π_Z": 2901,
      "Π_Υ": 2902,
      "n_B": 2903,
      "n_V": 2904,
      "T_y": 2905,
      "f_Τ": 2906,
      "Η_V": 2907,
      "Υ_τ": 2908,
      "τ_w": 2909,
      "γ_c": 2910,
      "γ_h": 2911,
      "Κ_b": 2912,
      "υ_R": 2913,
      "Ο_ο": 2914,
      "J_3": 2915,
      "J_E": 2916,
      "J_R": 2917,
      "ε_R": 2918,
      "q_A": 2919,
      "Ρ_B": 2920,
      "R_ρ": 2921,
      "L_L": 2922,
      "L_X": 2923,
      "Λ_p": 2924,
      "Λ_Η": 2925,
      "Γ_k": 2926,
      "ψ_Ε": 2927,
      "Σ_9": 2928,
      "E_V": 2929,
      "E_q": 2930,
      "Χ_Κ": 2931,
      "K_ρ": 2932,
      "k_E": 2933,
      "k_η": 2934,
      "t_b": 2935,
      "σ_5": 2936,
      "σ_Ι": 2937,
      "Α_m": 2938,
      "Α_φ": 2939,
      "p_K": 2940,
      "z_C": 2941,
      "b_L": 2942,
      "Y_t": 2943,
      "θ_K": 2944,
      "θ_S": 2945,
      "S_Ι": 2946,
      "Ζ_n": 2947,
      "V_ω": 2948,
      "(H)/": 2949,
      "(φ)/": 2950,
      "(o**": 2951,
      "ζ_ξ": 2952,
      ")/sqrt(-": 2953,
      "(R/": 2954,
      "(R)/": 2955,
      "(g)**": 2956,
      "(n)/": 2957,
      "(C*": 2958,
      "(C)**": 2959,
      "(t)*": 2960,
      "(P)*": 2961,
      "(Λ)/": 2962,
      "m_Ρ": 2963,
      "m_Σ": 2964,
      "(Ξ)*": 2965,
      "(Ξ)**": 2966,
      "(L)/": 2967,
      "(ρ)*": 2968,
      "(y))": 2969,
      "(Π))": 2970,
      "(Π)*": 2971,
      "(Y*": 2972,
      "(Y)*": 2973,
      "(l)*": 2974,
      "(l)/": 2975,
      "(k*": 2976,
      "(K)**": 2977,
      "(G))": 2978,
      "(G)*": 2979,
      "(h)/": 2980,
      "(Μ)/": 2981,
      "(ν)*": 2982,
      "(τ)**": 2983,
      "(ω))": 2984,
      "(ω)/": 2985,
      "(Ρ))": 2986,
      "(σ)**": 2987,
      "(Φ/": 2988,
      "o_Ν": 2989,
      "(d/": 2990,
      "(Η)**": 2991,
      "(j)**": 2992,
      "(p))": 2993,
      "(Υ),": 2994,
      "(Υ)/": 2995,
      "(z)/": 2996,
      "'μ_ο": 2997,
      "(μ)/": 2998,
      "(μ)**": 2999,
      "(μ**": 3000,
      ")/(2*": 3001,
      ")/(4*": 3002,
      ")/(6*": 3003,
      "8*sqrt(": 3004,
      "**Rational(7,": 3005,
      "-2": 3006,
      "-9": 3007,
      "/3)": 3008,
      "/2)*": 3009,
      "/3)*": 3010,
      "10": 3011,
      "15": 3012,
      "16": 3013,
      "1A": 3014,
      "1V": 3015,
      "1h": 3016,
      "1i": 3017,
      "1Ν": 3018,
      "1ε": 3019,
      "2/": 3020,
      "27": 3021,
      "2s": 3022,
      "3H": 3023,
      "3q": 3024,
      "3ζ": 3025,
      "4/": 3026,
      "4K": 3027,
      "4i": 3028,
      "4Α": 3029,
      "4Π": 3030,
      "5)*log(": 3031,
      "6R": 3032,
      "6S": 3033,
      "6Η": 3034,
      "6*log(": 3035,
      "7Ε": 3036,
      "7Κ": 3037,
      "7Π": 3038,
      "7α": 3039,
      "7)/": 3040,
      "8/": 3041,
      "8Υ": 3042,
      "8η": 3043,
      "93": 3044,
      "AΓ": 3045,
      "Aφ": 3046,
      "Aψ": 3047,
      "BC": 3048,
      "BU": 3049,
      "Bf": 3050,
      "BΞ": 3051,
      "B)**": 3052,
      "CM": 3053,
      "CQ": 3054,
      "Cq": 3055,
      "Cτ": 3056,
      "Cυ": 3057,
      "DA": 3058,
      "DF": 3059,
      "DG": 3060,
      "DH": 3061,
      "DΔ": 3062,
      "DΦ": 3063,
      "Dζ": 3064,
      "Dρ": 3065,
      "Dυ": 3066,
      "ED": 3067,
      "EJ": 3068,
      "EO": 3069,
      "Eh": 3070,
      "Eγ": 3071,
      "FY": 3072,
      "FΣ": 3073,
      "G*": 3074,
      "G4": 3075,
      "GU": 3076,
      "GΞ": 3077,
      "GΥ": 3078,
      "G)/": 3079,
      "H*": 3080,
      "H/": 3081,
      "HD": 3082,
      "H)**": 3083,
      "IΜ": 3084,
      "I)*": 3085,
      "J5": 3086,
      "JU": 3087,
      "Jg": 3088,
      "Jy": 3089,
      "Jχ": 3090,
      "K*": 3091,
      "Ki": 3092,
      "KΓ": 3093,
      "Kο": 3094,
      "L*": 3095,
      "L5": 3096,
      "L7": 3097,
      "LN": 3098,
      "Lξ": 3099,
      "Ml": 3100,
      "MΔ": 3101,
      "M_Β": 3102,
      "N5": 3103,
      "N6": 3104,
      "Nε": 3105,
      "Nμ": 3106,
      "OΡ": 3107,
      "Pb": 3108,
      "Pα": 3109,
      "P)/": 3110,
      "P)**": 3111,
      "QL": 3112,
      "QQ": 3113,
      "Qv": 3114,
      "Qx": 3115,
      "QΛ": 3116,
      "Ra": 3117,
      "RΖ": 3118,
      "SD": 3119,
      "SI": 3120,
      "Sy": 3121,
      "Sz": 3122,
      "SΔ": 3123,
      "SΩ": 3124,
      "U6": 3125,
      "Uc": 3126,
      "VΝ": 3127,
      "Vο": 3128,
      "W7": 3129,
      "Wl": 3130,
      "WΡ": 3131,
      "X1": 3132,
      "XL": 3133,
      "XV": 3134,
      "XΔ": 3135,
      "XΛ": 3136,
      "XΩ": 3137,
      "Xρ": 3138,
      "X**": 3139,
      "YS": 3140,
      "YU": 3141,
      "YΘ": 3142,
      "Yμ": 3143,
      "Y**(": 3144,
      "ZΙ": 3145,
      "ZΞ": 3146,
      "Z**": 3147,
      "Z)),": 3148,
      "a/": 3149,
      "aH": 3150,
      "aI": 3151,
      "aO": 3152,
      "aS": 3153,
      "af": 3154,
      "aq": 3155,
      "aΩ": 3156,
      "aθ": 3157,
      "a)/": 3158,
      "bΞ": 3159,
      "cR": 3160,
      "cβ": 3161,
      "cο": 3162,
      "d8": 3163,
      "dl": 3164,
      "dr": 3165,
      "d)**": 3166,
      "d**": 3167,
      "fD": 3168,
      "fT": 3169,
      "fχ": 3170,
      "fψ": 3171,
      "gφ": 3172,
      "hU": 3173,
      "hΕ": 3174,
      "hζ": 3175,
      "hρ": 3176,
      "i/": 3177,
      "iE": 3178,
      "id": 3179,
      "iζ": 3180,
      "iκ": 3181,
      "i)**": 3182,
      "j5": 3183,
      "jO": 3184,
      "jR": 3185,
      "jY": 3186,
      "jz": 3187,
      "jδ": 3188,
      "k/": 3189,
      "kΞ": 3190,
      "kε": 3191,
      "k)**": 3192,
      "lO": 3193,
      "lj": 3194,
      "lp": 3195,
      "lΘ": 3196,
      "lΙ": 3197,
      "lΧ": 3198,
      "lσ": 3199,
      "l)*log(": 3200,
      "mΤ": 3201,
      "m)**": 3202,
      "m**": 3203,
      "nx": 3204,
      "oZ": 3205,
      "op": 3206,
      "p/": 3207,
      "pQ": 3208,
      "qr": 3209,
      "qΒ": 3210,
      "qΕ": 3211,
      "qΛ": 3212,
      "qΝ": 3213,
      "q**": 3214,
      "rR": 3215,
      "rd": 3216,
      "rΠ": 3217,
      "sO": 3218,
      "sΗ": 3219,
      "sΙ": 3220,
      "tV": 3221,
      "tΒ": 3222,
      "tΕ": 3223,
      "tΖ": 3224,
      "tΥ": 3225,
      "u*": 3226,
      "u**": 3227,
      "vS": 3228,
      "vΜ": 3229,
      "wT": 3230,
      "wZ": 3231,
      "wΓ": 3232,
      "wΥ": 3233,
      "wυ": 3234,
      "x4": 3235,
      "xO": 3236,
      "xR": 3237,
      "xW": 3238,
      "xr": 3239,
      "xΝ": 3240,
      "xμ": 3241,
      "zM": 3242,
      "zP": 3243,
      "zr": 3244,
      "zΨ": 3245,
      "zΩ": 3246,
      "zγ": 3247,
      "ΑΞ": 3248,
      "Αθ": 3249,
      "ΓN": 3250,
      "ΓY": 3251,
      "Δ/": 3252,
      "ΔΔ": 3253,
      "Δ)**": 3254,
      "Ε*": 3255,
      "ΕΒ": 3256,
      "Ζ*": 3257,
      "Ζ8": 3258,
      "ΖA": 3259,
      "ΖG": 3260,
      "ΖO": 3261,
      "Ζl": 3262,
      "Ζx": 3263,
      "ΖΒ": 3264,
      "ΖΧ": 3265,
      "Ζι": 3266,
      "Η*": 3267,
      "Ηb": 3268,
      "Ηg": 3269,
      "ΗΛ": 3270,
      "Θ*": 3271,
      "Θξ": 3272,
      "Θρ": 3273,
      "Ιf": 3274,
      "Ιε": 3275,
      "Κi": 3276,
      "Κγ": 3277,
      "Λl": 3278,
      "Λψ": 3279,
      "Μn": 3280,
      "Μw": 3281,
      "Μτ": 3282,
      "Ν5": 3283,
      "ΝY": 3284,
      "Ν**": 3285,
      "ΞΟ": 3286,
      "Ξκ": 3287,
      "Ο4": 3288,
      "Ο5": 3289,
      "ΟΕ": 3290,
      "Οα": 3291,
      "Οσ": 3292,
      "ΠK": 3293,
      "Πh": 3294,
      "ΠΣ": 3295,
      "Ρ/": 3296,
      "Ρd": 3297,
      "Ρ)/": 3298,
      "Σ*": 3299,
      "Σv": 3300,
      "Σλ": 3301,
      "Σ)**": 3302,
      "Τ8": 3303,
      "ΤR": 3304,
      "Τc": 3305,
      "Τβ": 3306,
      "ΥΞ": 3307,
      "Υ_Β": 3308,
      "Φ3": 3309,
      "ΦO": 3310,
      "ΦT": 3311,
      "ΦΙ": 3312,
      "ΦΜ": 3313,
      "Χ4": 3314,
      "Χp": 3315,
      "Χ**": 3316,
      "Χ_Β": 3317,
      "ΨΧ": 3318,
      "Ψι": 3319,
      "ΩG": 3320,
      "ΩT": 3321,
      "Ωp": 3322,
      "Ωζ": 3323,
      "αq": 3324,
      "α)**": 3325,
      "β/": 3326,
      "βV": 3327,
      "βΓ": 3328,
      "βι": 3329,
      "γ1": 3330,
      "γ3": 3331,
      "γ5": 3332,
      "γγ": 3333,
      "δ*": 3334,
      "δΑ": 3335,
      "δΚ": 3336,
      "δχ": 3337,
      "ε8": 3338,
      "εΤ": 3339,
      "ε**": 3340,
      "ζh": 3341,
      "ζΥ": 3342,
      "η/": 3343,
      "η7": 3344,
      "ηΓ": 3345,
      "ηΠ": 3346,
      "η_Β": 3347,
      "θ*": 3348,
      "θx": 3349,
      "θΤ": 3350,
      "θσ": 3351,
      "θψ": 3352,
      "ιQ": 3353,
      "ιW": 3354,
      "ιΦ": 3355,
      "ι)/": 3356,
      "ι)**": 3357,
      "κ4": 3358,
      "κB": 3359,
      "κN": 3360,
      "κO": 3361,
      "κW": 3362,
      "κu": 3363,
      "κv": 3364,
      "κΛ": 3365,
      "κΨ": 3366,
      "λ9": 3367,
      "λΑ": 3368,
      "λΠ": 3369,
      "λθ": 3370,
      "λν": 3371,
      "μ7": 3372,
      "μb": 3373,
      "μn": 3374,
      "μx": 3375,
      "μΕ": 3376,
      "μΝ": 3377,
      "μΨ": 3378,
      "μΩ": 3379,
      "μυ": 3380,
      "μ)/": 3381,
      "ν5": 3382,
      "ν7": 3383,
      "νw": 3384,
      "νΚ": 3385,
      "νΧ": 3386,
      "νε": 3387,
      "ξY": 3388,
      "ξr": 3389,
      "ξδ": 3390,
      "ξθ": 3391,
      "ξφ": 3392,
      "οJ": 3393,
      "οζ": 3394,
      "ρΕ": 3395,
      "ρφ": 3396,
      "ρψ": 3397,
      "σD": 3398,
      "σU": 3399,
      "σΧ": 3400,
      "ση": 3401,
      "σ)*log(": 3402,
      "τp": 3403,
      "τι": 3404,
      "τν": 3405,
      "υ3": 3406,
      "υM": 3407,
      "υφ": 3408,
      "υ)**": 3409,
      "φW": 3410,
      "φh": 3411,
      "φκ": 3412,
      "φ**": 3413,
      "χL": 3414,
      "χj": 3415,
      "χΓ": 3416,
      "ψP": 3417,
      "ψY": 3418,
      "ωΚ": 3419,
      "ωΠ": 3420,
      "ωη": 3421,
      "ωφ": 3422,
      "log(s": 3423,
      "log(Μ": 3424,
      "log(F_": 3425,
      "log(q_": 3426,
      "log(g_": 3427,
      "log(z_": 3428,
      "log(M_": 3429,
      "log(j_": 3430,
      "log(Ε_": 3431,
      "log(Β_": 3432,
      "log(D)": 3433,
      "sqrt(ξ_": 3434,
      "sqrt(Θ_": 3435,
      "sqrt(T_": 3436,
      "sqrt(Δ_": 3437,
      "sqrt(C_": 3438,
      "sqrt(m_": 3439,
      "sqrt(w)": 3440,
      "sqrt(Z)": 3441,
      "sqrt(γ)": 3442,
      "sqrt(Ω)": 3443,
      "sqrt(Ε)*": 3444,
      "sqrt(6)*sqrt(": 3445,
      "sqrt(7)*sqrt(": 3446,
      "Sum(2*": 3447,
      "Sum(3*": 3448,
      "Sum(7*": 3449,
      "Sum(5*": 3450,
      "Derivative(h_": 3451,
      "Integral(1": 3452,
      "Integral(5*": 3453,
      "_Β)": 3454,
      "_ΒG": 3455,
      "_ΒZ": 3456,
      "_Βd": 3457,
      "_Ββ": 3458,
      "Q_σ": 3459,
      "Z_y": 3460,
      "F_Κ": 3461,
      "h_A": 3462,
      "h_s": 3463,
      "h_χ": 3464,
      "Π_r": 3465,
      "n_η": 3466,
      "μ_2": 3467,
      "μ_I": 3468,
      "Θ_F": 3469,
      "Θ_d": 3470,
      "Θ_h": 3471,
      "Θ_u": 3472,
      "Θ_Λ": 3473,
      "X_χ": 3474,
      "Υ_Q": 3475,
      "τ_α": 3476,
      "ν_W": 3477,
      "G_6": 3478,
      "G_X": 3479,
      "G_γ": 3480,
      "a_Μ": 3481,
      "a_β": 3482,
      "υ_r": 3483,
      "υ_Ο": 3484,
      "υ_ο": 3485,
      "y_v": 3486,
      "W_8": 3487,
      "Δ_ψ": 3488,
      "l_8": 3489,
      "A_μ": 3490,
      "ε_X": 3491,
      "ε_c": 3492,
      "ε_Ψ": 3493,
      "C_T": 3494,
      "C_κ": 3495,
      "C_ξ": 3496,
      "Ι_r": 3497,
      "Ρ_T": 3498,
      "Ρ_u": 3499,
      "Ρ_μ": 3500,
      "I_o": 3501,
      "I_x": 3502,
      "g_n": 3503,
      "χ_W": 3504,
      "Λ_U": 3505,
      "Λ_Λ": 3506,
      "Γ_Ε": 3507,
      "Γ_ο": 3508,
      "r_Λ": 3509,
      "Σ_Ω": 3510,
      "E_H": 3511,
      "E_Χ": 3512,
      "α_η": 3513,
      "k_d": 3514,
      "k_q": 3515,
      "σ_Y": 3516,
      "i_h": 3517,
      "Α_5": 3518,
      "Α_t": 3519,
      "Α_u": 3520,
      "c_g": 3521,
      "s_Η": 3522,
      "z_Α": 3523,
      "z_ο": 3524,
      "D_ψ": 3525,
      "b_S": 3526,
      "b_u": 3527,
      "Y_ε": 3528,
      "Y_θ": 3529,
      "Ψ_Ψ": 3530,
      "θ_y": 3531,
      "Ω_9": 3532,
      "O_3": 3533,
      "O_ξ": 3534,
      "δ_J": 3535,
      "δ_W": 3536,
      "λ_M": 3537,
      "Ζ_2": 3538,
      "Ζ_J": 3539,
      "P_n": 3540,
      "(m)/": 3541,
      "(ι)*": 3542,
      ")**(sqrt(-": 3543,
      "(R)": 3544,
      "(g)*": 3545,
      "(A*": 3546,
      "(A))": 3547,
      "(A)*": 3548,
      "(f)/": 3549,
      "(i)*": 3550,
      "(t)**": 3551,
      "(q)*": 3552,
      "(Λ**": 3553,
      "(J*": 3554,
      "(J)*": 3555,
      "(s)/": 3556,
      "(a)/": 3557,
      "(α)/": 3558,
      "(y)/": 3559,
      "(Π)/": 3560,
      "(Y)**": 3561,
      "(Τ)*": 3562,
      "(Χ)/": 3563,
      "(U)**": 3564,
      "H_Ω": 3565,
      "(W))": 3566,
      "(W)*": 3567,
      "(W)/": 3568,
      "(k)/": 3569,
      "(Σ))": 3570,
      "(K))": 3571,
      "(h*": 3572,
      "(Μ)*": 3573,
      "(κ)/": 3574,
      "(T)/": 3575,
      "(Ρ)/": 3576,
      "φ_5": 3577,
      "φ_c": 3578,
      "(u)*": 3579,
      "(β)/": 3580,
      "o_F": 3581,
      "Β_Σ": 3582,
      "Β_ξ": 3583,
      "(ε)*": 3584,
      "(ζ)/": 3585,
      "(Ν)*": 3586,
      "(Ν)**": 3587,
      "(b*": 3588,
      "(b)*": 3589,
      "(b)/": 3590,
      "(w)": 3591,
      "(E/": 3592,
      "(E)*": 3593,
      ")/(3*": 3594,
      "(μ_ο": 3595,
      "-sqrt(2)*sqrt(": 3596,
      "*ζ)": 3597,
      "-1": 3598,
      "-3": 3599,
      "-4": 3600,
      "/8": 3601,
      "/ε_": 3602,
      "/3))": 3603,
      "1)*log(": 3604,
      "1)),": 3605,
      "21": 3606,
      "22": 3607,
      "2C": 3608,
      "2V": 3609,
      "2d": 3610,
      "2g": 3611,
      "2δ": 3612,
      "38": 3613,
      "3b": 3614,
      "3Μ": 3615,
      "3Τ": 3616,
      "3)/sqrt(": 3617,
      "43": 3618,
      "4F": 3619,
      "4S": 3620,
      "4X": 3621,
      "4m": 3622,
      "4Β": 3623,
      "4Θ": 3624,
      "4Τ": 3625,
      "4ξ": 3626,
      "5/": 3627,
      "53": 3628,
      "5B": 3629,
      "5N": 3630,
      "5i": 3631,
      "5m": 3632,
      "5ρ": 3633,
      "61": 3634,
      "6J": 3635,
      "6P": 3636,
      "6Q": 3637,
      "6v": 3638,
      "6**log(": 3639,
      "72": 3640,
      "74": 3641,
      "7W": 3642,
      "7Θ": 3643,
      "7Ν": 3644,
      "7ε": 3645,
      "8M": 3646,
      "8Δ": 3647,
      "8ζ": 3648,
      "96": 3649,
      "9a": 3650,
      "9j": 3651,
      "9l": 3652,
      "9τ": 3653,
      "9)),": 3654,
      "9*log(": 3655,
      "A7": 3656,
      "AF": 3657,
      "A**": 3658,
      "B*": 3659,
      "Bd": 3660,
      "Bs": 3661,
      "Bρ": 3662,
      "DO": 3663,
      "DW": 3664,
      "Dw": 3665,
      "DΓ": 3666,
      "DΡ": 3667,
      "Dφ": 3668,
      "ET": 3669,
      "Em": 3670,
      "Eα": 3671,
      "FG": 3672,
      "FΟ": 3673,
      "F)*log(": 3674,
      "Gb": 3675,
      "Gj": 3676,
      "Gq": 3677,
      "Gu": 3678,
      "GΘ": 3679,
      "Gψ": 3680,
      "HΑ": 3681,
      "Hρ": 3682,
      "H**": 3683,
      "I4": 3684,
      "Ic": 3685,
      "Ik": 3686,
      "IΕ": 3687,
      "IΖ": 3688,
      "J7": 3689,
      "JH": 3690,
      "Jξ": 3691,
      "Jω": 3692,
      "J)**": 3693,
      "KΗ": 3694,
      "KΩ": 3695,
      "L9": 3696,
      "LC": 3697,
      "LP": 3698,
      "LU": 3699,
      "Lg": 3700,
      "LΓ": 3701,
      "LΘ": 3702,
      "LΚ": 3703,
      "LΝ'": 3704,
      "M*": 3705,
      "M6": 3706,
      "Mn": 3707,
      "MΑ": 3708,
      "Mα": 3709,
      "N8": 3710,
      "NC": 3711,
      "Ns": 3712,
      "Nu": 3713,
      "NΚ": 3714,
      "OZ": 3715,
      "On": 3716,
      "Or": 3717,
      "Ow": 3718,
      "OΚ": 3719,
      "O)/": 3720,
      "P1": 3721,
      "P6": 3722,
      "PD": 3723,
      "PQ": 3724,
      "Pl": 3725,
      "PΒ": 3726,
      "Q6": 3727,
      "QΨ": 3728,
      "Qμ": 3729,
      "RO": 3730,
      "RΝ": 3731,
      "Rσ": 3732,
      "R_Β": 3733,
      "S2": 3734,
      "SM": 3735,
      "SQ": 3736,
      "Sx": 3737,
      "TA": 3738,
      "TR": 3739,
      "TY": 3740,
      "Tp": 3741,
      "TΝ": 3742,
      "Us": 3743,
      "UΔ": 3744,
      "Uν": 3745,
      "U)**": 3746,
      "V*": 3747,
      "VO": 3748,
      "VU": 3749,
      "Vg": 3750,
      "VΩ": 3751,
      "Vρ": 3752,
      "Vω": 3753,
      "W*": 3754,
      "Wg": 3755,
      "WΒ": 3756,
      "Wλ": 3757,
      "X*": 3758,
      "XΖ": 3759,
      "Xμ": 3760,
      "Xσ": 3761,
      "Y*": 3762,
      "YJ": 3763,
      "YQ": 3764,
      "YΚ": 3765,
      "Y**": 3766,
      "Y_Β": 3767,
      "Z*": 3768,
      "ZR": 3769,
      "Z)/": 3770,
      "aM": 3771,
      "aV": 3772,
      "aX": 3773,
      "ad": 3774,
      "aβ": 3775,
      "aγ": 3776,
      "aδ": 3777,
      "bΤ": 3778,
      "bη": 3779,
      "c5": 3780,
      "cG": 3781,
      "cb": 3782,
      "cα": 3783,
      "cλ": 3784,
      "d*": 3785,
      "dH": 3786,
      "dΩ": 3787,
      "dχ": 3788,
      "fV": 3789,
      "fi": 3790,
      "fn": 3791,
      "fο": 3792,
      "fυ": 3793,
      "f)**": 3794,
      "g/": 3795,
      "gL": 3796,
      "gη": 3797,
      "gι": 3798,
      "hc": 3799,
      "hΠ": 3800,
      "hθ": 3801,
      "i2": 3802,
      "i8": 3803,
      "iN": 3804,
      "iO": 3805,
      "iR": 3806,
      "iw": 3807,
      "iΚ": 3808,
      "iΝ": 3809,
      "iΥ": 3810,
      "iΩ": 3811,
      "iω": 3812,
      "j**(": 3813,
      "kS": 3814,
      "kυ": 3815,
      "k_Β": 3816,
      "k**(": 3817,
      "lA": 3818,
      "ln": 3819,
      "lΞ": 3820,
      "l)**": 3821,
      "m4": 3822,
      "mc": 3823,
      "mλ": 3824,
      "nγ": 3825,
      "ow": 3826,
      "oυ": 3827,
      "o)**": 3828,
      "o_Β": 3829,
      "p7": 3830,
      "p8": 3831,
      "pa": 3832,
      "pp": 3833,
      "pα": 3834,
      "pφ": 3835,
      "p)/": 3836,
      "q*": 3837,
      "qp": 3838,
      "qt": 3839,
      "qΑ": 3840,
      "qω": 3841,
      "rl": 3842,
      "rs": 3843,
      "rΗ": 3844,
      "rΨ": 3845,
      "rν": 3846,
      "s7": 3847,
      "sκ": 3848,
      "sω": 3849,
      "s)/": 3850,
      "tA": 3851,
      "tb": 3852,
      "tλ": 3853,
      "tφ": 3854,
      "u_Β": 3855,
      "vζ": 3856,
      "vη": 3857,
      "wE": 3858,
      "wY": 3859,
      "wξ": 3860,
      "w)**": 3861,
      "w**(": 3862,
      "xφ": 3863,
      "x)/": 3864,
      "y/": 3865,
      "y1": 3866,
      "zΖ": 3867,
      "zΙ": 3868,
      "zΟ": 3869,
      "zδ": 3870,
      "zο": 3871,
      "Αh": 3872,
      "Αn": 3873,
      "ΑΛ": 3874,
      "Α**": 3875,
      "Α_Β": 3876,
      "Β)**": 3877,
      "ΓE": 3878,
      "Γω": 3879,
      "Δχ": 3880,
      "Εa": 3881,
      "Εp": 3882,
      "ΕΨ": 3883,
      "ΖJ": 3884,
      "Ζt": 3885,
      "ΖΝ": 3886,
      "ΖΥ": 3887,
      "Ζγ": 3888,
      "Ζν": 3889,
      "ΗΡ": 3890,
      "Ηε": 3891,
      "Θ2": 3892,
      "ΘΝ": 3893,
      "ΘΠ": 3894,
      "Θ)/": 3895,
      "ΙΛ": 3896,
      "Ιω": 3897,
      "Ι)**": 3898,
      "ΚΗ": 3899,
      "ΚΚ": 3900,
      "ΚΧ": 3901,
      "ΛΠ": 3902,
      "Λ**": 3903,
      "Μ*": 3904,
      "Μt": 3905,
      "ΜΒ": 3906,
      "Μυ": 3907,
      "Μ**": 3908,
      "Μ**(": 3909,
      "ΝΓ": 3910,
      "Νη": 3911,
      "Ξd": 3912,
      "Ξs": 3913,
      "ΞΑ": 3914,
      "ΞΤ": 3915,
      "Ο3": 3916,
      "ΟE": 3917,
      "Οf": 3918,
      "Ο_Β": 3919,
      "Ο)),": 3920,
      "ΠΒ": 3921,
      "Πη": 3922,
      "ΡΔ": 3923,
      "ΡΕ": 3924,
      "Ρ**(": 3925,
      "ΣΝ": 3926,
      "ΣΥ": 3927,
      "Σε": 3928,
      "ΤO": 3929,
      "Τn": 3930,
      "Τy": 3931,
      "ΤΤ": 3932,
      "Τλ": 3933,
      "Τ1'": 3934,
      "ΥΗ": 3935,
      "Φ1": 3936,
      "ΦI": 3937,
      "ΧΖ": 3938,
      "Χν": 3939,
      "ΨW": 3940,
      "Ψc": 3941,
      "Ψx": 3942,
      "ΨΠ": 3943,
      "Ψγ": 3944,
      "ΩD": 3945,
      "ΩJ": 3946,
      "Ωj": 3947,
      "Ωξ": 3948,
      "Ωο": 3949,
      "Ω)/": 3950,
      "Ω)**": 3951,
      "Ω)),": 3952,
      "α1": 3953,
      "α7": 3954,
      "αΧ": 3955,
      "αα": 3956,
      "βg": 3957,
      "βΒ": 3958,
      "βλ": 3959,
      "βω": 3960,
      "γB": 3961,
      "γT": 3962,
      "γm": 3963,
      "γr": 3964,
      "δG": 3965,
      "δm": 3966,
      "δΠ": 3967,
      "δΧ": 3968,
      "ε*": 3969,
      "ε/": 3970,
      "εθ": 3971,
      "εω": 3972,
      "ζ3": 3973,
      "ζΑ": 3974,
      "ζΦ": 3975,
      "ζε": 3976,
      "ηM": 3977,
      "θW": 3978,
      "θt": 3979,
      "θΖ": 3980,
      "ιs": 3981,
      "ιΓ": 3982,
      "ιΥ": 3983,
      "λy": 3984,
      "λω": 3985,
      "μ9": 3986,
      "μB": 3987,
      "μN": 3988,
      "μΥ": 3989,
      "νΖ": 3990,
      "νΡ": 3991,
      "ν)**": 3992,
      "ξQ": 3993,
      "ξκ": 3994,
      "οH": 3995,
      "οI": 3996,
      "οΑ": 3997,
      "οΙ": 3998,
      "οξ": 3999,
      "οω": 4000,
      "ο)**": 4001,
      "ρm": 4002,
      "ρΧ": 4003,
      "ρη": 4004,
      "ρσ": 4005,
      "ρ)*log(": 4006,
      "σ/": 4007,
      "σ6": 4008,
      "σ)**": 4009,
      "τr": 4010,
      "τ)**": 4011,
      "υ4": 4012,
      "υE": 4013,
      "υV": 4014,
      "υg": 4015,
      "υh": 4016,
      "υu": 4017,
      "υΟ": 4018,
      "φJ": 4019,
      "φP": 4020,
      "φΕ": 4021,
      "φΡ": 4022,
      "φγ": 4023,
      "φ_Β": 4024,
      "χK": 4025,
      "χf": 4026,
      "χμ": 4027,
      "ψU": 4028,
      "ψq": 4029,
      "ψΑ": 4030,
      "ψβ": 4031,
      "ψθ": 4032,
      "ψ**": 4033,
      "ψ_Β": 4034,
      "ωU": 4035,
      "ωy": 4036,
      "ωΟ": 4037,
      "ωΦ": 4038,
      "ωα": 4039,
      "ωι": 4040,
      "ω**": 4041,
      "log(L": 4042,
      "log(Υ": 4043,
      "log(κ": 4044,
      "log(Π_": 4045,
      "log(f_": 4046,
      "log(X_": 4047,
      "log(η_": 4048,
      "log(l_": 4049,
      "log(Λ_": 4050,
      "log(ω_": 4051,
      "log(r_": 4052,
      "log(α_": 4053,
      "log(K_": 4054,
      "log(θ_": 4055,
      "log(V_": 4056,
      "log(8*": 4057,
      "log(k)": 4058,
      "log(W)": 4059,
      "log(x),": 4060,
      "log(θ),": 4061,
      "sqrt(γ_": 4062,
      "sqrt(a_": 4063,
      "sqrt(y_": 4064,
      "sqrt(E_": 4065,
      "sqrt(Ω_": 4066,
      "sqrt(j_": 4067,
      "sqrt(s)": 4068,
      "sqrt(h)": 4069,
      "sqrt(Ψ)": 4070,
      "sqrt(3)*sqrt(": 4071,
      ")**6,": 4072,
      "Sum(y": 4073,
      "Derivative(3*": 4074,
      "Integral(B_": 4075,
      "Integral(2*": 4076,
      "_Βo": 4077,
      "Q_2": 4078,
      "Q_t": 4079,
      "Z_j": 4080,
      "Z_o": 4081,
      "Z_ι": 4082,
      "F_p": 4083,
      "F_x": 4084,
      "F_Χ": 4085,
      "ξ_Ο": 4086,
      "ξ_ε": 4087,
      "Π_Ο": 4088,
      "n_ρ": 4089,
      "μ_O": 4090,
      "T_B": 4091,
      "T_G": 4092,
      "T_S": 4093,
      "T_c": 4094,
      "T_m": 4095,
      "T_o": 4096,
      "f_γ": 4097,
      "Η_G": 4098,
      "Η_Ι": 4099,
      "Η_Ν": 4100,
      "B_V": 4101,
      "B_Ρ": 4102,
      "X_5": 4103,
      "X_Δ": 4104,
      "τ_V": 4105,
      "τ_Η": 4106,
      "τ_σ": 4107,
      "τ_τ": 4108,
      "ν_t": 4109,
      "γ_Ι": 4110,
      "η_7": 4111,
      "η_B": 4112,
      "η_a": 4113,
      "G_z": 4114,
      "G_Χ": 4115,
      "G_θ": 4116,
      "υ_d": 4117,
      "υ_z": 4118,
      "Ο_I": 4119,
      "J_Ρ": 4120,
      "y_9": 4121,
      "W_b": 4122,
      "Δ_P": 4123,
      "Δ_Z": 4124,
      "Δ_d": 4125,
      "Δ_Σ": 4126,
      "l_V": 4127,
      "l_Z": 4128,
      "l_Κ": 4129,
      "l_φ": 4130,
      "ε_Z": 4131,
      "ε_ι": 4132,
      "C_g": 4133,
      "Ι_K": 4134,
      "Ι_O": 4135,
      "Ι_ι": 4136,
      "Ι_ρ": 4137,
      "Ρ_c": 4138,
      "Ρ_t": 4139,
      "Ρ_y": 4140,
      "Ρ_γ": 4141,
      "Ρ_λ": 4142,
      "Ρ_ω": 4143,
      "I_H": 4144,
      "I_Τ": 4145,
      "I_ε": 4146,
      "I_ψ": 4147,
      "ο_B": 4148,
      "ο_q": 4149,
      "ο_α": 4150,
      "g_D": 4151,
      "g_y": 4152,
      "g_Ρ": 4153,
      "g_φ": 4154,
      "R_d": 4155,
      "κ_2": 4156,
      "κ_Δ": 4157,
      "Λ_κ": 4158,
      "Γ_q": 4159,
      "r_H": 4160,
      "Σ_Ξ": 4161,
      "Σ_ν": 4162,
      "E_f": 4163,
      "U_λ": 4164,
      "U_χ": 4165,
      "Χ_R": 4166,
      "Χ_g": 4167,
      "Χ_z": 4168,
      "Χ_Ε": 4169,
      "Φ_U": 4170,
      "Φ_Η": 4171,
      "Φ_ν": 4172,
      "Ν_c": 4173,
      "K_N": 4174,
      "t_Q": 4175,
      "t_Σ": 4176,
      "t_Τ": 4177,
      "ρ_κ": 4178,
      "σ_M": 4179,
      "σ_O": 4180,
      "σ_θ": 4181,
      "i_o": 4182,
      "Α_T": 4183,
      "Α_σ": 4184,
      "w_Θ": 4185,
      "w_ι": 4186,
      "p_g": 4187,
      "p_q": 4188,
      "N_H": 4189,
      "N_Ω": 4190,
      "N_γ": 4191,
      "N_θ": 4192,
      "s_6": 4193,
      "s_X": 4194,
      "z_O": 4195,
      "z_τ": 4196,
      "D_F": 4197,
      "D_K": 4198,
      "D_Ψ": 4199,
      "D_χ": 4200,
      "b_J": 4201,
      "b_n": 4202,
      "Y_Κ": 4203,
      "**(-": 4204,
      "θ_6": 4205,
      "θ_n": 4206,
      "θ_σ": 4207,
      "θ_φ": 4208,
      "Μ_F": 4209,
      "O_p": 4210,
      "O_Ι": 4211,
      "O_Ρ": 4212,
      "O_κ": 4213,
      "S_2": 4214,
      "S_Τ": 4215,
      "δ_Δ": 4216,
      "δ_Ι": 4217,
      "v_μ": 4218,
      "λ_N": 4219,
      "λ_R": 4220,
      "Ζ_o": 4221,
      "j_N": 4222,
      "Sum(sqrt(a_": 4223,
      "Sum(sqrt(ρ_": 4224,
      "Sum(sqrt(5)*sqrt(": 4225,
      "V_F": 4226,
      "P_F": 4227,
      "P_Ε": 4228,
      "P_η": 4229,
      "P_κ": 4230,
      "Ξ_Δ": 4231,
      "Ξ_Σ": 4232,
      "Ξ_Φ": 4233,
      "Ξ_θ": 4234,
      "(H*": 4235,
      "Ε_l": 4236,
      "Ε_ο": 4237,
      "(m)*": 4238,
      "(Β)/": 4239,
      "(o)*": 4240,
      "(o)/": 4241,
      ")/sqrt(U),": 4242,
      ")**(sqrt(2)*sqrt(": 4243,
      ")**log(-": 4244,
      "(R)*": 4245,
      "(R)**": 4246,
      "(R**": 4247,
      "(A)**": 4248,
      "(A**": 4249,
      "(n)*": 4250,
      "(f)*": 4251,
      ")*sqrt(-": 4252,
      "(F)**": 4253,
      "(i*": 4254,
      "(i)**log(": 4255,
      "(P/": 4256,
      "(P)**": 4257,
      "(Λ)**(sqrt(": 4258,
      "m_N": 4259,
      "m_r": 4260,
      "(Z)": 4261,
      "(Z*": 4262,
      "(Z))": 4263,
      "(a**": 4264,
      "(Ξ)/": 4265,
      "(Ε/": 4266,
      "(Ε)**": 4267,
      "(α/": 4268,
      "(y)**": 4269,
      "(Ι)*": 4270,
      "(Α*": 4271,
      "(Χ)*": 4272,
      "(Χ**": 4273,
      "(Ψ)*": 4274,
      "(Ψ)**": 4275,
      "(c)**": 4276,
      "H_Ν": 4277,
      "(x)*": 4278,
      "(δ)**": 4279,
      "(Σ)*": 4280,
      "(Σ)/": 4281,
      "(K)*": 4282,
      "(G)/": 4283,
      "(G)**": 4284,
      "(Κ*": 4285,
      "(Κ)**": 4286,
      "(V)*": 4287,
      "(V)/": 4288,
      "(V)**": 4289,
      "(h**": 4290,
      "(ν)**": 4291,
      "(T)*": 4292,
      "(Ρ)*": 4293,
      "(Ρ)**": 4294,
      "(Ρ**": 4295,
      "φ_Ο": 4296,
      "φ_ν": 4297,
      "(Ζ)**": 4298,
      "(η)/": 4299,
      "(D/": 4300,
      "(β/": 4301,
      "(β)*": 4302,
      "(σ)*": 4303,
      "(υ)*": 4304,
      "(υ)/": 4305,
      "(Φ)*": 4306,
      "o_G": 4307,
      "Β_o": 4308,
      "'F_h": 4309,
      "'F_Κ": 4310,
      "(X/": 4311,
      "(X)**": 4312,
      "(ε)/": 4313,
      "(ε)**(sqrt(": 4314,
      "ι_τ": 4315,
      "'Q_η": 4316,
      "(d)/": 4317,
      "(r)/": 4318,
      "(ξ)/": 4319,
      "(M)*": 4320,
      "(M)/": 4321,
      "(M)**": 4322,
      "'ξ_Ξ": 4323,
      "(Υ)*": 4324,
      "(Δ)/": 4325,
      "'f_Η": 4326,
      "'Η_Ω": 4327,
      "(v)/": 4328,
      "(E)": 4329,
      "(E)/": 4330,
      "(E)**": 4331,
      "'G_Δ": 4332,
      "'υ_r": 4333,
      "'ε_Ψ": 4334,
      "'q_Y": 4335,
      "'Σ_ι": 4336,
      "9*sqrt(": 4337,
      "'Ξ_φ": 4338,
      "'H_ε": 4339,
      "'Β_Ρ": 4340,
      "'V_ω": 4341,
      "'u_P": 4342,
      "(Η_C": 4343,
      "2))*": 4344,
      "cosh(1),": 4345,
      "'y": 4346,
      "(1),": 4347,
      "*Υ_": 4348,
      "*δ_": 4349,
      "*λ_": 4350,
      "-g": 4351,
      "-ι_": 4352,
      "/Q_": 4353,
      "/w_": 4354,
      "/N_": 4355,
      "/6)": 4356,
      "048": 4357,
      "11": 4358,
      "12": 4359,
      "1C": 4360,
      "1K": 4361,
      "1f": 4362,
      "1x": 4363,
      "1Γ": 4364,
      "1Χ": 4365,
      "1ξ": 4366,
      "1**": 4367,
      "13,": 4368,
      "1)**log(": 4369,
      "2k": 4370,
      "2l": 4371,
      "2Ν": 4372,
      "2α": 4373,
      "2φ": 4374,
      "25,": 4375,
      "3F": 4376,
      "3I": 4377,
      "3g": 4378,
      "3i": 4379,
      "3p": 4380,
      "3u": 4381,
      "3Φ": 4382,
      "3ι": 4383,
      "3ν": 4384,
      "3C'": 4385,
      "3)*log(": 4386,
      "4M": 4387,
      "4c": 4388,
      "4α": 4389,
      "4)/2))": 4390,
      "5F": 4391,
      "5G": 4392,
      "5b": 4393,
      "5j": 4394,
      "5**(sqrt(": 4395,
      "6/": 4396,
      "64": 4397,
      "6G": 4398,
      "6V": 4399,
      "6Z": 4400,
      "6m": 4401,
      "6q": 4402,
      "6Π": 4403,
      "6Ψ": 4404,
      "6α": 4405,
      "6ν": 4406,
      "6**(sqrt(": 4407,
      "71": 4408,
      "73": 4409,
      "7p": 4410,
      "7q": 4411,
      "7x": 4412,
      "7θ": 4413,
      "7ο": 4414,
      "742": 4415,
      "781": 4416,
      "8H": 4417,
      "8K": 4418,
      "8k": 4419,
      "8t": 4420,
      "8Α": 4421,
      "8ο": 4422,
      "8ω": 4423,
      "8)/2),": 4424,
      "8**(sqrt(": 4425,
      "9T": 4426,
      "9o": 4427,
      "9Β": 4428,
      "9Ξ": 4429,
      "9θ": 4430,
      "9φ": 4431,
      "9χ": 4432,
      "A5": 4433,
      "AP": 4434,
      "Af": 4435,
      "Ak": 4436,
      "AΒ": 4437,
      "AΖ": 4438,
      "Aγ": 4439,
      "Aυ": 4440,
      "Aχ": 4441,
      "A)**": 4442,
      "BM": 4443,
      "BQ": 4444,
      "BW": 4445,
      "Bj": 4446,
      "Bu": 4447,
      "Bz": 4448,
      "BΥ": 4449,
      "BΦ": 4450,
      "BΨ": 4451,
      "Bz'": 4452,
      "CD": 4453,
      "CK": 4454,
      "CY": 4455,
      "Cz": 4456,
      "D/": 4457,
      "DL": 4458,
      "Da": 4459,
      "Dp": 4460,
      "DΗ": 4461,
      "DΜ": 4462,
      "DΨ": 4463,
      "Dν": 4464,
      "Dχ": 4465,
      "Dω": 4466,
      "EU": 4467,
      "Ec": 4468,
      "Et": 4469,
      "Eξ": 4470,
      "E)/": 4471,
      "EM'": 4472,
      "FB": 4473,
      "FD": 4474,
      "Fa": 4475,
      "Fd": 4476,
      "Fm": 4477,
      "FΤ": 4478,
      "Fβ": 4479,
      "Fο": 4480,
      "FΚ'": 4481,
      "GZ": 4482,
      "Hd": 4483,
      "Hk": 4484,
      "Hl": 4485,
      "HΞ": 4486,
      "Hτ": 4487,
      "H)/sqrt(": 4488,
      "I/": 4489,
      "Ih": 4490,
      "Im": 4491,
      "Is": 4492,
      "IΣ": 4493,
      "Iη": 4494,
      "I)/": 4495,
      "JD": 4496,
      "JΛ": 4497,
      "JΠ": 4498,
      "J_Β": 4499,
      "K1": 4500,
      "Kx": 4501,
      "KΘ": 4502,
      "KΝ": 4503,
      "KΗ'": 4504,
      "LS": 4505,
      "Lf": 4506,
      "Lw": 4507,
      "Lθ": 4508,
      "Lυ": 4509,
      "Lψ": 4510,
      "MZ": 4511,
      "MΚ": 4512,
      "MΝ": 4513,
      "MΟ": 4514,
      "Mη": 4515,
      "M)/": 4516,
      "M**": 4517,
      "M**(": 4518,
      "M)),": 4519,
      "M)**log(": 4520,
      "N/": 4521,
      "NV": 4522,
      "No": 4523,
      "NΑ": 4524,
      "NΗ": 4525,
      "N)**": 4526,
      "N_ΒΥ": 4527,
      "O8": 4528,
      "Oj": 4529,
      "Oζ": 4530,
      "Oν": 4531,
      "Oφ": 4532,
      "PC": 4533,
      "PL": 4534,
      "PO": 4535,
      "PU": 4536,
      "PZ": 4537,
      "Pq": 4538,
      "Py": 4539,
      "PΗ": 4540,
      "Pε": 4541,
      "Pν": 4542,
      "Q/": 4543,
      "Q2": 4544,
      "QU": 4545,
      "QW": 4546,
      "Qo": 4547,
      "QΡ": 4548,
      "QΩ": 4549,
      "Qι": 4550,
      "Qν": 4551,
      "Q)*log(": 4552,
      "R/": 4553,
      "R1": 4554,
      "R9": 4555,
      "RB": 4556,
      "RT": 4557,
      "RX": 4558,
      "Rd": 4559,
      "RΑ": 4560,
      "RΔ": 4561,
      "Rο": 4562,
      "R)**": 4563,
      "R**(": 4564,
      "S*": 4565,
      "SF": 4566,
      "Sh": 4567,
      "Sω": 4568,
      "S)*": 4569,
      "SΡ'": 4570,
      "T*": 4571,
      "T6": 4572,
      "TC": 4573,
      "TM": 4574,
      "TT": 4575,
      "Td": 4576,
      "Tg": 4577,
      "TΧ": 4578,
      "TΩ": 4579,
      "Tβ": 4580,
      "Tχ": 4581,
      "T)**": 4582,
      "U2": 4583,
      "UX": 4584,
      "UΚ": 4585,
      "Uο": 4586,
      "Uρ": 4587,
      "U)/": 4588,
      "VB": 4589,
      "VJ": 4590,
      "Vk": 4591,
      "Vw": 4592,
      "VΠ": 4593,
      "VΤ": 4594,
      "VΥ": 4595,
      "VΨ": 4596,
      "V)**": 4597,
      "WX": 4598,
      "Wf": 4599,
      "Wi": 4600,
      "Wt": 4601,
      "X5": 4602,
      "Xm": 4603,
      "XΒ": 4604,
      "XΟ": 4605,
      "XΨ": 4606,
      "Xε": 4607,
      "X)/": 4608,
      "X)**": 4609,
      "X)),": 4610,
      "Y/": 4611,
      "Yf": 4612,
      "Yi": 4613,
      "YΛ": 4614,
      "Yε": 4615,
      "Yκ": 4616,
      "Yσ": 4617,
      "Y)**": 4618,
      "Zc": 4619,
      "Zd": 4620,
      "Z)**log(": 4621,
      "a5": 4622,
      "aW": 4623,
      "aZ": 4624,
      "an": 4625,
      "ap": 4626,
      "as": 4627,
      "au": 4628,
      "aw": 4629,
      "aΚ": 4630,
      "aρ": 4631,
      "a**": 4632,
      "bY": 4633,
      "bm": 4634,
      "b**(": 4635,
      "c*": 4636,
      "c/": 4637,
      "c8": 4638,
      "cD": 4639,
      "cd": 4640,
      "ci": 4641,
      "cl": 4642,
      "cs": 4643,
      "cv": 4644,
      "cz": 4645,
      "cΣ": 4646,
      "c)**": 4647,
      "c**(": 4648,
      "c)**(sqrt(": 4649,
      "dT": 4650,
      "dΞ": 4651,
      "dΠ": 4652,
      "dτ": 4653,
      "d**(": 4654,
      "fY": 4655,
      "fo": 4656,
      "fq": 4657,
      "fη": 4658,
      "fβ'": 4659,
      "fq'": 4660,
      "gZ": 4661,
      "ga": 4662,
      "gΗ": 4663,
      "gΩ": 4664,
      "gβ": 4665,
      "g)**": 4666,
      "g_Β": 4667,
      "gη'": 4668,
      "h*": 4669,
      "hR": 4670,
      "hr": 4671,
      "hΗ": 4672,
      "hκ": 4673,
      "h_Β": 4674,
      "hΚ'": 4675,
      "iY": 4676,
      "ix": 4677,
      "iΗ": 4678,
      "iΞ": 4679,
      "iο": 4680,
      "i**(": 4681,
      "jE": 4682,
      "jf": 4683,
      "jj": 4684,
      "jp": 4685,
      "jΕ": 4686,
      "jΣ": 4687,
      "jΦ": 4688,
      "jγ": 4689,
      "jη": 4690,
      "jμ": 4691,
      "jr'": 4692,
      "j)/log(": 4693,
      "kP": 4694,
      "kk": 4695,
      "kΔ": 4696,
      "kΙ": 4697,
      "kη": 4698,
      "k)**log(": 4699,
      "l9": 4700,
      "li": 4701,
      "lm": 4702,
      "lq": 4703,
      "lΛ": 4704,
      "lη": 4705,
      "lμ": 4706,
      "mL": 4707,
      "mZ": 4708,
      "mi": 4709,
      "mo": 4710,
      "mΒ": 4711,
      "mυ": 4712,
      "mω": 4713,
      "nB": 4714,
      "nλ": 4715,
      "nο": 4716,
      "oG": 4717,
      "oH": 4718,
      "oW": 4719,
      "ov": 4720,
      "oθ": 4721,
      "oφ": 4722,
      "o**": 4723,
      "pX": 4724,
      "ps": 4725,
      "pΜ": 4726,
      "pλ": 4727,
      "qB": 4728,
      "qα": 4729,
      "qη": 4730,
      "qο": 4731,
      "qχ": 4732,
      "r*": 4733,
      "rG": 4734,
      "rT": 4735,
      "ru": 4736,
      "rΥ": 4737,
      "rΧ": 4738,
      "rζ": 4739,
      "r)*log(": 4740,
      "sG": 4741,
      "sQ": 4742,
      "sR": 4743,
      "sm": 4744,
      "st": 4745,
      "sΣ": 4746,
      "sζ": 4747,
      "sρ": 4748,
      "t1": 4749,
      "tM": 4750,
      "tP": 4751,
      "tl": 4752,
      "tz": 4753,
      "tΘ": 4754,
      "tΠ": 4755,
      "tε": 4756,
      "u7": 4757,
      "u9": 4758,
      "uΞ": 4759,
      "uβ": 4760,
      "v/": 4761,
      "va": 4762,
      "vc": 4763,
      "vΛ": 4764,
      "vΥ": 4765,
      "wΩ": 4766,
      "wζ": 4767,
      "w**": 4768,
      "wq'": 4769,
      "x7": 4770,
      "xΑ": 4771,
      "xΖ": 4772,
      "xι": 4773,
      "x)/log(": 4774,
      "yH": 4775,
      "yP": 4776,
      "yo": 4777,
      "yΑ": 4778,
      "yφ": 4779,
      "yP'": 4780,
      "z*": 4781,
      "z/": 4782,
      "zA": 4783,
      "zG": 4784,
      "zW": 4785,
      "zx": 4786,
      "zθ": 4787,
      "ΑG": 4788,
      "ΑJ": 4789,
      "ΑQ": 4790,
      "ΑR": 4791,
      "ΑZ": 4792,
      "Αd": 4793,
      "Αg": 4794,
      "Αr": 4795,
      "ΑΘ": 4796,
      "ΑΣ": 4797,
      "Αγ": 4798,
      "Αυ": 4799,
      "ΓC": 4800,
      "ΓT": 4801,
      "ΓV": 4802,
      "Γh": 4803,
      "Γj": 4804,
      "Γu": 4805,
      "Γx": 4806,
      "ΓΧ": 4807,
      "Γ*sqrt(": 4808,
      "Δ*": 4809,
      "ΔI": 4810,
      "ΔM": 4811,
      "ΔS": 4812,
      "Δi": 4813,
      "ΔΣ": 4814,
      "ΔΩ": 4815,
      "Δσ": 4816,
      "Δ)/sqrt(": 4817,
      "ΕZ": 4818,
      "Εn": 4819,
      "Εw": 4820,
      "ΕΜ": 4821,
      "ΕΟ": 4822,
      "ΕΠ": 4823,
      "Ζ4": 4824,
      "ΖL": 4825,
      "ΖN": 4826,
      "ΖX": 4827,
      "Ζm": 4828,
      "Ζs": 4829,
      "ΖΣ": 4830,
      "ΖΦ": 4831,
      "Ζε": 4832,
      "Ζ)**": 4833,
      "Ζ)),": 4834,
      "ΗΑ": 4835,
      "ΗΖ": 4836,
      "Η)*log(": 4837,
      "Θ4": 4838,
      "Θi": 4839,
      "Θl": 4840,
      "Θv": 4841,
      "ΘΗ": 4842,
      "ΘΘ": 4843,
      "Θφ": 4844,
      "Θ_Β": 4845,
      "ΙS": 4846,
      "ΙW": 4847,
      "Ιx": 4848,
      "ΙΒ": 4849,
      "ΙΗ": 4850,
      "ΙΘ": 4851,
      "Ι**": 4852,
      "Κ9": 4853,
      "ΚJ": 4854,
      "ΚM": 4855,
      "Κd": 4856,
      "ΚΦ": 4857,
      "Κω": 4858,
      "Κ)**": 4859,
      "Κ**": 4860,
      "Λ*": 4861,
      "Λ2": 4862,
      "ΛΣ": 4863,
      "ΛΤ": 4864,
      "Λα": 4865,
      "Λ_Β": 4866,
      "Μ2": 4867,
      "ΜP": 4868,
      "ΜW": 4869,
      "Μβ": 4870,
      "Μζ": 4871,
      "Μσ": 4872,
      "Νq": 4873,
      "ΝΘ": 4874,
      "ΝΟ": 4875,
      "Νρ": 4876,
      "Νω": 4877,
      "Ν)),": 4878,
      "ΞA": 4879,
      "ΞD": 4880,
      "ΞI": 4881,
      "ΞM": 4882,
      "ΞX": 4883,
      "Ξk": 4884,
      "ΞΚ": 4885,
      "Ο2": 4886,
      "Οa": 4887,
      "Οn": 4888,
      "ΟΜ": 4889,
      "ΟΣ": 4890,
      "Ου": 4891,
      "ΠN": 4892,
      "ΠP": 4893,
      "ΠU": 4894,
      "Πt": 4895,
      "Πw": 4896,
      "ΠΜ": 4897,
      "ΠΥ": 4898,
      "Πδ": 4899,
      "Πτ": 4900,
      "Ρ1": 4901,
      "Ρ7": 4902,
      "ΡE": 4903,
      "ΡR": 4904,
      "ΡΞ": 4905,
      "Ρη": 4906,
      "Ρσ": 4907,
      "Ρ_Β": 4908,
      "ΣO": 4909,
      "Σr": 4910,
      "Σx": 4911,
      "Σα": 4912,
      "Σ**": 4913,
      "Σε'": 4914,
      "ΤL": 4915,
      "Τs": 4916,
      "Τw": 4917,
      "ΤΓ": 4918,
      "Τ)*log(": 4919,
      "Υ3": 4920,
      "ΥM": 4921,
      "ΥP": 4922,
      "ΥV": 4923,
      "Υk": 4924,
      "Υt": 4925,
      "Υv": 4926,
      "ΥΨ": 4927,
      "Υη": 4928,
      "Υν": 4929,
      "Υσ": 4930,
      "Υ)*": 4931,
      "Υ**": 4932,
      "ΦB": 4933,
      "ΦΒ": 4934,
      "ΦΗ": 4935,
      "Φζ": 4936,
      "Φ)**": 4937,
      "Φz'": 4938,
      "Χ5": 4939,
      "ΧJ": 4940,
      "ΧW": 4941,
      "ΧΙ": 4942,
      "Χε": 4943,
      "Χι": 4944,
      "Χ)**": 4945,
      "Ψ*": 4946,
      "ΨM": 4947,
      "ΨP": 4948,
      "Ψq": 4949,
      "ΨΣ": 4950,
      "Ψδ": 4951,
      "Ψυ": 4952,
      "Ψχ": 4953,
      "Ψω": 4954,
      "Ω7": 4955,
      "ΩX": 4956,
      "Ωs": 4957,
      "ΩΕ": 4958,
      "ΩΛ": 4959,
      "α*": 4960,
      "α4": 4961,
      "αc": 4962,
      "αm": 4963,
      "αy": 4964,
      "αζ": 4965,
      "α**": 4966,
      "βM": 4967,
      "βm": 4968,
      "βz": 4969,
      "βΥ": 4970,
      "γK": 4971,
      "γM": 4972,
      "γR": 4973,
      "γz": 4974,
      "γΡ": 4975,
      "γμ": 4976,
      "γρ": 4977,
      "γK'": 4978,
      "γ)**(sqrt(": 4979,
      "δ8": 4980,
      "δE": 4981,
      "δM": 4982,
      "δS": 4983,
      "δW": 4984,
      "δh": 4985,
      "δy": 4986,
      "δΔ": 4987,
      "δΕ": 4988,
      "δξ": 4989,
      "δ)/": 4990,
      "εR": 4991,
      "εd": 4992,
      "εΣ": 4993,
      "εν": 4994,
      "ζ1": 4995,
      "ζD": 4996,
      "ζH": 4997,
      "ζR": 4998,
      "ζt": 4999,
      "ζy": 5000,
      "ζΒ": 5001,
      "ζΗ": 5002,
      "ζΞ": 5003,
      "ζΟ": 5004,
      "ζΧ": 5005,
      "ζω": 5006,
      "ζ**(": 5007,
      "ζ)*log(": 5008,
      "η*": 5009,
      "ηI": 5010,
      "ηS": 5011,
      "ηX": 5012,
      "ηk": 5013,
      "ηp": 5014,
      "ηΡ": 5015,
      "ηκ": 5016,
      "ηο": 5017,
      "η)**": 5018,
      "θ/": 5019,
      "θ9": 5020,
      "θz": 5021,
      "θΠ": 5022,
      "θΣ": 5023,
      "θΦ": 5024,
      "θ**": 5025,
      "θ)*log(": 5026,
      "ιE": 5027,
      "ιI": 5028,
      "ιV": 5029,
      "ιc": 5030,
      "ιi": 5031,
      "ιn'": 5032,
      "κE": 5033,
      "κb": 5034,
      "κz": 5035,
      "κΔ": 5036,
      "κΕ": 5037,
      "λ4": 5038,
      "λn": 5039,
      "λξ": 5040,
      "λο": 5041,
      "λ**": 5042,
      "λk'": 5043,
      "λ**(": 5044,
      "μ*": 5045,
      "μa": 5046,
      "μρ": 5047,
      "ν*": 5048,
      "νK": 5049,
      "νm": 5050,
      "νΘ": 5051,
      "ν)*log(": 5052,
      "ξ/": 5053,
      "ξw": 5054,
      "ξΞ": 5055,
      "ξ**": 5056,
      "ο/": 5057,
      "ο1": 5058,
      "ο2": 5059,
      "ο3": 5060,
      "οE": 5061,
      "οV": 5062,
      "οc": 5063,
      "οΓ": 5064,
      "οΕ": 5065,
      "οη": 5066,
      "ο)/": 5067,
      "ογ'": 5068,
      "ο**(": 5069,
      "ρN": 5070,
      "ρS": 5071,
      "ρl": 5072,
      "ρΒ": 5073,
      "ρ_Β": 5074,
      "σh": 5075,
      "σΚ": 5076,
      "σΦ": 5077,
      "σι": 5078,
      "σμ": 5079,
      "σ**(": 5080,
      "τ*": 5081,
      "τ4": 5082,
      "τI": 5083,
      "τJ": 5084,
      "τX": 5085,
      "τY": 5086,
      "τΕ": 5087,
      "τλ": 5088,
      "τ)/": 5089,
      "τ3'": 5090,
      "υ*": 5091,
      "υ1": 5092,
      "υJ": 5093,
      "υf": 5094,
      "υo": 5095,
      "υp": 5096,
      "υΛ": 5097,
      "υΞ": 5098,
      "υΨ": 5099,
      "υβ": 5100,
      "υλ": 5101,
      "υ)/": 5102,
      "υβ'": 5103,
      "φ6": 5104,
      "φM": 5105,
      "φΜ": 5106,
      "φψ": 5107,
      "φδ'": 5108,
      "χb": 5109,
      "χβ": 5110,
      "χι": 5111,
      "χν": 5112,
      "χ)/": 5113,
      "χ3'": 5114,
      "ψX": 5115,
      "ψo": 5116,
      "ψΖ": 5117,
      "ψΣ": 5118,
      "ψΧ": 5119,
      "ψ)),": 5120,
      "ω8": 5121,
      "ωδ": 5122,
      "ωμ": 5123,
      "ω)/": 5124,
      "ωη'": 5125,
      "ω)),": 5126,
      "ta'": 5127,
      "iv'": 5128,
      "log(F": 5129,
      "log(o": 5130,
      "log(t": 5131,
      "log(w": 5132,
      "log(z": 5133,
      "log(Λ": 5134,
      "log(Τ": 5135,
      "log(Φ": 5136,
      "log(α": 5137,
      "log(μ": 5138,
      "log(ψ": 5139,
      "log(γ_": 5140,
      "log(Κ_": 5141,
      "log(υ_": 5142,
      "log(Ο_": 5143,
      "log(J_": 5144,
      "log(W_": 5145,
      "log(Δ_": 5146,
      "log(ψ_": 5147,
      "log(Ψ_": 5148,
      "log(Τ_": 5149,
      "log(P_": 5150,
      "log(Ξ_": 5151,
      "log(m_": 5152,
      "log(φ_": 5153,
      "log(o_": 5154,
      "log(ι_": 5155,
      "log(9*": 5156,
      "log(5*": 5157,
      "log(ρ))": 5158,
      "log(f))": 5159,
      "log(ζ))": 5160,
      "log(α))": 5161,
      "log(Λ))": 5162,
      "log(ν)": 5163,
      "log(Φ)": 5164,
      "log(G)": 5165,
      "log(A)": 5166,
      "log(n)": 5167,
      "log(v)": 5168,
      "log(Χ),": 5169,
      "log(Τ)": 5170,
      "log(Ψ)": 5171,
      "log(Ι),": 5172,
      "log(Β)": 5173,
      "log(Ζ),": 5174,
      "log(λ)**": 5175,
      "log(n)/": 5176,
      "sqrt(v": 5177,
      "sqrt(Α": 5178,
      "sqrt(h_": 5179,
      "sqrt(n_": 5180,
      "sqrt(μ_": 5181,
      "sqrt(W_": 5182,
      "sqrt(q_": 5183,
      "sqrt(Ι_": 5184,
      "sqrt(Λ_": 5185,
      "sqrt(Γ_": 5186,
      "sqrt(ψ_": 5187,
      "sqrt(U_": 5188,
      "sqrt(Ν_": 5189,
      "sqrt(c_": 5190,
      "sqrt(d_": 5191,
      "sqrt(Β_": 5192,
      "sqrt(β)": 5193,
      "sqrt(ο)": 5194,
      "sqrt(Ω))": 5195,
      "sqrt(G)": 5196,
      "sqrt(P)": 5197,
      "sqrt(r)": 5198,
      "sqrt(J)": 5199,
      "sqrt(Α)": 5200,
      "sqrt(K)*": 5201,
      "Sum(U": 5202,
      "Sum(t": 5203,
      "Sum(Φ": 5204,
      "Sum(A_": 5205,
      "Sum(2*sqrt(2)*sqrt(": 5206,
      "Derivative(κ": 5207,
      "Derivative(ω": 5208,
      "Derivative(6*": 5209,
      "Derivative(2*sqrt(": 5210,
      "Integral(6*": 5211,
      "Integral(2*sqrt(": 5212,
      "Integral(3*sqrt(": 5213,
      "Integral(3**": 5214,
      "**Q_": 5215,
      "**Z_": 5216,
      "**υ_": 5217,
      "**ρ_": 5218,
      "_Βυ": 5219,
      "Q_7": 5220,
      "Q_f": 5221,
      "Q_Μ": 5222,
      "Z_h": 5223,
      "Z_l": 5224,
      "Z_Δ": 5225,
      "Z_ε": 5226,
      "F_Γ": 5227,
      "F_Θ": 5228,
      "F_Ο": 5229,
      "F_Π": 5230,
      "F_ψ": 5231,
      "h_D": 5232,
      "h_E": 5233,
      "h_l": 5234,
      "h_Λ": 5235,
      "h_ν": 5236,
      "h_ξ": 5237,
      "ξ_5": 5238,
      "ξ_M": 5239,
      "ξ_t": 5240,
      "ξ_v": 5241,
      "ξ_Λ": 5242,
      "Π_x": 5243,
      "Π_β": 5244,
      "Π_ο": 5245,
      "Π_τ": 5246,
      "n_Α": 5247,
      "n_β": 5248,
      "μ_P": 5249,
      "μ_a": 5250,
      "μ_y": 5251,
      "μ_θ": 5252,
      "μ_τ": 5253,
      "Θ_2": 5254,
      "Θ_7": 5255,
      "Θ_Γ": 5256,
      "Θ_Υ": 5257,
      "Θ_θ": 5258,
      "T_l": 5259,
      "T_s": 5260,
      "T_Ζ": 5261,
      "f_8": 5262,
      "f_W": 5263,
      "f_Λ": 5264,
      "f_κ": 5265,
      "Η_a": 5266,
      "Η_z": 5267,
      "Η_Φ": 5268,
      "B_4": 5269,
      "B_Q": 5270,
      "B_v": 5271,
      "B_Φ": 5272,
      "B_α": 5273,
      "B_ο": 5274,
      "B_ψ": 5275,
      "X_D": 5276,
      "X_H": 5277,
      "X_O": 5278,
      "Υ_m": 5279,
      "Υ_Η": 5280,
      "Υ_φ": 5281,
      "τ_Υ": 5282,
      "ν_Γ": 5283,
      "γ_F": 5284,
      "γ_Q": 5285,
      "γ_S": 5286,
      "γ_Y": 5287,
      "γ_θ": 5288,
      "γ_ρ": 5289,
      "η_1": 5290,
      "η_K": 5291,
      "η_i": 5292,
      "η_Σ": 5293,
      "η_η": 5294,
      "η_ο": 5295,
      "G_U": 5296,
      "G_η": 5297,
      "a_4": 5298,
      "a_h": 5299,
      "a_ξ": 5300,
      "Κ_Δ": 5301,
      "υ_A": 5302,
      "υ_y": 5303,
      "υ_ζ": 5304,
      "Ο_c": 5305,
      "Ο_r": 5306,
      "Ο_μ": 5307,
      "J_C": 5308,
      "J_b": 5309,
      "J_g": 5310,
      "J_t": 5311,
      "J_Σ": 5312,
      "y_E": 5313,
      "y_W": 5314,
      "W_J": 5315,
      "W_j": 5316,
      "W_ε": 5317,
      "W_χ": 5318,
      "Δ_G": 5319,
      "Δ_N": 5320,
      "Δ_f": 5321,
      "l_M": 5322,
      "l_R": 5323,
      "l_u": 5324,
      "A_Μ": 5325,
      "A_Ρ": 5326,
      "A_φ": 5327,
      "ε_p": 5328,
      "ε_χ": 5329,
      "C_j": 5330,
      "C_v": 5331,
      "q_o": 5332,
      "q_u": 5333,
      "q_ρ": 5334,
      "Ι_P": 5335,
      "Ι_Z": 5336,
      "Ι_s": 5337,
      "Ι_w": 5338,
      "Ι_Τ": 5339,
      "Ι_θ": 5340,
      "Ρ_5": 5341,
      "Ρ_F": 5342,
      "I_L": 5343,
      "ο_Θ": 5344,
      "ο_δ": 5345,
      "ο_λ": 5346,
      "g_f": 5347,
      "g_s": 5348,
      "g_υ": 5349,
      "g_χ": 5350,
      "R_κ": 5351,
      "κ_C": 5352,
      "κ_S": 5353,
      "κ_W": 5354,
      "κ_q": 5355,
      "κ_Ζ": 5356,
      "κ_Ρ": 5357,
      "κ_ν": 5358,
      "κ_ο": 5359,
      "κ_ρ": 5360,
      "L_B": 5361,
      "L_G": 5362,
      "L_H": 5363,
      "L_b": 5364,
      "L_Η": 5365,
      "L_τ": 5366,
      "χ_M": 5367,
      "χ_m": 5368,
      "χ_w": 5369,
      "Λ_K": 5370,
      "Γ_2": 5371,
      "Γ_m": 5372,
      "ω_u": 5373,
      "ω_Α": 5374,
      "ω_τ": 5375,
      "ψ_5": 5376,
      "ψ_Q": 5377,
      "ψ_z": 5378,
      "r_D": 5379,
      "r_ν": 5380,
      ")**((-": 5381,
      ")**(9**": 5382,
      ")**(5**": 5383,
      "E_s": 5384,
      "E_x": 5385,
      "E_Ι": 5386,
      "Χ_B": 5387,
      "Χ_T": 5388,
      "Χ_V": 5389,
      "Χ_c": 5390,
      "Χ_h": 5391,
      "Χ_Ι": 5392,
      "Χ_ν": 5393,
      "α_β": 5394,
      "α_δ": 5395,
      "Φ_K": 5396,
      "Φ_Q": 5397,
      "Φ_r": 5398,
      "Φ_ρ": 5399,
      "Ν_Μ": 5400,
      "Ν_Υ": 5401,
      "Ν_φ": 5402,
      "k_H": 5403,
      "k_Ψ": 5404,
      "k_ψ": 5405,
      "t_3": 5406,
      "t_7": 5407,
      "t_O": 5408,
      "t_Δ": 5409,
      "ρ_3": 5410,
      "ρ_9": 5411,
      "ρ_W": 5412,
      "ρ_ν": 5413,
      "σ_A": 5414,
      "σ_W": 5415,
      "i_C": 5416,
      "i_M": 5417,
      "i_s": 5418,
      "i_ω": 5419,
      "Α_Λ": 5420,
      "Α_Ω": 5421,
      "w_V": 5422,
      "w_w": 5423,
      "c_U": 5424,
      "c_z": 5425,
      "c_η": 5426,
      "p_h": 5427,
      "p_Ε": 5428,
      "p_θ": 5429,
      "N_u": 5430,
      "N_x": 5431,
      "N_Ε": 5432,
      "N_Υ": 5433,
      "N_σ": 5434,
      "s_t": 5435,
      "s_Ο": 5436,
      "s_θ": 5437,
      "z_u": 5438,
      "z_η": 5439,
      "z_ψ": 5440,
      "D_C": 5441,
      "D_a": 5442,
      "D_b": 5443,
      "D_n": 5444,
      "D_q": 5445,
      "D_ι": 5446,
      "Y_X": 5447,
      "Ψ_5": 5448,
      "Ψ_8": 5449,
      "Ψ_g": 5450,
      "θ_Σ": 5451,
      "Ω_8": 5452,
      "Ω_f": 5453,
      "Ω_j": 5454,
      "x_W": 5455,
      "x_Μ": 5456,
      "x_Ξ": 5457,
      "d_3": 5458,
      "d_s": 5459,
      "d_Ι": 5460,
      "d_θ": 5461,
      "O_f": 5462,
      "S_ν": 5463,
      "S_ξ": 5464,
      "β_3": 5465,
      "β_E": 5466,
      "β_Q": 5467,
      "β_a": 5468,
      "β_f": 5469,
      "β_Ν": 5470,
      "δ_M": 5471,
      "δ_κ": 5472,
      "v_8": 5473,
      "v_j": 5474,
      "v_k": 5475,
      "v_l": 5476,
      "v_q": 5477,
      "v_x": 5478,
      "λ_y": 5479,
      "λ_τ": 5480,
      ")/2)*log(": 5481,
      "M_P": 5482,
      "M_c": 5483,
      "M_w": 5484,
      "j_Κ": 5485,
      "j_Μ": 5486,
      "Τ_t": 5487,
      "Τ_δ": 5488,
      "Τ_ω": 5489,
      "Sum(sqrt(R_": 5490,
      "Sum(sqrt(Χ)": 5491,
      "V_υ": 5492,
      "u_ψ": 5493,
      "Derivative(sqrt(Q_": 5494,
      "Derivative(sqrt(b_": 5495,
      "Derivative(sqrt(i)": 5496,
      ")*log(Ξ),": 5497,
      "Integral(sqrt(A)": 5498,
      "Integral(sqrt(p)": 5499,
      "(-Γ": 5500,
      "Ξ_κ": 5501,
      "Sum(log(G_": 5502,
      "Ε_I": 5503,
      "Ε_Μ": 5504,
      "Ε_Ρ": 5505,
      "Ε_ΜΚ": 5506,
      "Ε_SΟ": 5507,
      "(φ)**": 5508,
      "(m*": 5509,
      ")/log(n_": 5510,
      "(Β)*": 5511,
      "(o)**": 5512,
      "ζ_I": 5513,
      "ζ_M": 5514,
      "ζ_υ": 5515,
      ")/sqrt(G),": 5516,
      ")**(sqrt(N_": 5517,
      "(g*": 5518,
      "(n/": 5519,
      "(n**": 5520,
      "(C)*": 5521,
      "(P*": 5522,
      "(P)/": 5523,
      "(q**": 5524,
      "(Λ)*": 5525,
      "m_7": 5526,
      "m_Z": 5527,
      "m_Ω": 5528,
      "m_λ": 5529,
      "(a)**": 5530,
      "(γ)*": 5531,
      "(γ)/": 5532,
      "(Ε**": 5533,
      "(ρ)/": 5534,
      "(B)**": 5535,
      "(B**": 5536,
      "(Ψ/": 5537,
      "(Ο**": 5538,
      "(U/": 5539,
      "(U**": 5540,
      "(c*": 5541,
      "(c)/": 5542,
      "(c**": 5543,
      "H_T": 5544,
      "H_c": 5545,
      "H_f": 5546,
      "H_Φ": 5547,
      "H_θ": 5548,
      "H_ρ": 5549,
      "(x*": 5550,
      "(x)/": 5551,
      "(δ)*": 5552,
      "(λ)*": 5553,
      "(λ)/": 5554,
      "(W/": 5555,
      "(K)/": 5556,
      "(V*": 5557,
      "(V**": 5558,
      "(h)*": 5559,
      "(κ/": 5560,
      "(κ)*": 5561,
      "(κ)**": 5562,
      "(τ)/": 5563,
      "(τ**": 5564,
      "(ω)**": 5565,
      "(T**": 5566,
      "φ_9": 5567,
      "φ_u": 5568,
      "φ_Ρ": 5569,
      "(Ζ)/": 5570,
      "(u)/": 5571,
      "(D)**(sqrt(": 5572,
      "(Ω)*": 5573,
      "o_D": 5574,
      "o_P": 5575,
      "o_Λ": 5576,
      "o_γ": 5577,
      "(Θ)/": 5578,
      "(ε)**": 5579,
      "(ε)/log(": 5580,
      "ι_h": 5581,
      "ι_Φ": 5582,
      "ι_χ": 5583,
      "'Q_t'": 5584,
      "'Z_o": 5585,
      "'Z_y'": 5586,
      "'h_F": 5587,
      "(d*": 5588,
      "(ψ/": 5589,
      "(ψ)/": 5590,
      "(ψ)**": 5591,
      "(Η)*": 5592,
      "(p*": 5593,
      "(p)**": 5594,
      "(p)/log(": 5595,
      "'n_V": 5596,
      "'n_η": 5597,
      "'n_ρ'": 5598,
      "'n_B'": 5599,
      "'μ_O": 5600,
      "'μ_θ": 5601,
      "'Θ_d": 5602,
      "'T_S": 5603,
      "'T_o": 5604,
      "(b/": 5605,
      "'ν_t'": 5606,
      "'η_K'": 5607,
      "(θ)/": 5608,
      "(θ)**(sqrt(": 5609,
      "'Υ_3": 5610,
      "'τ_w": 5611,
      "'γ_F": 5612,
      "'γ_h": 5613,
      "'υ_Ρ": 5614,
      "'υ_ο": 5615,
      "'J_R": 5616,
      "'J_t": 5617,
      "'A_Z": 5618,
      "'A_σ": 5619,
      "'Κ_Τ": 5620,
      "'Ο_ο'": 5621,
      "'Δ_ψ": 5622,
      "'l_8": 5623,
      "'l_u'": 5624,
      "'Ι_r": 5625,
      "'Ι_Z'": 5626,
      "'ο_Ψ": 5627,
      "'I_o": 5628,
      "'I_ψ": 5629,
      "'ψ_F": 5630,
      "'ψ_Ε": 5631,
      "'ψ_Ζ'": 5632,
      "'Γ_ο": 5633,
      "'Χ_h'": 5634,
      "'Λ_Η": 5635,
      "'Σ_9": 5636,
      "'Σ_ν": 5637,
      "'α_η": 5638,
      "'r_Λ": 5639,
      "'E_f": 5640,
      "'E_q": 5641,
      "'E_λ": 5642,
      ")/(9*": 5643,
      "'Ξ_Φ": 5644,
      "'Ξ_μ": 5645,
      "'Ξ_ψ": 5646,
      "'z_C": 5647,
      "'s_T": 5648,
      "'Ε_α": 5649,
      "'Ψ_8": 5650,
      "'θ_K": 5651,
      "'S_Ι": 5652,
      "'Ζ_J": 5653,
      "'Ζ_n": 5654,
      "'Ζ_ν": 5655,
      "'ζ_Ι": 5656,
      "(T_S": 5657,
      "(ν_W": 5658,
      "(F_h": 5659,
      "(F_Κ": 5660,
      "(J_t": 5661,
      "(Q_C": 5662,
      "(C_v": 5663,
      "(I_o": 5664,
      "(h_F": 5665,
      "(γ_F": 5666,
      "(G_Δ": 5667,
      "(G_η": 5668,
      "(μ_O": 5669,
      "(ο_Ψ": 5670,
      "(d_C": 5671,
      "(Σ_ν": 5672,
      "(H_ε": 5673,
      "(x_q": 5674,
      "(Ψ_8": 5675,
      "(Ζ_ν": 5676,
      "(V_ω": 5677,
      "**(sqrt(-": 5678,
      "Sum(-sqrt(5)*sqrt(": 5679,
      ")/3**": 5680,
      "/2)/": 5681,
      "/2)**": 5682,
      "p_ΒA": 5683,
      ")/(4*sqrt(": 5684,
      "W_8I": 5685,
      "Λ_ΛΧ": 5686,
      "742048": 5687,
      "'M": 5688,
      "'O": 5689,
      "'X": 5690,
      "'n": 5691,
      "'w": 5692,
      "'β": 5693,
      "'λ": 5694,
      "'σ": 5695,
      "'τ": 5696,
      "'V_Β": 5697,
      "'Η_Β": 5698,
      "'q_Β": 5699,
      "'t_Β": 5700,
      "'η_Β": 5701,
      "(4": 5702,
      "(sqrt(5)*sqrt(": 5703,
      "*μ_": 5704,
      "*ο)": 5705,
      "*θ))": 5706,
      "-5": 5707,
      "-G": 5708,
      "-q": 5709,
      "-β": 5710,
      "-η": 5711,
      "-Q_": 5712,
      "/Υ_": 5713,
      "/Δ_": 5714,
      "/ψ_": 5715,
      "/x_": 5716,
      "/4))": 5717,
      "/J)": 5718,
      "/6)*": 5719,
      "/Ψ),": 5720,
      "/Z),": 5721,
      "/7)*": 5722,
      "18": 5723,
      "1I": 5724,
      "1d": 5725,
      "1k": 5726,
      "1n": 5727,
      "1r": 5728,
      "1Η": 5729,
      "1Ξ": 5730,
      "1Ο": 5731,
      "1f'": 5732,
      "13'": 5733,
      "1)/2))": 5734,
      "23": 5735,
      "26": 5736,
      "2G": 5737,
      "2H": 5738,
      "2Y": 5739,
      "2f": 5740,
      "2m": 5741,
      "2q": 5742,
      "2r": 5743,
      "2Ε": 5744,
      "2Φ": 5745,
      "2Ω": 5746,
      "2λ": 5747,
      "2ψ": 5748,
      "2α'": 5749,
      "2j'": 5750,
      "2)*log(": 5751,
      "2Ε'": 5752,
      "2**log(": 5753,
      "240": 5754,
      "37": 5755,
      "39": 5756,
      "3O": 5757,
      "3Q": 5758,
      "3R": 5759,
      "3S": 5760,
      "3ε": 5761,
      "3μ": 5762,
      "3ρ": 5763,
      "3υ": 5764,
      "3)**(": 5765,
      "3Τ'": 5766,
      "3Φ'": 5767,
      "3Δ'": 5768,
      "3)/2),": 5769,
      "3C))": 5770,
      "3/sqrt(": 5771,
      "44": 5772,
      "46": 5773,
      "4a": 5774,
      "4h": 5775,
      "4l": 5776,
      "4s": 5777,
      "4y": 5778,
      "4δ": 5779,
      "4η": 5780,
      "4μ": 5781,
      "4ρ": 5782,
      "4K'": 5783,
      "4)*log(": 5784,
      "4)),": 5785,
      "4Ξ'": 5786,
      "4m'": 5787,
      "54": 5788,
      "5S": 5789,
      "5W": 5790,
      "5X": 5791,
      "5n": 5792,
      "5p": 5793,
      "5y": 5794,
      "5Β": 5795,
      "5Μ": 5796,
      "5Π": 5797,
      "5Τ": 5798,
      "5Φ": 5799,
      "5Χ": 5800,
      "5Ψ": 5801,
      "5b'": 5802,
      "5)/sqrt(": 5803,
      "5)**(sqrt(": 5804,
      "5**log(": 5805,
      "6C": 5806,
      "6d": 5807,
      "6f": 5808,
      "6i": 5809,
      "6o": 5810,
      "6p": 5811,
      "6Κ": 5812,
      "6Μ": 5813,
      "6Ο": 5814,
      "6Τ": 5815,
      "6Υ": 5816,
      "6δ": 5817,
      "6μ": 5818,
      "6ο": 5819,
      "6m'": 5820,
      "7G": 5821,
      "7I": 5822,
      "7O": 5823,
      "7b": 5824,
      "7s": 5825,
      "7Ζ": 5826,
      "7Υ": 5827,
      "7ω": 5828,
      "7)**(": 5829,
      "7U'": 5830,
      "7)*log(": 5831,
      "7)),": 5832,
      "7)**(sqrt(": 5833,
      "71'": 5834,
      "7)/2)": 5835,
      "8X": 5836,
      "8Ε": 5837,
      "8Κ": 5838,
      "8Μ": 5839,
      "8θ": 5840,
      "8ι": 5841,
      "8μ": 5842,
      "8s'": 5843,
      "8γ'": 5844,
      "8ω'": 5845,
      "8)*log(": 5846,
      "9E": 5847,
      "9I": 5848,
      "9S": 5849,
      "9X": 5850,
      "9Y": 5851,
      "9w": 5852,
      "9x": 5853,
      "9Γ": 5854,
      "9Δ": 5855,
      "9Ν": 5856,
      "9Τ": 5857,
      "9Ω": 5858,
      "9σ": 5859,
      "9ω": 5860,
      "9y'": 5861,
      "9Φ'": 5862,
      "9Γ'": 5863,
      "9)*log(": 5864,
      "9)/2)": 5865,
      "A/": 5866,
      "AN": 5867,
      "AV": 5868,
      "Al": 5869,
      "Ao": 5870,
      "AΩ": 5871,
      "Aα": 5872,
      "Aν": 5873,
      "Aσ": 5874,
      "A)/": 5875,
      "Af'": 5876,
      "AF'": 5877,
      "A**(": 5878,
      "AΥ'": 5879,
      "A)*log(": 5880,
      "Aζ'": 5881,
      "BX": 5882,
      "Bg": 5883,
      "BΙ": 5884,
      "Bγ": 5885,
      "Bλ": 5886,
      "Bφ": 5887,
      "B**": 5888,
      "Bh'": 5889,
      "BΝ'": 5890,
      "C7": 5891,
      "CA": 5892,
      "CJ": 5893,
      "Cr": 5894,
      "Cw": 5895,
      "CΓ": 5896,
      "CΝ": 5897,
      "CΞ": 5898,
      "CΧ": 5899,
      "CΩ": 5900,
      "Cζ": 5901,
      "Cρ'": 5902,
      "Cυ'": 5903,
      "CK'": 5904,
      "Cδ'": 5905,
      "CQ'": 5906,
      "D1": 5907,
      "D3": 5908,
      "DS": 5909,
      "DZ": 5910,
      "Db": 5911,
      "Di": 5912,
      "Dκ": 5913,
      "Dλ": 5914,
      "Dc'": 5915,
      "D**(": 5916,
      "D)/log(": 5917,
      "D3'": 5918,
      "E/": 5919,
      "E2": 5920,
      "EE": 5921,
      "ER": 5922,
      "Eb": 5923,
      "Ef": 5924,
      "EΘ": 5925,
      "EΤ": 5926,
      "Eκ": 5927,
      "Eω": 5928,
      "E)**": 5929,
      "FL": 5930,
      "FO": 5931,
      "Fj": 5932,
      "Fo": 5933,
      "Fu": 5934,
      "Fy": 5935,
      "FΛ": 5936,
      "FΜ": 5937,
      "FΡ": 5938,
      "FΨ": 5939,
      "Fν": 5940,
      "Fυ": 5941,
      "Fφ": 5942,
      "F**(": 5943,
      "Fd'": 5944,
      "F)/log(": 5945,
      "GH": 5946,
      "Gd": 5947,
      "Gf": 5948,
      "Gh": 5949,
      "GΙ": 5950,
      "GΛ": 5951,
      "GΠ": 5952,
      "GΧ": 5953,
      "GΩ": 5954,
      "Gμ": 5955,
      "Gj'": 5956,
      "G)/log(": 5957,
      "GN'": 5958,
      "H2": 5959,
      "H9": 5960,
      "HB": 5961,
      "HI": 5962,
      "HK": 5963,
      "Hb": 5964,
      "Ho": 5965,
      "Hp": 5966,
      "Hq": 5967,
      "Hs": 5968,
      "HΒ": 5969,
      "HΙ": 5970,
      "HΛ": 5971,
      "HΟ": 5972,
      "HΡ": 5973,
      "HΧ": 5974,
      "Hκ": 5975,
      "Hο": 5976,
      "Hυ": 5977,
      "H_Β": 5978,
      "H**(": 5979,
      "HΙ'": 5980,
      "HX'": 5981,
      "HD'": 5982,
      "H_Βr": 5983,
      "IO": 5984,
      "IV": 5985,
      "Ib": 5986,
      "Ig": 5987,
      "Iw": 5988,
      "IΦ": 5989,
      "I**": 5990,
      "Is'": 5991,
      "IΝ'": 5992,
      "I)/log(": 5993,
      "J8": 5994,
      "J9": 5995,
      "JE": 5996,
      "JG": 5997,
      "JM": 5998,
      "JP": 5999,
      "JT": 6000,
      "JV": 6001,
      "Jd": 6002,
      "Jh": 6003,
      "Ji": 6004,
      "Jk": 6005,
      "Jo": 6006,
      "Jq": 6007,
      "Jr": 6008,
      "Jz": 6009,
      "JΚ": 6010,
      "JΜ": 6011,
      "Jλ": 6012,
      "Jλ'": 6013,
      "Jq'": 6014,
      "K6": 6015,
      "KU": 6016,
      "Kn": 6017,
      "Ko": 6018,
      "Kv": 6019,
      "KΥ": 6020,
      "Kγ": 6021,
      "Kζ": 6022,
      "Kσ": 6023,
      "K**": 6024,
      "Kx'": 6025,
      "K)*log(": 6026,
      "L3": 6027,
      "LD": 6028,
      "LG": 6029,
      "LI": 6030,
      "LJ": 6031,
      "LX": 6032,
      "LY": 6033,
      "Li": 6034,
      "Lk": 6035,
      "Lt": 6036,
      "LΩ": 6037,
      "Lη": 6038,
      "L**": 6039,
      "Lθ'": 6040,
      "LΓ'": 6041,
      "L9'": 6042,
      "LΝ,": 6043,
      "M/": 6044,
      "M8": 6045,
      "ML": 6046,
      "MS": 6047,
      "Ms": 6048,
      "MΨ": 6049,
      "Mβ": 6050,
      "Mο": 6051,
      "N*": 6052,
      "NQ": 6053,
      "Nd": 6054,
      "Nt": 6055,
      "Nw": 6056,
      "NΒ": 6057,
      "NΟ": 6058,
      "NΠ": 6059,
      "Nβ": 6060,
      "Nη": 6061,
      "Nσ": 6062,
      "Nl'": 6063,
      "Nρ'": 6064,
      "Nd'": 6065,
      "N5'": 6066,
      "Nd,": 6067,
      "N_ΒΩ": 6068,
      "O/": 6069,
      "OX": 6070,
      "Of": 6071,
      "Og": 6072,
      "Ol": 6073,
      "Oy": 6074,
      "Oz": 6075,
      "OΓ": 6076,
      "OΕ": 6077,
      "Oα": 6078,
      "Oγ": 6079,
      "Oε": 6080,
      "Oη": 6081,
      "O)*log(": 6082,
      "P7": 6083,
      "PK": 6084,
      "Pδ": 6085,
      "Pin": 6086,
      "P)**(": 6087,
      "PΖ'": 6088,
      "P)*log(": 6089,
      "P_Βo": 6090,
      "Q1": 6091,
      "QC": 6092,
      "Qn": 6093,
      "Qr": 6094,
      "QΑ": 6095,
      "QΚ": 6096,
      "Qβ": 6097,
      "Qψ": 6098,
      "Q)*": 6099,
      "Qρ'": 6100,
      "QK'": 6101,
      "Qο'": 6102,
      "QΔ'": 6103,
      "Q9'": 6104,
      "Q2'": 6105,
      "QK,": 6106,
      "Q_ΒU": 6107,
      "RS": 6108,
      "RZ": 6109,
      "Rg": 6110,
      "Rk": 6111,
      "Rr": 6112,
      "RΜ": 6113,
      "RΤ": 6114,
      "Rμ": 6115,
      "Rξ": 6116,
      "Rψ": 6117,
      "R)/": 6118,
      "RSu": 6119,
      "Rγ'": 6120,
      "RΔ'": 6121,
      "R9'": 6122,
      "SC": 6123,
      "SL": 6124,
      "Sk": 6125,
      "Sp": 6126,
      "St": 6127,
      "SΝ": 6128,
      "SΡ": 6129,
      "SΧ": 6130,
      "Sβ": 6131,
      "Sγ": 6132,
      "Sκ": 6133,
      "SΔ'": 6134,
      "S_Ββ": 6135,
      "T/": 6136,
      "TF": 6137,
      "TS": 6138,
      "TU": 6139,
      "Th": 6140,
      "To": 6141,
      "TΑ": 6142,
      "TΔ": 6143,
      "TΕ": 6144,
      "TΖ": 6145,
      "TΠ": 6146,
      "TΦ": 6147,
      "Tζ": 6148,
      "T)/": 6149,
      "T**": 6150,
      "T**(": 6151,
      "TΟ'": 6152,
      "UF": 6153,
      "UI": 6154,
      "Uh": 6155,
      "Uj": 6156,
      "Ur": 6157,
      "UΛ": 6158,
      "UΜ": 6159,
      "UΠ": 6160,
      "Uξ": 6161,
      "Uυ": 6162,
      "U)*log(": 6163,
      "V3": 6164,
      "Va": 6165,
      "Vr": 6166,
      "VΓ": 6167,
      "VΔ": 6168,
      "VΘ": 6169,
      "Vν": 6170,
      "VΨ'": 6171,
      "V)*log(": 6172,
      "V3'": 6173,
      "W/": 6174,
      "W2": 6175,
      "WG": 6176,
      "WI": 6177,
      "WM": 6178,
      "Wb": 6179,
      "Wj": 6180,
      "Wu": 6181,
      "WΜ": 6182,
      "WΥ": 6183,
      "Wκ": 6184,
      "Wρ": 6185,
      "W_Β": 6186,
      "XE": 6187,
      "Xi": 6188,
      "Xt": 6189,
      "Xz": 6190,
      "XΙ": 6191,
      "XΦ": 6192,
      "Xν": 6193,
      "Xο": 6194,
      "Xφ": 6195,
      "X**(": 6196,
      "YC": 6197,
      "YG": 6198,
      "YI": 6199,
      "YK": 6200,
      "Ya": 6201,
      "Yj": 6202,
      "Ym": 6203,
      "Yp": 6204,
      "Yt": 6205,
      "Yv": 6206,
      "Yw": 6207,
      "YΖ": 6208,
      "YΗ": 6209,
      "YΠ": 6210,
      "YΥ": 6211,
      "Yα": 6212,
      "Yγ": 6213,
      "Yη": 6214,
      "Yι": 6215,
      "Yη'": 6216,
      "Z5": 6217,
      "Z6": 6218,
      "ZA": 6219,
      "ZG": 6220,
      "ZQ": 6221,
      "Zf": 6222,
      "Zi": 6223,
      "Zt": 6224,
      "ZΜ": 6225,
      "Zγ": 6226,
      "a6": 6227,
      "aΤ": 6228,
      "aζ": 6229,
      "aσ": 6230,
      "aφ": 6231,
      "aΠ'": 6232,
      "aσ'": 6233,
      "a**(": 6234,
      "aΙ'": 6235,
      "aβ'": 6236,
      "a*log(": 6237,
      "aσ,": 6238,
      "b7": 6239,
      "bH": 6240,
      "bM": 6241,
      "bP": 6242,
      "bT": 6243,
      "bX": 6244,
      "bf": 6245,
      "by": 6246,
      "bz": 6247,
      "bΖ": 6248,
      "bΟ": 6249,
      "bΠ": 6250,
      "bδ": 6251,
      "bι": 6252,
      "bμ": 6253,
      "bν": 6254,
      "b)/": 6255,
      "b**": 6256,
      "bΛ'": 6257,
      "cJ": 6258,
      "cf": 6259,
      "cq": 6260,
      "cΒ": 6261,
      "cΔ": 6262,
      "cΝ": 6263,
      "cι": 6264,
      "c_Β": 6265,
      "c)/log(": 6266,
      "dL": 6267,
      "dX": 6268,
      "do": 6269,
      "dΖ": 6270,
      "dΚ": 6271,
      "dΦ": 6272,
      "dγ": 6273,
      "dP'": 6274,
      "fB": 6275,
      "fN": 6276,
      "fΞ": 6277,
      "fΥ": 6278,
      "fν": 6279,
      "fξ": 6280,
      "fτ": 6281,
      "fφ": 6282,
      "f**": 6283,
      "f**(": 6284,
      "f_ΒΧ": 6285,
      "g9": 6286,
      "gJ": 6287,
      "gO": 6288,
      "gU": 6289,
      "gg": 6290,
      "gi": 6291,
      "gΕ": 6292,
      "gΦ": 6293,
      "gΧ": 6294,
      "gυ": 6295,
      "gΖ'": 6296,
      "gb'": 6297,
      "gφ'": 6298,
      "gη,": 6299,
      "h8": 6300,
      "ha": 6301,
      "hk": 6302,
      "hn": 6303,
      "hΑ": 6304,
      "hΒ": 6305,
      "hΙ": 6306,
      "hι": 6307,
      "ha'": 6308,
      "hκ'": 6309,
      "hΚ,": 6310,
      "i*": 6311,
      "iJ": 6312,
      "iK": 6313,
      "iT": 6314,
      "ii": 6315,
      "iΟ": 6316,
      "iδ": 6317,
      "iν": 6318,
      "ii'": 6319,
      "i)*log(": 6320,
      "jA": 6321,
      "jU": 6322,
      "jV": 6323,
      "jd": 6324,
      "jΚ": 6325,
      "jΜ": 6326,
      "jΠ": 6327,
      "jζ": 6328,
      "jο": 6329,
      "j**": 6330,
      "j)/sqrt(": 6331,
      "kG": 6332,
      "kT": 6333,
      "kX": 6334,
      "kt": 6335,
      "kΜ": 6336,
      "kΦ": 6337,
      "kο": 6338,
      "l3": 6339,
      "l8": 6340,
      "lD": 6341,
      "lH": 6342,
      "lM": 6343,
      "lΟ": 6344,
      "lΥ": 6345,
      "lι": 6346,
      "lυ": 6347,
      "lM'": 6348,
      "lB'": 6349,
      "mC": 6350,
      "mW": 6351,
      "mX": 6352,
      "mb": 6353,
      "mg": 6354,
      "mt": 6355,
      "mw": 6356,
      "mx": 6357,
      "mΩ": 6358,
      "mρ": 6359,
      "mχ": 6360,
      "mΑ'": 6361,
      "nC": 6362,
      "nO": 6363,
      "nj": 6364,
      "np": 6365,
      "nu": 6366,
      "ny": 6367,
      "nΕ": 6368,
      "nΝ": 6369,
      "nΟ": 6370,
      "nτ": 6371,
      "nχ": 6372,
      "nθ'": 6373,
      "np'": 6374,
      "o7": 6375,
      "o9": 6376,
      "oE": 6377,
      "oS": 6378,
      "oi": 6379,
      "os": 6380,
      "oΑ": 6381,
      "oΓ": 6382,
      "oΨ": 6383,
      "oτ": 6384,
      "o**(": 6385,
      "o)**(sqrt(": 6386,
      "p5": 6387,
      "p9": 6388,
      "pA": 6389,
      "pM": 6390,
      "pu": 6391,
      "pΝ": 6392,
      "pΦ": 6393,
      "pι": 6394,
      "pκ": 6395,
      "pν": 6396,
      "pξ": 6397,
      "pρ": 6398,
      "p)**": 6399,
      "p_Βk": 6400,
      "qI": 6401,
      "qQ": 6402,
      "qR": 6403,
      "qZ": 6404,
      "qΥ": 6405,
      "qι": 6406,
      "qσ": 6407,
      "qt'": 6408,
      "q**(sqrt(": 6409,
      "r/": 6410,
      "r5": 6411,
      "r6": 6412,
      "r7": 6413,
      "rH": 6414,
      "rj": 6415,
      "rk": 6416,
      "rw": 6417,
      "rΔ": 6418,
      "rΘ": 6419,
      "rΤ": 6420,
      "rε": 6421,
      "rρ": 6422,
      "rυ": 6423,
      "r**": 6424,
      "rR'": 6425,
      "r**(": 6426,
      "rd'": 6427,
      "rΥ'": 6428,
      "s8": 6429,
      "sA": 6430,
      "sC": 6431,
      "sd": 6432,
      "sv": 6433,
      "sw": 6434,
      "sΚ": 6435,
      "sν": 6436,
      "s)**": 6437,
      "s**": 6438,
      "sx'": 6439,
      "s**(": 6440,
      "td": 6441,
      "tq": 6442,
      "tΔ": 6443,
      "tΗ": 6444,
      "tα": 6445,
      "tδ": 6446,
      "tρ": 6447,
      "tχ": 6448,
      "tζ'": 6449,
      "u5": 6450,
      "uK": 6451,
      "uW": 6452,
      "uo": 6453,
      "uw": 6454,
      "uΒ": 6455,
      "uμ": 6456,
      "uν": 6457,
      "uΗ'": 6458,
      "uo'": 6459,
      "uH'": 6460,
      "uΕ'": 6461,
      "vI": 6462,
      "vR": 6463,
      "vT": 6464,
      "vw": 6465,
      "vα": 6466,
      "vι": 6467,
      "vξ": 6468,
      "vρ": 6469,
      "v**": 6470,
      "w1": 6471,
      "w8": 6472,
      "wA": 6473,
      "wI": 6474,
      "wM": 6475,
      "wg": 6476,
      "wh": 6477,
      "wΤ": 6478,
      "wη": 6479,
      "wρ": 6480,
      "w_Β": 6481,
      "w8'": 6482,
      "wζ'": 6483,
      "x/": 6484,
      "xI": 6485,
      "xJ": 6486,
      "xN": 6487,
      "xl": 6488,
      "xo": 6489,
      "xp": 6490,
      "xx": 6491,
      "xΒ": 6492,
      "xΡ": 6493,
      "xΨ": 6494,
      "xΩ": 6495,
      "xν": 6496,
      "xυ": 6497,
      "x**": 6498,
      "x**(": 6499,
      "xΖ'": 6500,
      "x)*log(": 6501,
      "y*": 6502,
      "yA": 6503,
      "yI": 6504,
      "yY": 6505,
      "yb": 6506,
      "yj": 6507,
      "yΙ": 6508,
      "yΚ": 6509,
      "yγ": 6510,
      "yτ": 6511,
      "yΡ'": 6512,
      "y)),": 6513,
      "yΕ'": 6514,
      "yP,": 6515,
      "zB": 6516,
      "zD": 6517,
      "zE": 6518,
      "zI": 6519,
      "zQ": 6520,
      "zq": 6521,
      "zΚ": 6522,
      "z)/": 6523,
      "zA'": 6524,
      "z**(": 6525,
      "zK'": 6526,
      "z)/log(": 6527,
      "z_Βυ": 6528,
      "Α*": 6529,
      "Αf": 6530,
      "Αo": 6531,
      "Αt": 6532,
      "ΑΕ": 6533,
      "ΑΙ": 6534,
      "ΑΥ": 6535,
      "Αω": 6536,
      "Αβ'": 6537,
      "Αr'": 6538,
      "Γ/": 6539,
      "Γ3": 6540,
      "Γ4": 6541,
      "ΓB": 6542,
      "ΓO": 6543,
      "ΓP": 6544,
      "ΓQ": 6545,
      "ΓW": 6546,
      "Γt": 6547,
      "ΓΒ": 6548,
      "ΓΚ": 6549,
      "ΓΛ": 6550,
      "ΓΞ": 6551,
      "ΓΠ": 6552,
      "Γη": 6553,
      "Γκ": 6554,
      "Γ)**": 6555,
      "Γx'": 6556,
      "Γ**(": 6557,
      "ΓΧ'": 6558,
      "ΓI'": 6559,
      "Γ4'": 6560,
      "ΓP'": 6561,
      "ΔG": 6562,
      "Δm": 6563,
      "Δy": 6564,
      "Δz": 6565,
      "ΔΒ": 6566,
      "ΔΙ": 6567,
      "ΔΚ": 6568,
      "ΔΤ": 6569,
      "ΔΨ": 6570,
      "Δυ": 6571,
      "Δψ": 6572,
      "ΔΣ'": 6573,
      "Δ)/2))": 6574,
      "Ε5": 6575,
      "Ε8": 6576,
      "ΕF": 6577,
      "ΕV": 6578,
      "ΕW": 6579,
      "ΕX": 6580,
      "Εt": 6581,
      "Εv": 6582,
      "Εx": 6583,
      "ΕΥ": 6584,
      "ΕΦ": 6585,
      "Εκ": 6586,
      "Εν": 6587,
      "Εψ": 6588,
      "ΕW'": 6589,
      "Εn'": 6590,
      "Ε**(": 6591,
      "Εw'": 6592,
      "Ε)*log(": 6593,
      "ΖU": 6594,
      "ΖW": 6595,
      "ΖΕ": 6596,
      "Ζτ": 6597,
      "ΖA'": 6598,
      "Ζl'": 6599,
      "Η/": 6600,
      "Η8": 6601,
      "ΗE": 6602,
      "Ηn": 6603,
      "ΗΨ": 6604,
      "Ηζ": 6605,
      "Ηι": 6606,
      "Ηχ": 6607,
      "ΗΖ'": 6608,
      "Θ6": 6609,
      "Θd": 6610,
      "Θg": 6611,
      "Θx": 6612,
      "ΘΖ": 6613,
      "ΘΥ": 6614,
      "Θγ": 6615,
      "Θκ": 6616,
      "Θυ": 6617,
      "Θ**(": 6618,
      "Θ)/sqrt(": 6619,
      "ΙB": 6620,
      "ΙD": 6621,
      "ΙH": 6622,
      "ΙL": 6623,
      "ΙZ": 6624,
      "Ιi": 6625,
      "Ιq": 6626,
      "Ιu": 6627,
      "ΙΨ": 6628,
      "Ιδ": 6629,
      "Ιξ": 6630,
      "Ι_Β": 6631,
      "ΙΛ'": 6632,
      "ΙT'": 6633,
      "Κ/": 6634,
      "ΚE": 6635,
      "ΚL": 6636,
      "ΚO": 6637,
      "ΚU": 6638,
      "ΚV": 6639,
      "Κl": 6640,
      "Κr": 6641,
      "ΚΕ": 6642,
      "ΚΛ": 6643,
      "ΚΝ": 6644,
      "ΚΤ": 6645,
      "ΚΨ": 6646,
      "Κη": 6647,
      "Κθ": 6648,
      "Κλ": 6649,
      "Κμ": 6650,
      "Κξ": 6651,
      "Κχ": 6652,
      "Κ_Β": 6653,
      "Κi'": 6654,
      "Κ)),": 6655,
      "Κ)/log(": 6656,
      "ΚO'": 6657,
      "ΛR": 6658,
      "ΛU": 6659,
      "Λq": 6660,
      "Λw": 6661,
      "ΛΥ": 6662,
      "ΛΦ": 6663,
      "ΛΩ": 6664,
      "Λδ": 6665,
      "Λφ": 6666,
      "Λ**(": 6667,
      "Λ)**(sqrt(": 6668,
      "Μ3": 6669,
      "Μp": 6670,
      "ΜΡ": 6671,
      "ΜΤ": 6672,
      "Μα": 6673,
      "Ν6": 6674,
      "ΝD": 6675,
      "ΝK": 6676,
      "Νc": 6677,
      "ΝΨ": 6678,
      "Νnc": 6679,
      "Ν)/": 6680,
      "Ν)**": 6681,
      "Ν**(": 6682,
      "ΝΟ'": 6683,
      "Νv'": 6684,
      "Ξ3": 6685,
      "ΞE": 6686,
      "ΞU": 6687,
      "Ξx": 6688,
      "ΞΙ": 6689,
      "ΞΠ": 6690,
      "ΞΡ": 6691,
      "Ξλ": 6692,
      "Ξν": 6693,
      "Ξξ": 6694,
      "Ξσ": 6695,
      "Ξψ": 6696,
      "ΞA'": 6697,
      "ΞX'": 6698,
      "Ξ)),": 6699,
      "ΟB": 6700,
      "ΟS": 6701,
      "ΟW": 6702,
      "ΟZ": 6703,
      "Οb": 6704,
      "Οi": 6705,
      "Οp": 6706,
      "Οv": 6707,
      "ΟΗ": 6708,
      "ΟΚ": 6709,
      "ΟΠ": 6710,
      "Οε": 6711,
      "Ομ": 6712,
      "Ον": 6713,
      "Ορ": 6714,
      "Οχ": 6715,
      "Οol": 6716,
      "ΟU'": 6717,
      "Ο)*log(": 6718,
      "Ο5'": 6719,
      "Π*": 6720,
      "Π1": 6721,
      "Π2": 6722,
      "Π4": 6723,
      "ΠT": 6724,
      "ΠV": 6725,
      "Πo": 6726,
      "ΠΕ": 6727,
      "ΠΧ": 6728,
      "Πσ": 6729,
      "Πυ": 6730,
      "Π_Β": 6731,
      "ΠR'": 6732,
      "Π**(": 6733,
      "ΠΕ'": 6734,
      "Ρ*": 6735,
      "Ρa": 6736,
      "Ρg": 6737,
      "Ρl": 6738,
      "ΡΒ": 6739,
      "ΡΘ": 6740,
      "ΡΙ": 6741,
      "ΡΤ": 6742,
      "ΡΩ": 6743,
      "Ρκ": 6744,
      "Ρ)**": 6745,
      "Ρl'": 6746,
      "ΡR'": 6747,
      "Σ/": 6748,
      "ΣG": 6749,
      "ΣI": 6750,
      "ΣP": 6751,
      "ΣZ": 6752,
      "Σa": 6753,
      "Σn": 6754,
      "ΣΘ": 6755,
      "ΣΛ": 6756,
      "ΣΞ": 6757,
      "Σζ": 6758,
      "Σ_Β": 6759,
      "Σ)*log(": 6760,
      "Σ)/log(": 6761,
      "Σφ'": 6762,
      "ΤD": 6763,
      "ΤN": 6764,
      "ΤZ": 6765,
      "Τl": 6766,
      "Τz": 6767,
      "ΤΖ": 6768,
      "ΤΠ": 6769,
      "Τη": 6770,
      "Τν": 6771,
      "Τol": 6772,
      "Τ**(": 6773,
      "Τβ'": 6774,
      "ΤΖ'": 6775,
      "Τ)),": 6776,
      "Υj": 6777,
      "Υq": 6778,
      "Υz": 6779,
      "ΥΚ": 6780,
      "ΥΝ": 6781,
      "ΥΠ": 6782,
      "ΥΧ": 6783,
      "Υμ": 6784,
      "Υ)/": 6785,
      "ΥY'": 6786,
      "ΦF": 6787,
      "Φp": 6788,
      "Φu": 6789,
      "ΦΓ": 6790,
      "ΦΠ": 6791,
      "Φj'": 6792,
      "ΦΝ'": 6793,
      "Χ*": 6794,
      "ΧP": 6795,
      "ΧQ": 6796,
      "ΧV": 6797,
      "ΧZ": 6798,
      "Χh": 6799,
      "Χi": 6800,
      "Χl": 6801,
      "ΧΛ": 6802,
      "ΧΝ": 6803,
      "Χδ": 6804,
      "Χη": 6805,
      "Χτ": 6806,
      "ΧJ'": 6807,
      "Ψ2": 6808,
      "ΨE": 6809,
      "ΨF": 6810,
      "Ψi": 6811,
      "Ψz": 6812,
      "ΨΗ": 6813,
      "ΨΘ": 6814,
      "ΨΜ": 6815,
      "ΨΞ": 6816,
      "ΨΟ": 6817,
      "Ψκ": 6818,
      "Ψν": 6819,
      "ΨΣ'": 6820,
      "Ω/": 6821,
      "ΩZ": 6822,
      "Ωn": 6823,
      "Ωq": 6824,
      "Ωw": 6825,
      "Ωη": 6826,
      "Ω2'": 6827,
      "ΩΕ'": 6828,
      "α3": 6829,
      "αS": 6830,
      "αW": 6831,
      "αi": 6832,
      "αl": 6833,
      "αv": 6834,
      "αz": 6835,
      "αΑ": 6836,
      "αΒ": 6837,
      "αΘ": 6838,
      "αΜ": 6839,
      "αη": 6840,
      "αλ": 6841,
      "αυ": 6842,
      "αφ": 6843,
      "αΗ'": 6844,
      "αΞ'": 6845,
      "β2": 6846,
      "βF": 6847,
      "βX": 6848,
      "βd": 6849,
      "βn": 6850,
      "βq": 6851,
      "βΝ": 6852,
      "βη": 6853,
      "βξ": 6854,
      "βυ": 6855,
      "βχ": 6856,
      "β_Β": 6857,
      "βl'": 6858,
      "β**(": 6859,
      "βV'": 6860,
      "βΖ'": 6861,
      "β)**log(": 6862,
      "γ6": 6863,
      "γ9": 6864,
      "γP": 6865,
      "γQ": 6866,
      "γΖ": 6867,
      "γΥ": 6868,
      "γφ": 6869,
      "γ)/log(": 6870,
      "γQ'": 6871,
      "γ5'": 6872,
      "δ6": 6873,
      "δR": 6874,
      "δa": 6875,
      "δd": 6876,
      "δt": 6877,
      "δΜ": 6878,
      "δΞ": 6879,
      "δζ": 6880,
      "δι": 6881,
      "δ_Β": 6882,
      "δΠ'": 6883,
      "δh'": 6884,
      "εb": 6885,
      "εk": 6886,
      "εz": 6887,
      "εΕ": 6888,
      "εΩ": 6889,
      "εδ": 6890,
      "εζ": 6891,
      "εη": 6892,
      "ερ": 6893,
      "ε**(": 6894,
      "εC'": 6895,
      "εc,": 6896,
      "ζ/": 6897,
      "ζ6": 6898,
      "ζ8": 6899,
      "ζJ": 6900,
      "ζO": 6901,
      "ζQ": 6902,
      "ζW": 6903,
      "ζl": 6904,
      "ζz": 6905,
      "ζΚ": 6906,
      "ζΩ": 6907,
      "ζμ": 6908,
      "ζξ": 6909,
      "ζρ": 6910,
      "ζm'": 6911,
      "ηC": 6912,
      "ηD": 6913,
      "ηG": 6914,
      "ηJ": 6915,
      "ηT": 6916,
      "ηΔ": 6917,
      "ηΚ": 6918,
      "ηΦ": 6919,
      "ηα": 6920,
      "ηη": 6921,
      "ηυ": 6922,
      "η**": 6923,
      "η)/sqrt(": 6924,
      "θG": 6925,
      "θΛ": 6926,
      "θΥ": 6927,
      "θα": 6928,
      "θε": 6929,
      "θλ": 6930,
      "θξ": 6931,
      "θφ": 6932,
      "θω": 6933,
      "θx'": 6934,
      "θl'": 6935,
      "ι*": 6936,
      "ι/": 6937,
      "ι4": 6938,
      "ιb": 6939,
      "ιg": 6940,
      "ιy": 6941,
      "ιΕ": 6942,
      "ιΛ": 6943,
      "ια": 6944,
      "ιρ": 6945,
      "ιχ": 6946,
      "ι**": 6947,
      "ι**(": 6948,
      "ι)*log(": 6949,
      "ι)**log(": 6950,
      "κA": 6951,
      "κZ": 6952,
      "κq": 6953,
      "κy": 6954,
      "κΗ": 6955,
      "κΧ": 6956,
      "κζ": 6957,
      "κρ": 6958,
      "κχ'": 6959,
      "λC": 6960,
      "λW": 6961,
      "λi": 6962,
      "λz": 6963,
      "λΖ": 6964,
      "λΙ": 6965,
      "λΡ": 6966,
      "λra": 6967,
      "λM'": 6968,
      "λ)),": 6969,
      "μ4": 6970,
      "μD": 6971,
      "μt": 6972,
      "μΚ": 6973,
      "μζ": 6974,
      "μθ": 6975,
      "μο": 6976,
      "μσ": 6977,
      "μY'": 6978,
      "ν1": 6979,
      "νL": 6980,
      "νx": 6981,
      "νz": 6982,
      "νΛ": 6983,
      "νΜ": 6984,
      "νΤ": 6985,
      "νΥ": 6986,
      "νθ": 6987,
      "νμ": 6988,
      "ν)/": 6989,
      "νθ'": 6990,
      "ν5'": 6991,
      "ξL": 6992,
      "ξO": 6993,
      "ξg": 6994,
      "ξΒ": 6995,
      "ξΘ": 6996,
      "ξΣ": 6997,
      "ξΤ": 6998,
      "ξα": 6999,
      "ξμ": 7000,
      "ξρ": 7001,
      "ξ_Β": 7002,
      "ξ**(": 7003,
      "ξ)*log(": 7004,
      "ο7": 7005,
      "οN": 7006,
      "οR": 7007,
      "οS": 7008,
      "οU": 7009,
      "οa": 7010,
      "οr": 7011,
      "οt": 7012,
      "οΞ": 7013,
      "οΦ": 7014,
      "οsq": 7015,
      "ο**": 7016,
      "ο)**(": 7017,
      "οk'": 7018,
      "οξ'": 7019,
      "ο)*log(": 7020,
      "ο)),": 7021,
      "ο*log(": 7022,
      "ο2'": 7023,
      "ο3'": 7024,
      "ρH": 7025,
      "ρΙ": 7026,
      "ρΛ": 7027,
      "ρΝ": 7028,
      "ρι": 7029,
      "ρμ": 7030,
      "ρυ": 7031,
      "ρ)/sqrt(": 7032,
      "ρ)**log(": 7033,
      "σG": 7034,
      "σM": 7035,
      "σZ": 7036,
      "σg": 7037,
      "σq": 7038,
      "σΔ": 7039,
      "σΞ": 7040,
      "σΣ": 7041,
      "σΨ": 7042,
      "σΩ": 7043,
      "σε": 7044,
      "σν": 7045,
      "σ_Β": 7046,
      "σh'": 7047,
      "σV'": 7048,
      "τ3": 7049,
      "τD": 7050,
      "τP": 7051,
      "τg": 7052,
      "τn": 7053,
      "τΛ": 7054,
      "τΜ": 7055,
      "τΟ": 7056,
      "τΤ": 7057,
      "τΥ": 7058,
      "τΨ": 7059,
      "τ)*log(": 7060,
      "τ)),": 7061,
      "τφ'": 7062,
      "τ)/2),": 7063,
      "υ8": 7064,
      "υI": 7065,
      "υO": 7066,
      "υR": 7067,
      "υZ": 7068,
      "υk": 7069,
      "υn": 7070,
      "υΓ": 7071,
      "υΠ": 7072,
      "υΦ": 7073,
      "υθ": 7074,
      "υι": 7075,
      "υκ'": 7076,
      "υ)/sqrt(": 7077,
      "φ*": 7078,
      "φC": 7079,
      "φG": 7080,
      "φi": 7081,
      "φΒ": 7082,
      "φΚ": 7083,
      "φΛ": 7084,
      "φΝ": 7085,
      "φβ": 7086,
      "φη": 7087,
      "φσ": 7088,
      "φ)/": 7089,
      "φΠ'": 7090,
      "χA": 7091,
      "χS": 7092,
      "χW": 7093,
      "χc": 7094,
      "χd": 7095,
      "χq": 7096,
      "χθ": 7097,
      "χρ": 7098,
      "χω": 7099,
      "χ**(": 7100,
      "χο'": 7101,
      "χb'": 7102,
      "ψ1": 7103,
      "ψC": 7104,
      "ψΔ": 7105,
      "ψΥ": 7106,
      "ψ)/": 7107,
      "ψ)*log(": 7108,
      "ψ*log(": 7109,
      "ω7": 7110,
      "ωA": 7111,
      "ωF": 7112,
      "ωV": 7113,
      "ωc": 7114,
      "ωw": 7115,
      "ωΒ": 7116,
      "ωΜ": 7117,
      "ωΥ": 7118,
      "ωε": 7119,
      "ωτ": 7120,
      "ωχ": 7121,
      "ω)**": 7122,
      "ωy'": 7123,
      "ω)/log(": 7124,
      "su'": 7125,
      "log(C": 7126,
      "log(n": 7127,
      "log(u": 7128,
      "log(Κ": 7129,
      "log(Ξ": 7130,
      "log(γ": 7131,
      "log(ν": 7132,
      "log(σ": 7133,
      "log(τ": 7134,
      "log(T_": 7135,
      "log(Η_": 7136,
      "log(Υ_": 7137,
      "log(y_": 7138,
      "log(L_": 7139,
      "log(Σ_": 7140,
      "log(Ν_": 7141,
      "log(i_": 7142,
      "log(p_": 7143,
      "log(d_": 7144,
      "log(v_": 7145,
      "log(Ζ_": 7146,
      "log(3*": 7147,
      "log(7*": 7148,
      "log(u))": 7149,
      "log(L))": 7150,
      "log(Γ))": 7151,
      "log(Ε))": 7152,
      "log(f)": 7153,
      "log(y)": 7154,
      "log(Η))": 7155,
      "log(R)": 7156,
      "log(ζ)": 7157,
      "log(r)": 7158,
      "log(ι)": 7159,
      "log(ψ)": 7160,
      "log(q)": 7161,
      "log(T)": 7162,
      "log(γ)": 7163,
      "log(ε)": 7164,
      "log(ν),": 7165,
      "log(Α)": 7166,
      "log(Γ),": 7167,
      "log(Μ)": 7168,
      "log(ε),": 7169,
      "log(T),": 7170,
      "log(t),": 7171,
      "log(Α),": 7172,
      "log(ο),": 7173,
      "log(υ),": 7174,
      "log(Β),": 7175,
      "log(Ω),": 7176,
      "log(Y),": 7177,
      "log(Ψ)**": 7178,
      "log(ξ)/": 7179,
      "log(U/": 7180,
      "sqrt(B": 7181,
      "sqrt(X": 7182,
      "sqrt(h": 7183,
      "sqrt(Ξ": 7184,
      "sqrt(Q_": 7185,
      "sqrt(Η_": 7186,
      "sqrt(B_": 7187,
      "sqrt(X_": 7188,
      "sqrt(η_": 7189,
      "sqrt(J_": 7190,
      "sqrt(L_": 7191,
      "sqrt(Ψ_": 7192,
      "sqrt(θ_": 7193,
      "sqrt(v_": 7194,
      "sqrt(λ_": 7195,
      "sqrt(Ζ_": 7196,
      "sqrt(P_": 7197,
      "sqrt(Ξ_": 7198,
      "sqrt(Θ)": 7199,
      "sqrt(f)": 7200,
      "sqrt(Ζ)": 7201,
      "sqrt(Κ)": 7202,
      "sqrt(X)": 7203,
      "sqrt(θ)": 7204,
      "sqrt(Δ)": 7205,
      "sqrt(L)": 7206,
      "sqrt(C)": 7207,
      "sqrt(m)": 7208,
      "sqrt(n)": 7209,
      "sqrt(v)": 7210,
      "sqrt(ε)": 7211,
      "sqrt(M)": 7212,
      "sqrt(i)": 7213,
      "sqrt(η)": 7214,
      "sqrt(Η),": 7215,
      "sqrt(Μ)": 7216,
      "sqrt(a)": 7217,
      "sqrt(b)": 7218,
      "sqrt(g)": 7219,
      "sqrt(ψ)*": 7220,
      "sqrt(r)/": 7221,
      "sqrt(x)*": 7222,
      "sqrt(Ο)*": 7223,
      "sqrt(b)*": 7224,
      "sqrt(G)*": 7225,
      "sqrt(P)*": 7226,
      "Sum(1": 7227,
      "Sum(2**": 7228,
      "Derivative(g": 7229,
      "Derivative(h": 7230,
      "Derivative(t": 7231,
      "Derivative(u": 7232,
      "Derivative(Ε": 7233,
      "Derivative(Ρ": 7234,
      "Derivative(5*": 7235,
      "Derivative(2*log(": 7236,
      "Derivative(2*sqrt(2)*sqrt(": 7237,
      "Derivative(H*": 7238,
      "Integral(b": 7239,
      "Integral(f": 7240,
      "Integral(β_": 7241,
      "Integral(P_": 7242,
      "Integral(7*": 7243,
      "Integral(8*": 7244,
      "Integral(4*log(": 7245,
      "Integral(φ**(": 7246,
      "**P": 7247,
      "_ΒO": 7248,
      "_ΒΙ": 7249,
      "_Βκ": 7250,
      "Q_C": 7251,
      "Q_G": 7252,
      "Q_J": 7253,
      "Q_T": 7254,
      "Q_x": 7255,
      "Q_Α": 7256,
      "Q_Γ": 7257,
      "Q_dr": 7258,
      "Z_7": 7259,
      "Z_8": 7260,
      "Z_A": 7261,
      "Z_U": 7262,
      "Z_V": 7263,
      "Z_b": 7264,
      "Z_f": 7265,
      "Z_Κ": 7266,
      "Z_Ν": 7267,
      "Z_Ο": 7268,
      "Z_ζ": 7269,
      "Z_υ": 7270,
      "Z_ΘΝ": 7271,
      "Z_2k": 7272,
      "Z_ξw": 7273,
      "F_B": 7274,
      "F_f": 7275,
      "F_k": 7276,
      "F_l": 7277,
      "F_v": 7278,
      "F_Μ": 7279,
      "F_Ψ": 7280,
      "F_θ": 7281,
      "F_ι": 7282,
      "h_I": 7283,
      "h_K": 7284,
      "h_N": 7285,
      "h_Π": 7286,
      "h_ψ": 7287,
      "ξ_6": 7288,
      "ξ_8": 7289,
      "ξ_C": 7290,
      "ξ_K": 7291,
      "ξ_X": 7292,
      "ξ_Y": 7293,
      "ξ_f": 7294,
      "ξ_Μ": 7295,
      "ξ_Τ": 7296,
      "ξ_Υ": 7297,
      "ξ_λ": 7298,
      "ξ_νg": 7299,
      "Π_4": 7300,
      "Π_G": 7301,
      "Π_O": 7302,
      "Π_g": 7303,
      "Π_o": 7304,
      "Π_z": 7305,
      "Π_Θ": 7306,
      "Π_γ": 7307,
      "Π_ξ": 7308,
      "Π_ρ": 7309,
      "Π_dΞ": 7310,
      "n_Δ": 7311,
      "n_Ι": 7312,
      "n_Κ": 7313,
      "n_α": 7314,
      "n_ο": 7315,
      "n_αΞ": 7316,
      "n_ιE": 7317,
      "μ_7": 7318,
      "μ_C": 7319,
      "μ_ψ": 7320,
      "μ_zo": 7321,
      "μ_ΥV": 7322,
      "Θ_K": 7323,
      "Θ_O": 7324,
      "Θ_U": 7325,
      "Θ_o": 7326,
      "Θ_χ": 7327,
      "Θ_lB": 7328,
      "Θ_Χ4": 7329,
      "T_6": 7330,
      "T_p": 7331,
      "T_Ν": 7332,
      "T_ρ": 7333,
      "T_ED": 7334,
      "T_γB": 7335,
      "f_R": 7336,
      "f_ΨM": 7337,
      "Η_C": 7338,
      "Η_E": 7339,
      "Η_P": 7340,
      "Η_Z": 7341,
      "Η_Ρ": 7342,
      "B_R": 7343,
      "B_Z": 7344,
      "B_y": 7345,
      "B_Η": 7346,
      "B_Κ": 7347,
      "B_γ": 7348,
      "B_9i": 7349,
      "X_U": 7350,
      "X_p": 7351,
      "X_Mk": 7352,
      "X_15": 7353,
      "X_θσ": 7354,
      "X_hc": 7355,
      "X_ΨP": 7356,
      "Υ_X": 7357,
      "Υ_i": 7358,
      "Υ_y": 7359,
      "Υ_ν": 7360,
      "τ_8": 7361,
      "τ_K": 7362,
      "τ_Y": 7363,
      "τ_j": 7364,
      "τ_Ο": 7365,
      "τ_Σ": 7366,
      "ν_1": 7367,
      "ν_a": 7368,
      "ν_h": 7369,
      "ν_Μ": 7370,
      "ν_Π": 7371,
      "ν_Τ": 7372,
      "ν_Φ": 7373,
      "ν_ψz": 7374,
      "ν_Ο4": 7375,
      "ν_ζH": 7376,
      "γ_O": 7377,
      "γ_b": 7378,
      "γ_i": 7379,
      "γ_Η": 7380,
      "γ_Χ": 7381,
      "γ_BΨ": 7382,
      "η_3": 7383,
      "η_6": 7384,
      "η_L": 7385,
      "η_Α": 7386,
      "η_Υ": 7387,
      "G_S": 7388,
      "G_k": 7389,
      "G_t": 7390,
      "G_Η": 7391,
      "G_ρ": 7392,
      "G_χ": 7393,
      "G_Θξ": 7394,
      "G_dχ": 7395,
      "a_7": 7396,
      "a_E": 7397,
      "a_G": 7398,
      "a_M": 7399,
      "a_Q": 7400,
      "a_w": 7401,
      "a_Θ": 7402,
      "a_ν": 7403,
      "a_τ": 7404,
      "a_2Z": 7405,
      "a_uΛ": 7406,
      "a_Τw": 7407,
      "a_Χε": 7408,
      "Κ_A": 7409,
      "Κ_G": 7410,
      "Κ_f": 7411,
      "Κ_Α": 7412,
      "Κ_Κ": 7413,
      "Κ_Σ": 7414,
      "Κ_Ψ": 7415,
      "Κ_my": 7416,
      "Κ_3i": 7417,
      "Κ_Iη": 7418,
      "υ_X": 7419,
      "υ_m": 7420,
      "υ_x": 7421,
      "υ_ρ": 7422,
      "υ_YΚ": 7423,
      "Ο_2": 7424,
      "Ο_6": 7425,
      "Ο_9": 7426,
      "Ο_T": 7427,
      "Ο_p": 7428,
      "Ο_β": 7429,
      "Ο_ε": 7430,
      "Ο_ι": 7431,
      "Ο_ψ": 7432,
      "Ο_TΨ": 7433,
      "Ο_ηM": 7434,
      "J_G": 7435,
      "J_N": 7436,
      "J_Y": 7437,
      "J_Κ": 7438,
      "J_Ν": 7439,
      "y_P": 7440,
      "y_S": 7441,
      "y_a": 7442,
      "y_l": 7443,
      "y_Α": 7444,
      "y_Ν": 7445,
      "y_Π": 7446,
      "y_κ": 7447,
      "y_3Μ": 7448,
      "W_5": 7449,
      "W_G": 7450,
      "W_R": 7451,
      "W_g": 7452,
      "W_p": 7453,
      "W_s": 7454,
      "W_ωΚ": 7455,
      "Δ_C": 7456,
      "Δ_H": 7457,
      "Δ_Η": 7458,
      "Δ_Χ": 7459,
      "Δ_Ω": 7460,
      "Δ_λ": 7461,
      "Δ_ω": 7462,
      "Δ_TW": 7463,
      "l_J": 7464,
      "l_X": 7465,
      "l_n": 7466,
      "l_Ω": 7467,
      "l_ε": 7468,
      "l_Ψδ": 7469,
      "A_7": 7470,
      "A_j": 7471,
      "A_o": 7472,
      "A_p": 7473,
      "A_Α": 7474,
      "A_Ι": 7475,
      "A_ξ": 7476,
      "A_σ": 7477,
      "A_ψ": 7478,
      "ε_G": 7479,
      "ε_Φ": 7480,
      "ε_Ω": 7481,
      "ε_α": 7482,
      "ε_ρ": 7483,
      "ε_Υδ": 7484,
      "ε_Tp": 7485,
      "C_8": 7486,
      "C_Y": 7487,
      "C_p": 7488,
      "C_t": 7489,
      "C_Π": 7490,
      "C_Σ": 7491,
      "C_ΓL": 7492,
      "q_Q": 7493,
      "q_d": 7494,
      "q_g": 7495,
      "q_i": 7496,
      "q_Θ": 7497,
      "q_μ": 7498,
      "q_ξ": 7499,
      "q_ω": 7500,
      "q_7Φ": 7501,
      "q_Δw": 7502,
      "q_θV": 7503,
      "Ι_5": 7504,
      "Ι_A": 7505,
      "Ι_I": 7506,
      "Ι_o": 7507,
      "Ι_q": 7508,
      "Ι_υ": 7509,
      "Ι_φ": 7510,
      "Ι_Γε": 7511,
      "Ι_6t": 7512,
      "Ι_Θ4": 7513,
      "Ρ_H": 7514,
      "Ρ_M": 7515,
      "Ρ_b": 7516,
      "Ρ_h": 7517,
      "Ρ_Ω": 7518,
      "Ρ_7φ": 7519,
      "Ρ_φj": 7520,
      "Ρ_ix": 7521,
      "I_J": 7522,
      "I_d": 7523,
      "I_f": 7524,
      "I_n": 7525,
      "I_Η": 7526,
      "I_δ": 7527,
      "I_λ": 7528,
      "ο_8": 7529,
      "ο_9": 7530,
      "ο_M": 7531,
      "ο_P": 7532,
      "ο_s": 7533,
      "ο_FΒ": 7534,
      "g_1": 7535,
      "g_6": 7536,
      "g_G": 7537,
      "g_Z": 7538,
      "g_c": 7539,
      "g_u": 7540,
      "g_Δ": 7541,
      "g_Σ": 7542,
      "R_3": 7543,
      "R_B": 7544,
      "R_E": 7545,
      "R_M": 7546,
      "R_W": 7547,
      "R_Z": 7548,
      "R_m": 7549,
      "R_p": 7550,
      "R_Θ": 7551,
      "R_Ud": 7552,
      "R_4M": 7553,
      "κ_M": 7554,
      "κ_Y": 7555,
      "κ_s": 7556,
      "κ_Μ": 7557,
      "κ_Χ": 7558,
      "κ_η": 7559,
      "L_D": 7560,
      "L_R": 7561,
      "L_x": 7562,
      "L_ξ": 7563,
      "L_2g": 7564,
      "L_nλ": 7565,
      "χ_5": 7566,
      "χ_r": 7567,
      "χ_Θ": 7568,
      "χ_Χ": 7569,
      "χ_λ": 7570,
      "χ_χβ": 7571,
      "Λ_g": 7572,
      "Λ_j": 7573,
      "Λ_k": 7574,
      "Λ_Α": 7575,
      "Λ_Π": 7576,
      "Λ_oj": 7577,
      "Λ_Nυ": 7578,
      "Λ_ΦΝ": 7579,
      "Γ_B": 7580,
      "Γ_C": 7581,
      "Γ_T": 7582,
      "Γ_z": 7583,
      "Γ_Ν": 7584,
      "Γ_ξ": 7585,
      "Γ_σ": 7586,
      "ω_K": 7587,
      "ω_N": 7588,
      "ω_R": 7589,
      "ω_f": 7590,
      "ω_k": 7591,
      "ω_r": 7592,
      "ω_Ω": 7593,
      "ω_σ": 7594,
      "ω_χ": 7595,
      "ω_ΦΙ": 7596,
      "ψ_4": 7597,
      "ψ_6": 7598,
      "ψ_x": 7599,
      "ψ_Ψ": 7600,
      "ψ_ξ": 7601,
      "r_I": 7602,
      "r_d": 7603,
      "r_h": 7604,
      "r_o": 7605,
      "r_q": 7606,
      "r_Ν": 7607,
      "r_Εμ": 7608,
      "r_SF": 7609,
      "Σ_8": 7610,
      "Σ_O": 7611,
      "Σ_l": 7612,
      "Σ_v": 7613,
      "Σ_y": 7614,
      "Σ_Κ": 7615,
      "Σ_Φ": 7616,
      "Σ_Ψ": 7617,
      "Σ_θ": 7618,
      "Σ_μ": 7619,
      "Σ_AΗ": 7620,
      "Σ_λε": 7621,
      "Σ_iY": 7622,
      "E_R": 7623,
      "E_n": 7624,
      "E_o": 7625,
      "E_β": 7626,
      "E_ζ": 7627,
      "E_ω": 7628,
      "U_C": 7629,
      "U_D": 7630,
      "U_R": 7631,
      "U_W": 7632,
      "U_n": 7633,
      "U_Υ": 7634,
      "U_ψ": 7635,
      "Χ_O": 7636,
      "Χ_Z": 7637,
      "Χ_b": 7638,
      "Χ_i": 7639,
      "Χ_p": 7640,
      "Χ_α": 7641,
      "Χ_Εg": 7642,
      "Χ_Y1": 7643,
      "Χ_Θq": 7644,
      "α_D": 7645,
      "α_Q": 7646,
      "α_X": 7647,
      "α_k": 7648,
      "α_Τ": 7649,
      "α_ν": 7650,
      "Φ_4": 7651,
      "Φ_Ψ7": 7652,
      "Ν_O": 7653,
      "Ν_P": 7654,
      "Ν_n": 7655,
      "Ν_o": 7656,
      "Ν_u": 7657,
      "Ν_Ι": 7658,
      "Ν_3Δ": 7659,
      "K_D": 7660,
      "K_J": 7661,
      "K_i": 7662,
      "K_o": 7663,
      "K_Θ": 7664,
      "K_ψ": 7665,
      "K_a1": 7666,
      "k_Δ": 7667,
      "k_Ρ": 7668,
      "k_Φ": 7669,
      "k_Χ": 7670,
      "k_κ": 7671,
      "k_μ": 7672,
      "k_ν": 7673,
      "k_9χ": 7674,
      "t_I": 7675,
      "t_W": 7676,
      "t_Z": 7677,
      "t_i": 7678,
      "t_Ζ": 7679,
      "t_Μ": 7680,
      "t_Ψ": 7681,
      "t_ξ": 7682,
      "t_Dz": 7683,
      "t_Ρd": 7684,
      "ρ_U": 7685,
      "ρ_X": 7686,
      "ρ_m": 7687,
      "ρ_γ": 7688,
      "ρ_θ": 7689,
      "ρ_vΞ": 7690,
      "ρ_aZ": 7691,
      "σ_H": 7692,
      "σ_Z": 7693,
      "σ_f": 7694,
      "σ_z": 7695,
      "σ_Ν": 7696,
      "σ_Υ": 7697,
      "σ_κ": 7698,
      "σ_ο": 7699,
      "σ_cγ": 7700,
      "σ_aΚ": 7701,
      "i_J": 7702,
      "i_L": 7703,
      "i_b": 7704,
      "i_r": 7705,
      "i_Ι": 7706,
      "i_τ": 7707,
      "Α_N": 7708,
      "Α_Θ": 7709,
      "Α_Ν": 7710,
      "Α_τΕ": 7711,
      "w_f": 7712,
      "w_o": 7713,
      "w_Π": 7714,
      "w_ωγ": 7715,
      "w_3Ω": 7716,
      "w_BU": 7717,
      "w_QW": 7718,
      "c_X": 7719,
      "c_h": 7720,
      "c_j": 7721,
      "c_Λ": 7722,
      "c_Σ": 7723,
      "c_Χ": 7724,
      "c_ο": 7725,
      "c_lΗ": 7726,
      "p_D": 7727,
      "p_Η": 7728,
      "p_Ρ": 7729,
      "p_Ω": 7730,
      "p_μ": 7731,
      "p_4F": 7732,
      "p_ΠN": 7733,
      "N_5": 7734,
      "N_6": 7735,
      "N_l": 7736,
      "N_Χ": 7737,
      "N_Ψ": 7738,
      "s_4": 7739,
      "s_9": 7740,
      "s_W": 7741,
      "s_d": 7742,
      "s_x": 7743,
      "s_χ": 7744,
      "s_mT": 7745,
      "s_zC": 7746,
      "s_QΡ": 7747,
      "z_1": 7748,
      "z_6": 7749,
      "z_A": 7750,
      "z_TY": 7751,
      "z_Pq": 7752,
      "D_k": 7753,
      "D_y": 7754,
      "D_Ξ": 7755,
      "D_ε": 7756,
      "D_υD": 7757,
      "D_υu": 7758,
      "b_t": 7759,
      "b_y": 7760,
      "b_EΖ": 7761,
      "b_δΟ": 7762,
      "Y_H": 7763,
      "Y_f": 7764,
      "Y_x": 7765,
      "Y_z": 7766,
      "Y_υ": 7767,
      "Ψ_B": 7768,
      "Ψ_Μ": 7769,
      "Ψ_Ρ": 7770,
      "Ψ_ν": 7771,
      "Ψ_IΟ": 7772,
      "Ψ_DΔ": 7773,
      "Ψ_qΑ": 7774,
      "θ_p": 7775,
      "θ_t": 7776,
      "θ_Μ": 7777,
      "θ_μλ": 7778,
      "Ω_b": 7779,
      "x_8": 7780,
      "x_E": 7781,
      "x_I": 7782,
      "x_U": 7783,
      "x_c": 7784,
      "x_q": 7785,
      "x_ψ": 7786,
      "x_Ζz": 7787,
      "x_Πd": 7788,
      "d_C": 7789,
      "d_g": 7790,
      "d_Α": 7791,
      "d_ε": 7792,
      "d_κ": 7793,
      "d_ΖG": 7794,
      "d_υf": 7795,
      "Μ_9": 7796,
      "Μ_H": 7797,
      "Μ_V": 7798,
      "Μ_k": 7799,
      "Μ_t": 7800,
      "Μ_κ": 7801,
      "Μ_λ": 7802,
      "Μ_γr": 7803,
      "'o_Β'": 7804,
      "O_1": 7805,
      "O_7": 7806,
      "O_N": 7807,
      "O_q": 7808,
      "O_Τ": 7809,
      "O_νν": 7810,
      "S_5": 7811,
      "S_P": 7812,
      "S_b": 7813,
      "S_x": 7814,
      "S_Ν": 7815,
      "S_Φ": 7816,
      "S_κ": 7817,
      "S_μ": 7818,
      "β_D": 7819,
      "β_g": 7820,
      "β_Φ": 7821,
      "β_α": 7822,
      "β_ββ": 7823,
      "β_σr": 7824,
      "δ_4": 7825,
      "δ_τ": 7826,
      "δ_οΒ": 7827,
      "δ_6R": 7828,
      "v_λn": 7829,
      "λ_E": 7830,
      "λ_s": 7831,
      "λ_Σ": 7832,
      "λ_Ω": 7833,
      "λ_θ": 7834,
      "λ_yΜ": 7835,
      "Ζ_O": 7836,
      "Ζ_ν": 7837,
      "Ζ_dΩ": 7838,
      "Ζ_ιV": 7839,
      ")/2)/sqrt(": 7840,
      "M_Ν": 7841,
      "M_ηο": 7842,
      "j_4": 7843,
      "j_c": 7844,
      "j_m": 7845,
      "j_x": 7846,
      "Τ_Q": 7847,
      "Τ_c": 7848,
      "Τ_Η": 7849,
      "Τ_Ψγ": 7850,
      "Sum(sqrt(λ": 7851,
      "Sum(sqrt(Z_": 7852,
      "Sum(sqrt(h_": 7853,
      "Sum(sqrt(T_": 7854,
      "Sum(sqrt(χ_": 7855,
      "Sum(sqrt(Γ_": 7856,
      "Sum(sqrt(E_": 7857,
      "Sum(sqrt(H_": 7858,
      "Sum(sqrt(f)": 7859,
      "Sum(sqrt(A)": 7860,
      "Sum(sqrt(θ)": 7861,
      "Sum(sqrt(φ)": 7862,
      "Sum(sqrt(q)": 7863,
      "Sum(sqrt(J)": 7864,
      "Sum(sqrt(Ζ)*": 7865,
      "V_4": 7866,
      "V_b": 7867,
      "V_x": 7868,
      "u_E": 7869,
      "u_M": 7870,
      "u_R": 7871,
      "u_Ζ": 7872,
      "u_Π": 7873,
      "u_Ψ": 7874,
      "Derivative(sqrt(Κ_": 7875,
      "Derivative(sqrt(O_": 7876,
      "Derivative(sqrt(w)": 7877,
      "Derivative(sqrt(X)": 7878,
      "Derivative(sqrt(φ)": 7879,
      "Derivative(sqrt(Z)": 7880,
      "Derivative(sqrt(r)": 7881,
      "Derivative(sqrt(x)": 7882,
      "Derivative(sqrt(Ι)": 7883,
      "Derivative(sqrt(T)": 7884,
      "Derivative(sqrt(V)": 7885,
      "Derivative(sqrt(v)": 7886,
      "Derivative(sqrt(ρ)*": 7887,
      "Derivative(sqrt(Π)*": 7888,
      ")*log(c": 7889,
      ")*log(α_": 7890,
      ")*log(s_": 7891,
      ")*log(σ),": 7892,
      "Integral(sqrt(I_": 7893,
      "Integral(sqrt(ψ_": 7894,
      "Integral(sqrt(Σ_": 7895,
      "Integral(sqrt(Ν_": 7896,
      "Integral(sqrt(P_": 7897,
      "Integral(sqrt(Φ)": 7898,
      "Integral(sqrt(c)": 7899,
      "Integral(sqrt(k)": 7900,
      "Integral(sqrt(Γ)": 7901,
      "Integral(sqrt(Y)": 7902,
      "Integral(sqrt(b)": 7903,
      "(-H": 7904,
      "(-R": 7905,
      "(-T": 7906,
      "(-n_": 7907,
      "(-Ζ_": 7908,
      "(-2*": 7909,
      "(-1))": 7910,
      "P_2": 7911,
      "P_5": 7912,
      "P_H": 7913,
      "P_b": 7914,
      "P_ζ": 7915,
      "P_ρ": 7916,
      "P_χ": 7917,
      "P_bΑ": 7918,
      "P_χΓ": 7919,
      "Ξ_1": 7920,
      "Ξ_Z": 7921,
      "Ξ_i": 7922,
      "Ξ_n": 7923,
      "Ξ_u": 7924,
      "Ξ_δ": 7925,
      "Ξ_wξ": 7926,
      "Sum(-Π": 7927,
      "Sum(-Φ": 7928,
      "Sum(-8*": 7929,
      "Sum(log(α": 7930,
      "Sum(log(Q_": 7931,
      "Sum(log(h_": 7932,
      "Sum(log(τ_": 7933,
      "Sum(log(Κ_": 7934,
      "Sum(log(χ_": 7935,
      "Sum(log(m_": 7936,
      "Sum(log(Θ)": 7937,
      "Sum(log(Ν)": 7938,
      "Sum(log(φ)**": 7939,
      "Integral(-h": 7940,
      "Integral(-w": 7941,
      "Integral(-α": 7942,
      "Ε_E": 7943,
      "Ε_J": 7944,
      "Ε_c": 7945,
      "Ε_g": 7946,
      "Ε_j": 7947,
      "Ε_Π": 7948,
      "Ε_μ": 7949,
      "(m/": 7950,
      "(m**": 7951,
      "(m)**(sqrt(": 7952,
      "(m)**log(": 7953,
      "(Β)/sqrt(": 7954,
      "(o*": 7955,
      "(ι)**": 7956,
      "(ι)/sqrt(": 7957,
      "ζ_U": 7958,
      "ζ_h": 7959,
      "ζ_Ω2": 7960,
      ")/sqrt(A": 7961,
      ")/sqrt(W_": 7962,
      ")/sqrt(y))": 7963,
      ")/sqrt(Θ),": 7964,
      "Derivative(log(l": 7965,
      "Derivative(log(λ)": 7966,
      "Integral(log(κ": 7967,
      "Integral(log(h_": 7968,
      "Integral(log(Μ_": 7969,
      "Integral(log(ρ)": 7970,
      "Integral(log(ρ)*": 7971,
      ")**log(Z": 7972,
      ")**log(m_": 7973,
      "(g**": 7974,
      "(n)**": 7975,
      "(f)**": 7976,
      "(f**": 7977,
      "(i**": 7978,
      "(C/": 7979,
      "(C**": 7980,
      "(C)/log(": 7981,
      "(t/": 7982,
      "(J**": 7983,
      "m_8": 7984,
      "m_C": 7985,
      "m_z": 7986,
      "m_Υ": 7987,
      "m_β": 7988,
      "m_μ": 7989,
      "(s/": 7990,
      "(s)/log(": 7991,
      "(Z)*": 7992,
      "(Z**": 7993,
      "(a*": 7994,
      "(a)**(sqrt(": 7995,
      "(γ/": 7996,
      "(γ)/log(": 7997,
      "(Ε)/log(": 7998,
      "(Ε)**(sqrt(": 7999,
      "(α)*": 8000,
      "(ρ**": 8001,
      "(ρ)/log(": 8002,
      "(ρ)/2),": 8003,
      "(Ι)/log(": 8004,
      "(Π**": 8005,
      "(Π)**log(": 8006,
      "(Α/": 8007,
      "(Α)*": 8008,
      "(Α)/": 8009,
      "(Α)**": 8010,
      "(Α**": 8011,
      "(Α)/log(": 8012,
      "(B)**(": 8013,
      "(Y)/": 8014,
      "(Τ)**": 8015,
      "(Χ/": 8016,
      "(Χ)**": 8017,
      "(U*": 8018,
      "H_C": 8019,
      "H_b": 8020,
      "H_Χ": 8021,
      "H_δ": 8022,
      "H_ο": 8023,
      "(l**": 8024,
      "(x)**": 8025,
      "(λ**": 8026,
      "(k/": 8027,
      "(k)*": 8028,
      "(Σ**": 8029,
      "(Σ)/sqrt(": 8030,
      "(K*": 8031,
      "(G*": 8032,
      "(G)/log(": 8033,
      "(Κ)/": 8034,
      "(Κ)**(": 8035,
      "(V_Β": 8036,
      "(h/": 8037,
      "(ω)*": 8038,
      "(T*": 8039,
      "φ_S": 8040,
      "φ_w": 8041,
      "φ_Ζ": 8042,
      "φ_Ω": 8043,
      "(η)*": 8044,
      "(η_Β": 8045,
      "(u)**": 8046,
      "(u)**log(": 8047,
      "(σ**": 8048,
      "(υ)**": 8049,
      "(Φ)/": 8050,
      "(Φ)/log(": 8051,
      "o_N": 8052,
      "o_U": 8053,
      "o_Y": 8054,
      "o_c": 8055,
      "o_κ": 8056,
      "o_λ": 8057,
      "Β_p": 8058,
      "Β_θΖ": 8059,
      "'F_p": 8060,
      "'F_x": 8061,
      "'F_Θ'": 8062,
      "(X*": 8063,
      "(Θ**": 8064,
      "(Θ)**log(": 8065,
      "ι_5": 8066,
      "ι_R": 8067,
      "ι_a": 8068,
      "ι_μ": 8069,
      "ι_ψ": 8070,
      "ι_Αξ": 8071,
      "'Q_a": 8072,
      "'Q_σ'": 8073,
      "'Q_7'": 8074,
      "'Z_ι": 8075,
      "'Z_f'": 8076,
      "'Z_U'": 8077,
      "'Z_V'": 8078,
      "'Z_Δ'": 8079,
      "'Z_Ν'": 8080,
      "'h_s": 8081,
      "'h_ξ'": 8082,
      "'h_χ'": 8083,
      "'h_D'": 8084,
      "'h_I'": 8085,
      "'h_N'": 8086,
      "(d)*": 8087,
      "(d)/sqrt(": 8088,
      "(ζ)*": 8089,
      "(ζ)**": 8090,
      "(ζ**": 8091,
      "(ζ)**(sqrt(": 8092,
      "(r*": 8093,
      "(ξ)*": 8094,
      "(M*": 8095,
      "'ξ_Τ'": 8096,
      "(Η)/": 8097,
      "'Π_Z": 8098,
      "'Π_Υ": 8099,
      "'Π_G'": 8100,
      "'Π_r'": 8101,
      "'Π_4'": 8102,
      "(j*": 8103,
      "(j)*": 8104,
      "(j)/": 8105,
      "'n_Α": 8106,
      "'n_Δ'": 8107,
      "(z*": 8108,
      "(Δ)*": 8109,
      "(Δ)**": 8110,
      "(Δ**": 8111,
      "(ο)/": 8112,
      "'μ_I": 8113,
      "'Θ_F": 8114,
      "'Θ_Λ'": 8115,
      "'T_m": 8116,
      "'T_s": 8117,
      "'T_ζ": 8118,
      "'T_G'": 8119,
      "'f_o": 8120,
      "'f_Τ": 8121,
      "'f_γ": 8122,
      "'f_o'": 8123,
      "(b))": 8124,
      "(b)**": 8125,
      "'Η_C": 8126,
      "'B_Q": 8127,
      "'B_Φ": 8128,
      "'B_y'": 8129,
      "'B_Ρ'": 8130,
      "'B_Η'": 8131,
      "'ν_W": 8132,
      "(χ)/": 8133,
      "(χ**": 8134,
      "'η_a": 8135,
      "'η_g": 8136,
      "(θ)**": 8137,
      "'X_D": 8138,
      "'X_Σ": 8139,
      "'X_χ": 8140,
      "'X_a'": 8141,
      "'Υ_X": 8142,
      "'Υ_m": 8143,
      "'τ_α'": 8144,
      "'τ_Υ'": 8145,
      "'τ_8'": 8146,
      "(v*": 8147,
      "(v)**log(": 8148,
      "(w*": 8149,
      "(w)**": 8150,
      "(w_Β,": 8151,
      "'γ_ρ'": 8152,
      "'γ_Y'": 8153,
      "'G_4": 8154,
      "'G_6": 8155,
      "'G_S": 8156,
      "'G_X": 8157,
      "'G_Χ": 8158,
      "'G_γ": 8159,
      "'G_η": 8160,
      "'G_4'": 8161,
      "'υ_R": 8162,
      "'υ_z": 8163,
      "'υ_Ο": 8164,
      "'J_E'": 8165,
      "'y_a": 8166,
      "'y_l'": 8167,
      "'y_Π'": 8168,
      "'a_β": 8169,
      "'A_ψ": 8170,
      "'A_Z'": 8171,
      "'A_μ'": 8172,
      "'Κ_Δ": 8173,
      "'Κ_Κ": 8174,
      "'Ο_θ": 8175,
      "'W_8": 8176,
      "'W_R": 8177,
      "'Δ_P": 8178,
      "'Δ_d": 8179,
      "'Δ_f": 8180,
      "'Δ_Σ": 8181,
      "'l_R": 8182,
      "'l_V": 8183,
      "'C_T": 8184,
      "'C_v": 8185,
      "'C_κ": 8186,
      "'Ι_K": 8187,
      "'Ι_ι": 8188,
      "'Ι_O'": 8189,
      "(μ/": 8190,
      "(μ)/log(": 8191,
      "'ε_R": 8192,
      "'ε_p": 8193,
      "'ε_α": 8194,
      "'ε_Ω'": 8195,
      "'Ρ_B": 8196,
      "'Ρ_F": 8197,
      "'Ρ_T": 8198,
      "'Ρ_t": 8199,
      "'Ρ_u": 8200,
      "'Ρ_y": 8201,
      "'Ρ_c'": 8202,
      "'ο_B": 8203,
      "'ο_Θ": 8204,
      "'ο_δ": 8205,
      "'ο_P'": 8206,
      "'q_g": 8207,
      "'q_μ": 8208,
      "'q_A'": 8209,
      "'g_f": 8210,
      "'g_n": 8211,
      "'g_ι": 8212,
      "'g_χ": 8213,
      "'g_u'": 8214,
      "'R_E": 8215,
      "'R_U": 8216,
      "'R_κ": 8217,
      "'R_W'": 8218,
      "'R_m'": 8219,
      "'I_f'": 8220,
      "'I_n'": 8221,
      "'I_Τ'": 8222,
      "'I_H'": 8223,
      "'κ_2": 8224,
      "'κ_ν": 8225,
      "'κ_t'": 8226,
      "'ω_Α": 8227,
      "'ω_f'": 8228,
      "'ψ_5": 8229,
      "'ψ_z": 8230,
      "'χ_r": 8231,
      "'χ_W'": 8232,
      "'χ_5'": 8233,
      "'Γ_Ε": 8234,
      "'U_l": 8235,
      "'U_χ": 8236,
      "'Χ_z": 8237,
      "'Χ_R'": 8238,
      "'Χ_α'": 8239,
      "'Χ_ν'": 8240,
      "'L_R'": 8241,
      "'Λ_p": 8242,
      "'Λ_κ": 8243,
      "'Λ_Π'": 8244,
      "'Σ_Ω": 8245,
      "'Σ_9'": 8246,
      "'α_Q": 8247,
      "'Φ_Η": 8248,
      "'Φ_ν": 8249,
      "'Φ_U'": 8250,
      "'Φ_r'": 8251,
      "'r_Y": 8252,
      "'r_ν": 8253,
      "'E_V": 8254,
      "'E_x'": 8255,
      "'E_R'": 8256,
      "'E_ω'": 8257,
      "'E_o'": 8258,
      "'k_E": 8259,
      "'k_H": 8260,
      "'k_Ρ": 8261,
      "'k_η'": 8262,
      "'K_H": 8263,
      "'K_i'": 8264,
      "'K_D'": 8265,
      "'t_3": 8266,
      "'t_i'": 8267,
      "'ρ_X": 8268,
      "'ρ_ν": 8269,
      "'ρ_W'": 8270,
      "'i_M": 8271,
      "'i_o": 8272,
      ")/(8*": 8273,
      ")/(2*sqrt(": 8274,
      "'Ξ_i": 8275,
      "'Ξ_Σ": 8276,
      "'Ξ_θ": 8277,
      "'Ξ_κ": 8278,
      "'σ_5": 8279,
      "'σ_A": 8280,
      "'σ_W": 8281,
      "'σ_Ι": 8282,
      "'σ_ο": 8283,
      "'P_κ": 8284,
      "'Ν_φ": 8285,
      "'Ν_O'": 8286,
      "'Α_T": 8287,
      "'Α_m": 8288,
      "'Α_φ": 8289,
      "'w_ι": 8290,
      "'w_V'": 8291,
      "'w_o'": 8292,
      "'c_g": 8293,
      "'c_X'": 8294,
      "'p_K": 8295,
      "'p_g": 8296,
      "'N_σ'": 8297,
      "'N_u'": 8298,
      "'N_H'": 8299,
      "'N_Ε'": 8300,
      "'b_S": 8301,
      "'z_6": 8302,
      "'z_A": 8303,
      "'D_C": 8304,
      "'D_n": 8305,
      "'D_Ψ": 8306,
      "'D_ψ": 8307,
      "'Ε_J": 8308,
      "'Ε_l": 8309,
      "'Ε_Μ": 8310,
      "'Ε_Π": 8311,
      "'Ε_Ρ": 8312,
      "'Ψ_g": 8313,
      "'Ψ_Κ": 8314,
      "'Ψ_Ρ": 8315,
      "'θ_6": 8316,
      "'θ_n": 8317,
      "'θ_y": 8318,
      "'θ_t'": 8319,
      "'θ_φ'": 8320,
      "'d_C": 8321,
      "'d_ε'": 8322,
      "'d_3'": 8323,
      "'m_Ρ": 8324,
      "'m_C'": 8325,
      "'Y_q": 8326,
      "'Y_Κ": 8327,
      "'Y_θ'": 8328,
      "'x_Ξ": 8329,
      "'x_W'": 8330,
      "'Μ_9'": 8331,
      "'β_Ν": 8332,
      "'φ_ν": 8333,
      "'φ_S'": 8334,
      "'φ_5'": 8335,
      "'δ_M": 8336,
      "'δ_κ": 8337,
      "'v_k": 8338,
      "'λ_M": 8339,
      "'λ_R'": 8340,
      "'Ζ_2": 8341,
      "'Ζ_o": 8342,
      "'o_Ν": 8343,
      "'o_F'": 8344,
      "'M_Ν": 8345,
      "'M_c'": 8346,
      "'H_Ω": 8347,
      "'j_4": 8348,
      "(B_Φ": 8349,
      "(B_ο": 8350,
      "'Β_Σ": 8351,
      "'Β_ξ": 8352,
      "(y_S": 8353,
      "(y_l,": 8354,
      "(T_o": 8355,
      "(T_ζ": 8356,
      "(T_G,": 8357,
      "'ι_ψ": 8358,
      "'u_6": 8359,
      "(R_E": 8360,
      "(R_δ": 8361,
      "(Κ_Δ": 8362,
      "(Κ_Κ": 8363,
      "(τ_w": 8364,
      "(τ_Υ": 8365,
      "(J_P": 8366,
      "(r_Λ": 8367,
      "(Ο_i": 8368,
      "(Ο_θ": 8369,
      "(Ν_Α": 8370,
      "(Ν_Ω": 8371,
      "(η_g": 8372,
      "(χ_Γ": 8373,
      "(χ_Δ": 8374,
      "(Q_a": 8375,
      "(Z_o": 8376,
      "(Z_ι": 8377,
      "(ξ_Υ": 8378,
      "(Η_Ω": 8379,
      "(Δ_ψ": 8380,
      "(l_n": 8381,
      "(Ι_r": 8382,
      "(I_6": 8383,
      "(I_Τ": 8384,
      "(I_n,": 8385,
      "(Υ_R": 8386,
      "(Υ_X": 8387,
      "(Υ_m": 8388,
      "(γ_b": 8389,
      "(γ_Η": 8390,
      "(G_n": 8391,
      "(n_α": 8392,
      "(μ_θ": 8393,
      "(ω_D": 8394,
      "(ω_Ω": 8395,
      "(Φ_Q": 8396,
      "(Φ_r,": 8397,
      "(i_M": 8398,
      "(i_ο": 8399,
      "(Μ_κ": 8400,
      "(υ_r": 8401,
      "(υ_z": 8402,
      "(k_Ρ": 8403,
      "(A_ψ": 8404,
      "(A_μ,": 8405,
      "(ε_Ψ": 8406,
      "(p_R": 8407,
      "(b_S": 8408,
      "(Σ_ι": 8409,
      "(α_η": 8410,
      "(w_ι": 8411,
      "(σ_W": 8412,
      "(σ_ο": 8413,
      "(S_Ι": 8414,
      "2))/": 8415,
      "(g_f": 8416,
      "(K_H": 8417,
      "(K_r": 8418,
      "(ψ_F": 8419,
      "(E_f": 8420,
      "(O_f": 8421,
      "(ρ_X": 8422,
      "(ρ_ι": 8423,
      "(φ_ν": 8424,
      "(Ε_Π": 8425,
      "(Ε_α": 8426,
      "(Λ_κ": 8427,
      "(Λ_Π,": 8428,
      "(j_4": 8429,
      "(M_Ν": 8430,
      "(Ξ_i": 8431,
      "(Ξ_Φ": 8432,
      "(Ξ_δ": 8433,
      "(Ξ_κ": 8434,
      "(z_A": 8435,
      "(z_τ": 8436,
      "(x_8": 8437,
      "(x_C": 8438,
      "(x_W,": 8439,
      "(v_j": 8440,
      "(Ζ_J": 8441,
      "(Ζ_n": 8442,
      "(Ζ_Ψ": 8443,
      "(m_γ": 8444,
      "(Β_Σ": 8445,
      "(u_P": 8446,
      "(u_Τ": 8447,
      "**(sqrt(2)*sqrt(": 8448,
      "(δ_M": 8449,
      "(δ_Ι": 8450,
      "(ι_ψ": 8451,
      "Sum(-sqrt(d)": 8452,
      "Sum(-sqrt(6)*sqrt(": 8453,
      "Integral(-sqrt(5)*sqrt(": 8454,
      "Rational(-": 8455,
      "/2)),": 8456,
      ")/7**": 8457,
      "**7)/": 8458,
      "**7)**": 8459,
      "cosh(1)/": 8460,
      "cp2": 8461,
      "Ξ_φO": 8462,
      "ΚSl": 8463,
      "n_ΒΒ": 8464,
      "Ζ_Βf": 8465,
      "h_Fα": 8466,
      "τ_HΨ": 8467,
      "Y_qM": 8468,
      "Π_Zι": 8469,
      "f_ΤΡ": 8470,
      "Κ_bΝ": 8471,
      "Ρ_B8": 8472,
      "L_Xψ": 8473,
      "k_Eε": 8474,
      "Χ_ΒV": 8475,
      "h_AΤ": 8476,
      "μ_2Τ": 8477,
      "μ_IΛ": 8478,
      "X_χφ": 8479,
      "G_Xy": 8480,
      "δ_Jv": 8481,
      "38742048": 8482,
      "k_Βat": 8483,
      "Α_Βσ": 8484,
      "ξ_ΟΙ": 8485,
      "Η_ΝΣ": 8486,
      "G_θκ": 8487,
      "Ο_IS": 8488,
      "g_ΡA": 8489,
      "σ_Mm": 8490,
      "N_ΩS": 8491,
      "N_θχ": 8492,
      "v_μΞ": 8493,
      "φ_Οg": 8494,
      "Derivative(2*sqrt(2)*": 8495,
      "'M_Β'": 8496,
      "'O_Β'": 8497,
      "'n_Β'": 8498,
      "'w_Β'": 8499,
      "'β_Β'": 8500,
      "'σ_Β'": 8501,
      "W_Βα": 8502,
      "Σ_ΒΜ": 8503,
      "'A": 8504,
      "'V": 8505,
      "'d": 8506,
      "'g": 8507,
      "'Δ": 8508,
      "'Μ": 8509,
      "'ν": 8510,
      "'ο": 8511,
      "'υ": 8512,
      "'ω": 8513,
      "'p_Β": 8514,
      "'Υ_Β": 8515,
      "'R_Β": 8516,
      "'u_Β": 8517,
      "'ψ_Β": 8518,
      "'h_Β": 8519,
      "'Ρ_Β": 8520,
      "(5": 8521,
      "(6": 8522,
      "(7": 8523,
      "(8": 8524,
      "(O": 8525,
      "(sqrt(2)*sqrt(": 8526,
      "*ο_": 8527,
      "*α_": 8528,
      "*ρ_": 8529,
      "*φ)": 8530,
      "*ξ),": 8531,
      "*υ)*": 8532,
      "-J": 8533,
      "-K": 8534,
      "-W": 8535,
      "-d": 8536,
      "-h": 8537,
      "-i": 8538,
      "-j": 8539,
      "-k": 8540,
      "-o": 8541,
      "-p": 8542,
      "-y": 8543,
      "-z": 8544,
      "-Ε": 8545,
      "-Η": 8546,
      "-Θ": 8547,
      "-Ι": 8548,
      "-Μ": 8549,
      "-Ξ": 8550,
      "-Π": 8551,
      "-Σ": 8552,
      "-Τ": 8553,
      "-Υ": 8554,
      "-Ω": 8555,
      "-ν": 8556,
      "-χ": 8557,
      "-ψ": 8558,
      "-ω": 8559,
      "-κ_": 8560,
      "-U_": 8561,
      "-K_": 8562,
      "-3*": 8563,
      "-5*": 8564,
      "-6*": 8565,
      "-6**": 8566,
      "-c**": 8567,
      "/μ_": 8568,
      "/λ_": 8569,
      "/i))": 8570,
      "/ζ)": 8571,
      "/d)": 8572,
      "/K),": 8573,
      "/ν),": 8574,
      "/8)*": 8575,
      "/μ),": 8576,
      "/g),": 8577,
      "/R),": 8578,
      "/3)**": 8579,
      "/r)**": 8580,
      "/Ω)*": 8581,
      "04": 8582,
      "06": 8583,
      "1D": 8584,
      "1Q": 8585,
      "1Z": 8586,
      "1g": 8587,
      "1t": 8588,
      "1Λ": 8589,
      "1θ": 8590,
      "11,": 8591,
      "12,": 8592,
      "1A'": 8593,
      "1t'": 8594,
      "1Z'": 8595,
      "1h'": 8596,
      "1τ'": 8597,
      "1j'": 8598,
      "1)/log(": 8599,
      "14),": 8600,
      "1f))": 8601,
      "24": 8602,
      "28": 8603,
      "2Κ": 8604,
      "2η": 8605,
      "2κ": 8606,
      "2ρ": 8607,
      "2s'": 8608,
      "2ρ'": 8609,
      "2Ψ'": 8610,
      "2Y'": 8611,
      "2d'": 8612,
      "2δ'": 8613,
      "2κ'": 8614,
      "2η'": 8615,
      "2Ω'": 8616,
      "2)/log(": 8617,
      "2O'": 8618,
      "25'": 8619,
      "29'": 8620,
      "28'": 8621,
      "22'": 8622,
      "2)/2),": 8623,
      "2ρ,": 8624,
      "2GU": 8625,
      "30": 8626,
      "32": 8627,
      "34": 8628,
      "3s": 8629,
      "3w": 8630,
      "3z": 8631,
      "3Γ": 8632,
      "3s'": 8633,
      "3x'": 8634,
      "3ρ'": 8635,
      "3Ω'": 8636,
      "3μ'": 8637,
      "3)**log(": 8638,
      "3x,": 8639,
      "3**log(": 8640,
      "3)/2)*": 8641,
      "39ζ": 8642,
      "4U": 8643,
      "4τ": 8644,
      "4l'": 8645,
      "4Π'": 8646,
      "4Τ'": 8647,
      "4i'": 8648,
      "4Θ'": 8649,
      "4ξ'": 8650,
      "4C'": 8651,
      "4j'": 8652,
      "4μ'": 8653,
      "4)/log(": 8654,
      "4)/sqrt(": 8655,
      "44'": 8656,
      "4**log(": 8657,
      "4sε": 8658,
      "4βΕ": 8659,
      "5x": 8660,
      "5ζ": 8661,
      "5ψ": 8662,
      "5W'": 8663,
      "5Τ'": 8664,
      "5i'": 8665,
      "5Χ'": 8666,
      "5a'": 8667,
      "5B'": 8668,
      "54)": 8669,
      "5)/2)": 8670,
      "5)/2))": 8671,
      "5W,": 8672,
      "5Χ,": 8673,
      "5a,": 8674,
      "5/sqrt(": 8675,
      "5GT": 8676,
      "5δh": 8677,
      "6c": 8678,
      "6χ": 8679,
      "6)**(": 8680,
      "6l'": 8681,
      "6υ'": 8682,
      "6Y'": 8683,
      "6Γ'": 8684,
      "6)*log(": 8685,
      "6)**(sqrt(": 8686,
      "6m,": 8687,
      "6o3": 8688,
      "6Δχ": 8689,
      "7D": 8690,
      "7F": 8691,
      "7H": 8692,
      "7j": 8693,
      "7Ρ": 8694,
      "7κ": 8695,
      "7χ": 8696,
      "7F'": 8697,
      "7Θ'": 8698,
      "7Φ'": 8699,
      "7Ζ'": 8700,
      "7ε'": 8701,
      "7Ν'": 8702,
      "74'": 8703,
      "7Ζ,": 8704,
      "7Θ,": 8705,
      "7**log(": 8706,
      "7/log(": 8707,
      "76l": 8708,
      "729": 8709,
      "764": 8710,
      "8D": 8711,
      "8Ψ": 8712,
      "81,": 8713,
      "8)**(": 8714,
      "8y'": 8715,
      "8t'": 8716,
      "8X'": 8717,
      "8M'": 8718,
      "8ο'": 8719,
      "8L'": 8720,
      "8Υ'": 8721,
      "8)/log(": 8722,
      "8)/sqrt(": 8723,
      "8M,": 8724,
      "8γ,": 8725,
      "8X)))": 8726,
      "8/sqrt(": 8727,
      "823": 8728,
      "91": 8729,
      "99": 8730,
      "9n": 8731,
      "9ψ": 8732,
      "9)**(": 8733,
      "9A'": 8734,
      "9x'": 8735,
      "9υ'": 8736,
      "9Ρ'": 8737,
      "9j'": 8738,
      "9q'": 8739,
      "9)/log(": 8740,
      "9)**log(": 8741,
      "91'": 8742,
      "9**(sqrt(": 8743,
      "9Ρ,": 8744,
      "9/log(": 8745,
      "9/sqrt(": 8746,
      "9EO": 8747,
      "9ωΠ": 8748,
      "AM": 8749,
      "AQ": 8750,
      "Ai": 8751,
      "As": 8752,
      "AΙ": 8753,
      "AΥ": 8754,
      "Aθ'": 8755,
      "Aδ'": 8756,
      "AL'": 8757,
      "A)*sqrt(": 8758,
      "A*sqrt(": 8759,
      "Af)": 8760,
      "AZK": 8761,
      "A1A": 8762,
      "B3": 8763,
      "B5": 8764,
      "BT": 8765,
      "Bq": 8766,
      "Bt": 8767,
      "Bη": 8768,
      "B)**(": 8769,
      "BU'": 8770,
      "Bβ'": 8771,
      "Bη'": 8772,
      "BΣ'": 8773,
      "B)/log(": 8774,
      "B)/sqrt(": 8775,
      "B)**(sqrt(": 8776,
      "BS'": 8777,
      "Bh,": 8778,
      "BΝ)": 8779,
      "BRγ": 8780,
      "Ca": 8781,
      "Ci": 8782,
      "Cy": 8783,
      "C_Β": 8784,
      "CΤ'": 8785,
      "CD'": 8786,
      "Cb'": 8787,
      "CS'": 8788,
      "CQ,": 8789,
      "C7'": 8790,
      "CΞ'": 8791,
      "C6'": 8792,
      "C)**8,": 8793,
      "CNk": 8794,
      "Ciζ": 8795,
      "Cεθ": 8796,
      "CψU": 8797,
      "D4": 8798,
      "DV": 8799,
      "Dc": 8800,
      "Du": 8801,
      "Dy": 8802,
      "DΙ": 8803,
      "DΟ": 8804,
      "Dψ": 8805,
      "DF'": 8806,
      "DG'": 8807,
      "DM'": 8808,
      "DV'": 8809,
      "DL'": 8810,
      "D)),": 8811,
      "DO'": 8812,
      "DO,": 8813,
      "DV,": 8814,
      "Dc,": 8815,
      "DΙf": 8816,
      "E7": 8817,
      "EL": 8818,
      "EN": 8819,
      "Eo": 8820,
      "EΜ": 8821,
      "EΡ": 8822,
      "Eτ": 8823,
      "E**": 8824,
      "ER'": 8825,
      "Eγ'": 8826,
      "EΤ'": 8827,
      "Eω'": 8828,
      "EΖ'": 8829,
      "EJ'": 8830,
      "E)*log(": 8831,
      "EE'": 8832,
      "E*sqrt(": 8833,
      "EξG": 8834,
      "E3b": 8835,
      "Fh": 8836,
      "Fδ": 8837,
      "Fζ": 8838,
      "Fξ": 8839,
      "Fψ": 8840,
      "FΛ'": 8841,
      "Fψ'": 8842,
      "FΤ'": 8843,
      "FΨ'": 8844,
      "Fw'": 8845,
      "FV'": 8846,
      "Fp'": 8847,
      "F)),": 8848,
      "FI'": 8849,
      "F3'": 8850,
      "Fd,": 8851,
      "FνΒ": 8852,
      "F_ΒG": 8853,
      "FΓx": 8854,
      "GN": 8855,
      "Gc": 8856,
      "Go": 8857,
      "Gs": 8858,
      "Gw": 8859,
      "GΑ": 8860,
      "GΗ": 8861,
      "Gλ": 8862,
      "Gξ": 8863,
      "Gτ": 8864,
      "Gχ": 8865,
      "G_Β": 8866,
      "GΛ'": 8867,
      "G**(": 8868,
      "Gi'": 8869,
      "GΑ'": 8870,
      "GΗ'": 8871,
      "GΥ'": 8872,
      "G**(sqrt(": 8873,
      "Gi,": 8874,
      "Gη,": 8875,
      "GwX": 8876,
      "Gογ": 8877,
      "G2Ω": 8878,
      "Hj": 8879,
      "HΕ": 8880,
      "HΨ": 8881,
      "Hι": 8882,
      "Hiv": 8883,
      "Hρ'": 8884,
      "Hi'": 8885,
      "HΧ'": 8886,
      "H)),": 8887,
      "IK": 8888,
      "IX": 8889,
      "IZ": 8890,
      "Iu": 8891,
      "IΓ": 8892,
      "IΤ": 8893,
      "Iι": 8894,
      "I)**": 8895,
      "IΠ'": 8896,
      "IU'": 8897,
      "IV'": 8898,
      "IΓ'": 8899,
      "IΟ'": 8900,
      "IΕ'": 8901,
      "IΓ,": 8902,
      "J/": 8903,
      "Ju": 8904,
      "JΔ": 8905,
      "Jι": 8906,
      "Jf'": 8907,
      "Jθ'": 8908,
      "Jr'": 8909,
      "Jξ'": 8910,
      "Jd'": 8911,
      "Ju'": 8912,
      "Jδ'": 8913,
      "JΖ'": 8914,
      "Jχ'": 8915,
      "JΔ'": 8916,
      "J)**log(": 8917,
      "J5'": 8918,
      "J9'": 8919,
      "Jλ))": 8920,
      "JΔ,": 8921,
      "Jq,": 8922,
      "Ju),": 8923,
      "JLΓ": 8924,
      "JιΓ": 8925,
      "KQ": 8926,
      "Kr": 8927,
      "KΕ": 8928,
      "KΚ": 8929,
      "KΟ": 8930,
      "KΣ": 8931,
      "KΦ": 8932,
      "Kθ": 8933,
      "KA'": 8934,
      "Kο'": 8935,
      "KΣ'": 8936,
      "KL'": 8937,
      "Kv'": 8938,
      "K)),": 8939,
      "KΗ))": 8940,
      "L/": 8941,
      "LO": 8942,
      "LR": 8943,
      "Lc": 8944,
      "Ln": 8945,
      "Ly": 8946,
      "LΞ": 8947,
      "Lω": 8948,
      "L)**": 8949,
      "L1,": 8950,
      "L9,": 8951,
      "Lx'": 8952,
      "Lg'": 8953,
      "Ln'": 8954,
      "LU'": 8955,
      "LΟ'": 8956,
      "L5'": 8957,
      "L*log(": 8958,
      "L1'": 8959,
      "LP'": 8960,
      "Lθ,": 8961,
      "LKL": 8962,
      "MX": 8963,
      "Md": 8964,
      "Mt": 8965,
      "MΓ": 8966,
      "MΤ": 8967,
      "Mn'": 8968,
      "Md'": 8969,
      "M)*sqrt(": 8970,
      "Mo'": 8971,
      "Mo,": 8972,
      "M)/2,": 8973,
      "N9": 8974,
      "NE": 8975,
      "NW": 8976,
      "Nj": 8977,
      "NΘ": 8978,
      "Nδ": 8979,
      "Nκ": 8980,
      "Nφ": 8981,
      "N**": 8982,
      "N5,": 8983,
      "Nk'": 8984,
      "NΠ'": 8985,
      "NΚ'": 8986,
      "Nω'": 8987,
      "Nξ'": 8988,
      "Nε'": 8989,
      "N6'": 8990,
      "NΚ,": 8991,
      "NIΝ": 8992,
      "Nφγ": 8993,
      "OJ": 8994,
      "OU": 8995,
      "OΘ": 8996,
      "OΨ": 8997,
      "Oο": 8998,
      "O)**": 8999,
      "Of'": 9000,
      "Ox'": 9001,
      "OΠ'": 9002,
      "On'": 9003,
      "OU'": 9004,
      "Or'": 9005,
      "OΚ'": 9006,
      "OX'": 9007,
      "Oο'": 9008,
      "Oκ'": 9009,
      "OJ'": 9010,
      "Op'": 9011,
      "Op,": 9012,
      "OU))": 9013,
      "P5": 9014,
      "PB": 9015,
      "PE": 9016,
      "Pp": 9017,
      "PΠ": 9018,
      "PΧ": 9019,
      "Pl'": 9020,
      "P**(": 9021,
      "Pα'": 9022,
      "PU'": 9023,
      "PΧ'": 9024,
      "PB'": 9025,
      "PD'": 9026,
      "PQ'": 9027,
      "P1'": 9028,
      "Pα),": 9029,
      "P/7)": 9030,
      "PD),": 9031,
      "Q*": 9032,
      "Q4": 9033,
      "Q9": 9034,
      "QX": 9035,
      "Qq": 9036,
      "QΥ": 9037,
      "QΧ": 9038,
      "Qρ": 9039,
      "Q)/": 9040,
      "Q**": 9041,
      "QΛ'": 9042,
      "Qμ'": 9043,
      "Qv'": 9044,
      "Q)/2),": 9045,
      "Qρ,": 9046,
      "Qμ,": 9047,
      "Qο,": 9048,
      "Q9)/": 9049,
      "RA": 9050,
      "RH": 9051,
      "Rν": 9052,
      "Rω": 9053,
      "RA'": 9054,
      "Rψ'": 9055,
      "Rξ'": 9056,
      "RΡ'": 9057,
      "R)),": 9058,
      "RO'": 9059,
      "R)*sqrt(": 9060,
      "Ro'": 9061,
      "RO,": 9062,
      "RH'": 9063,
      "RA,": 9064,
      "R3C": 9065,
      "S/": 9066,
      "SE": 9067,
      "SK": 9068,
      "Sd": 9069,
      "Si": 9070,
      "SΑ": 9071,
      "SΥ": 9072,
      "S)/": 9073,
      "S)**": 9074,
      "Sg'": 9075,
      "SM'": 9076,
      "SD'": 9077,
      "S)/sqrt(": 9078,
      "SσΚ": 9079,
      "TB": 9080,
      "TI": 9081,
      "Tj": 9082,
      "Tr": 9083,
      "TΓ": 9084,
      "TΥ": 9085,
      "Tλ": 9086,
      "Tυ": 9087,
      "TA'": 9088,
      "Tθ'": 9089,
      "TB'": 9090,
      "Tτ'": 9091,
      "TΔ'": 9092,
      "T)*log(": 9093,
      "Tζ'": 9094,
      "T)/2))": 9095,
      "TA,": 9096,
      "T**(log(": 9097,
      "TB)": 9098,
      "U7": 9099,
      "UA": 9100,
      "UE": 9101,
      "Ua": 9102,
      "Uf": 9103,
      "Ug": 9104,
      "Uk": 9105,
      "Ul": 9106,
      "U_Β": 9107,
      "Uk'": 9108,
      "Uσ'": 9109,
      "UU'": 9110,
      "UΤ'": 9111,
      "Ud'": 9112,
      "UV'": 9113,
      "U)**(sqrt(": 9114,
      "U4'": 9115,
      "UΒ'": 9116,
      "U)/2)": 9117,
      "Uio": 9118,
      "Ud))": 9119,
      "Uν,": 9120,
      "UΒ,": 9121,
      "UρI": 9122,
      "Uοw": 9123,
      "UΕw": 9124,
      "Vd": 9125,
      "VΕ": 9126,
      "Vφ": 9127,
      "Vρ'": 9128,
      "VΕ'": 9129,
      "V**(sqrt(": 9130,
      "VΨ,": 9131,
      "Vmy": 9132,
      "VRγ": 9133,
      "VNρ": 9134,
      "VκW": 9135,
      "VTΝ": 9136,
      "W1": 9137,
      "WT": 9138,
      "WΧ": 9139,
      "Wβ": 9140,
      "Wθ": 9141,
      "Wf'": 9142,
      "Wk'": 9143,
      "Wρ'": 9144,
      "Wh'": 9145,
      "W)*log(": 9146,
      "Wf))": 9147,
      "WL1": 9148,
      "W_ΒG": 9149,
      "WrΥ": 9150,
      "XZ": 9151,
      "Xa": 9152,
      "Xr": 9153,
      "XΞ": 9154,
      "XΠ": 9155,
      "XG'": 9156,
      "Xi'": 9157,
      "Xμ'": 9158,
      "XQ'": 9159,
      "X*log(": 9160,
      "X)**(log(": 9161,
      "YM": 9162,
      "YN": 9163,
      "YZ": 9164,
      "Yl": 9165,
      "YΩ": 9166,
      "YG'": 9167,
      "YK'": 9168,
      "YJ'": 9169,
      "Y)),": 9170,
      "Y**(log(": 9171,
      "YJ,": 9172,
      "YβΖ": 9173,
      "YEω": 9174,
      "ZO": 9175,
      "Zk": 9176,
      "Zl": 9177,
      "ZΠ": 9178,
      "ZΩ": 9179,
      "Zη": 9180,
      "Zφ": 9181,
      "Z_Β": 9182,
      "Zk'": 9183,
      "Z**(": 9184,
      "Zψ'": 9185,
      "ZΚ'": 9186,
      "Zw'": 9187,
      "ZΝ'": 9188,
      "Z)**(sqrt(": 9189,
      "ZΞ'": 9190,
      "Zk)": 9191,
      "Z)/2,": 9192,
      "Z6S": 9193,
      "a8": 9194,
      "aj": 9195,
      "aΗ": 9196,
      "aΜ": 9197,
      "aΥ": 9198,
      "af'": 9199,
      "ak'": 9200,
      "aa'": 9201,
      "aκ'": 9202,
      "a)),": 9203,
      "a)/log(": 9204,
      "aΙ,": 9205,
      "aββ": 9206,
      "a6Η": 9207,
      "a_ΒZ": 9208,
      "b1": 9209,
      "b4": 9210,
      "b8": 9211,
      "bR": 9212,
      "bW": 9213,
      "bU'": 9214,
      "bS'": 9215,
      "b*log(": 9216,
      "bι'": 9217,
      "b)/2))": 9218,
      "bΛ,": 9219,
      "b/log(": 9220,
      "bιΦ": 9221,
      "cT": 9222,
      "cw": 9223,
      "cy": 9224,
      "cΗ": 9225,
      "cΜ": 9226,
      "cυ": 9227,
      "cc'": 9228,
      "cυ'": 9229,
      "cψ'": 9230,
      "cα'": 9231,
      "cG'": 9232,
      "cU'": 9233,
      "cΝ'": 9234,
      "c7'": 9235,
      "cH'": 9236,
      "cι'": 9237,
      "c)/2))": 9238,
      "c**(sqrt(": 9239,
      "cδχ": 9240,
      "cBz": 9241,
      "dN": 9242,
      "dq": 9243,
      "dΛ": 9244,
      "dφ": 9245,
      "d)/": 9246,
      "dX'": 9247,
      "d)/2": 9248,
      "dz'": 9249,
      "dS'": 9250,
      "dP,": 9251,
      "d/2),": 9252,
      "dS)": 9253,
      "dνw": 9254,
      "dNs": 9255,
      "f6": 9256,
      "fP": 9257,
      "fU": 9258,
      "fy": 9259,
      "fz": 9260,
      "fΔ": 9261,
      "fε": 9262,
      "fυ'": 9263,
      "fο'": 9264,
      "fp'": 9265,
      "f)),": 9266,
      "f)/log(": 9267,
      "fI'": 9268,
      "fI,": 9269,
      "fΒ'": 9270,
      "f*sqrt(": 9271,
      "fq,": 9272,
      "fΧX": 9273,
      "fiγ": 9274,
      "fzν": 9275,
      "fL5": 9276,
      "fd8": 9277,
      "f6J": 9278,
      "gA": 9279,
      "gB": 9280,
      "gξ": 9281,
      "gω": 9282,
      "giv": 9283,
      "gτ'": 9284,
      "g)*log(": 9285,
      "g)/log(": 9286,
      "g)*sqrt(": 9287,
      "g)/2),": 9288,
      "gΖ,": 9289,
      "gb,": 9290,
      "gφ),": 9291,
      "gIU": 9292,
      "gtζ": 9293,
      "hv": 9294,
      "hz": 9295,
      "hΛ": 9296,
      "hΡ": 9297,
      "hΨ": 9298,
      "hγ": 9299,
      "hη": 9300,
      "hl'": 9301,
      "hΠ'": 9302,
      "hγ'": 9303,
      "ht'": 9304,
      "hU'": 9305,
      "hβ'": 9306,
      "hΑ'": 9307,
      "hδ'": 9308,
      "h)/log(": 9309,
      "h)*sqrt(": 9310,
      "hΕ'": 9311,
      "hκ,": 9312,
      "h)/(sqrt(": 9313,
      "ha)": 9314,
      "hzΨ": 9315,
      "if": 9316,
      "iq": 9317,
      "iι": 9318,
      "i_Β": 9319,
      "ig'": 9320,
      "iΚ'": 9321,
      "iK'": 9322,
      "iκ'": 9323,
      "i)/log(": 9324,
      "iN'": 9325,
      "i8'": 9326,
      "io'": 9327,
      "iι'": 9328,
      "i)/2),": 9329,
      "iN)))": 9330,
      "jJ": 9331,
      "jo": 9332,
      "jΛ": 9333,
      "jσ": 9334,
      "jψ": 9335,
      "jf'": 9336,
      "jR'": 9337,
      "jW'": 9338,
      "jψ'": 9339,
      "jh'": 9340,
      "jν'": 9341,
      "jY'": 9342,
      "ju'": 9343,
      "jδ'": 9344,
      "jJ'": 9345,
      "jΜ'": 9346,
      "jJ))": 9347,
      "k1": 9348,
      "kL": 9349,
      "kg": 9350,
      "ki": 9351,
      "k1,": 9352,
      "kV'": 9353,
      "kΜ'": 9354,
      "k)*log(": 9355,
      "k)),": 9356,
      "kS'": 9357,
      "k1'": 9358,
      "kΞ'": 9359,
      "kV,": 9360,
      "kΞ,": 9361,
      "k61": 9362,
      "kχK": 9363,
      "l/": 9364,
      "lS": 9365,
      "ly": 9366,
      "lk'": 9367,
      "ly'": 9368,
      "lΧ'": 9369,
      "lV'": 9370,
      "lp'": 9371,
      "lq'": 9372,
      "lΞ'": 9373,
      "lΕ'": 9374,
      "ly))": 9375,
      "lΕ,": 9376,
      "lM)": 9377,
      "lED": 9378,
      "mu": 9379,
      "m)/": 9380,
      "mc'": 9381,
      "mg'": 9382,
      "mΤ'": 9383,
      "mΦ'": 9384,
      "mu'": 9385,
      "mδ'": 9386,
      "m)*log(": 9387,
      "m)),": 9388,
      "m)/2)": 9389,
      "m*sqrt(": 9390,
      "mΤ,": 9391,
      "mOψ": 9392,
      "mβω": 9393,
      "mjE": 9394,
      "n3": 9395,
      "nE": 9396,
      "nf": 9397,
      "ni": 9398,
      "nΙ": 9399,
      "nΞ": 9400,
      "nk'": 9401,
      "n**(": 9402,
      "na'": 9403,
      "nB'": 9404,
      "nN'": 9405,
      "n*log(": 9406,
      "n3'": 9407,
      "nθ)": 9408,
      "nDα": 9409,
      "niΩ": 9410,
      "o/": 9411,
      "oX": 9412,
      "oε": 9413,
      "oξ": 9414,
      "oσ": 9415,
      "oχ": 9416,
      "o)),": 9417,
      "o_Β))": 9418,
      "o**3)": 9419,
      "oφT": 9420,
      "oχΨ": 9421,
      "oΞΟ": 9422,
      "pU": 9423,
      "pi": 9424,
      "pΩ": 9425,
      "p**": 9426,
      "p7,": 9427,
      "p**(": 9428,
      "pU'": 9429,
      "pi'": 9430,
      "pw'": 9431,
      "pb'": 9432,
      "p8'": 9433,
      "p7'": 9434,
      "p)/2))": 9435,
      "pb,": 9436,
      "p**log(": 9437,
      "pcΛ": 9438,
      "pnk": 9439,
      "p4i": 9440,
      "pΤR": 9441,
      "q/": 9442,
      "qS": 9443,
      "qs": 9444,
      "qΣ": 9445,
      "qξ": 9446,
      "qΛ'": 9447,
      "qg'": 9448,
      "qZ'": 9449,
      "qξ'": 9450,
      "qΣ'": 9451,
      "qz'": 9452,
      "qΩ'": 9453,
      "q)*log(": 9454,
      "qQ'": 9455,
      "qΕ'": 9456,
      "qy)": 9457,
      "qg),": 9458,
      "qΕg": 9459,
      "qSρ": 9460,
      "qwζ": 9461,
      "rD": 9462,
      "rL": 9463,
      "rq": 9464,
      "rΓ": 9465,
      "rο": 9466,
      "ry'": 9467,
      "rΤ'": 9468,
      "rΨ'": 9469,
      "rο'": 9470,
      "rΗ'": 9471,
      "rD'": 9472,
      "rq'": 9473,
      "r)/2),": 9474,
      "ry,": 9475,
      "rΨ,": 9476,
      "rΗ),": 9477,
      "rΕμ": 9478,
      "s9": 9479,
      "sM": 9480,
      "sP": 9481,
      "sY": 9482,
      "sf": 9483,
      "sΓ": 9484,
      "sΟ": 9485,
      "sΤ": 9486,
      "sσ": 9487,
      "s7,": 9488,
      "sσ'": 9489,
      "sν'": 9490,
      "sθ'": 9491,
      "sΚ'": 9492,
      "sC'": 9493,
      "sδ'": 9494,
      "sε'": 9495,
      "sΓ'": 9496,
      "s)),": 9497,
      "sN'": 9498,
      "s8'": 9499,
      "s7'": 9500,
      "sN,": 9501,
      "s)/2))": 9502,
      "sσ,": 9503,
      "sν,": 9504,
      "s)/(log(": 9505,
      "sTθ": 9506,
      "tΚ": 9507,
      "tμ": 9508,
      "tα'": 9509,
      "tr'": 9510,
      "tΚ'": 9511,
      "tK'": 9512,
      "tq'": 9513,
      "tΥ'": 9514,
      "t)),": 9515,
      "t)/sqrt(": 9516,
      "tΚ,": 9517,
      "t)/5,": 9518,
      "u4": 9519,
      "u8": 9520,
      "uH": 9521,
      "uI": 9522,
      "uL": 9523,
      "uM": 9524,
      "uT": 9525,
      "uΡ": 9526,
      "uη": 9527,
      "uξ": 9528,
      "uΠ'": 9529,
      "uW'": 9530,
      "uξ'": 9531,
      "uΡ'": 9532,
      "u)),": 9533,
      "u8'": 9534,
      "u4'": 9535,
      "uΒ'": 9536,
      "uW,": 9537,
      "uo,": 9538,
      "u/log(": 9539,
      "v*": 9540,
      "vH": 9541,
      "vU": 9542,
      "vΟ": 9543,
      "vλ": 9544,
      "vω": 9545,
      "vη'": 9546,
      "vΜ'": 9547,
      "vΣ'": 9548,
      "vT'": 9549,
      "vΔ'": 9550,
      "v)/sqrt(": 9551,
      "v6'": 9552,
      "v)/2))": 9553,
      "vΣ,": 9554,
      "vmg": 9555,
      "w/": 9556,
      "wN": 9557,
      "ws": 9558,
      "wΕ": 9559,
      "wΚ": 9560,
      "wΧ'": 9561,
      "wΚ'": 9562,
      "w)*log(": 9563,
      "w)**log(": 9564,
      "wE'": 9565,
      "w**6)": 9566,
      "xG": 9567,
      "xΤ": 9568,
      "xW'": 9569,
      "xΤ'": 9570,
      "xΨ'": 9571,
      "x)/2": 9572,
      "xb'": 9573,
      "x)/sqrt(": 9574,
      "xN'": 9575,
      "x4'": 9576,
      "xyΡ": 9577,
      "xTΟ": 9578,
      "y6": 9579,
      "yO": 9580,
      "yU": 9581,
      "yc": 9582,
      "yk": 9583,
      "yw": 9584,
      "yμ": 9585,
      "yχ": 9586,
      "y**": 9587,
      "y_Β": 9588,
      "y**(": 9589,
      "yΧ'": 9590,
      "yΚ'": 9591,
      "yw'": 9592,
      "yμ'": 9593,
      "yv'": 9594,
      "y)/log(": 9595,
      "y)**(sqrt(": 9596,
      "y1'": 9597,
      "yH'": 9598,
      "y6'": 9599,
      "yw,": 9600,
      "yH),": 9601,
      "y)/2)*": 9602,
      "y_Βk": 9603,
      "yσV": 9604,
      "z4": 9605,
      "zη": 9606,
      "zψ": 9607,
      "zλ'": 9608,
      "zg'": 9609,
      "zΙ'": 9610,
      "zD'": 9611,
      "zΩ'": 9612,
      "z)*log(": 9613,
      "z)/sqrt(": 9614,
      "z*log(": 9615,
      "zo'": 9616,
      "zΔS": 9617,
      "Α6": 9618,
      "Αu": 9619,
      "Αw": 9620,
      "Αβ": 9621,
      "Αε": 9622,
      "Αλ": 9623,
      "Αn'": 9624,
      "Α**(": 9625,
      "ΑΧ'": 9626,
      "Αw'": 9627,
      "Ακ'": 9628,
      "Αζ'": 9629,
      "ΑZ,": 9630,
      "Α/2),": 9631,
      "ΑJΝ": 9632,
      "ΑKο": 9633,
      "ΑLS": 9634,
      "Β*": 9635,
      "ΒΙ": 9636,
      "Βξ": 9637,
      "Γ2": 9638,
      "ΓH": 9639,
      "ΓR": 9640,
      "Γz": 9641,
      "Γ4,": 9642,
      "ΓY'": 9643,
      "Γθ'": 9644,
      "Γ2'": 9645,
      "Γ)/2)": 9646,
      "ΓΧ,": 9647,
      "Γsδ": 9648,
      "Δ2": 9649,
      "Δ5": 9650,
      "ΔE": 9651,
      "ΔN": 9652,
      "ΔP": 9653,
      "ΔZ": 9654,
      "Δc": 9655,
      "ΔΗ": 9656,
      "Δι": 9657,
      "Δ**": 9658,
      "Δ**(": 9659,
      "ΔZ'": 9660,
      "ΔV'": 9661,
      "Δz'": 9662,
      "ΔS'": 9663,
      "Δι'": 9664,
      "Δι))": 9665,
      "Ε1": 9666,
      "ΕR": 9667,
      "ΕΕ": 9668,
      "Εβ": 9669,
      "Εζ": 9670,
      "Ελ": 9671,
      "Εο": 9672,
      "Ε)/": 9673,
      "Ε**": 9674,
      "Ε_Β": 9675,
      "ΕR'": 9676,
      "Εβ'": 9677,
      "ΕV'": 9678,
      "Εμ'": 9679,
      "Ε)),": 9680,
      "Ε)/log(": 9681,
      "Ε4'": 9682,
      "Ε*sqrt(": 9683,
      "ΕΨΒ": 9684,
      "ΕΙΛ": 9685,
      "ΖD": 9686,
      "ΖE": 9687,
      "ΖQ": 9688,
      "ΖT": 9689,
      "ΖV": 9690,
      "Ζy": 9691,
      "ΖΖ": 9692,
      "ΖΘ": 9693,
      "ΖΡ": 9694,
      "Ζθ": 9695,
      "Ζξ": 9696,
      "Ζ**": 9697,
      "ΖG'": 9698,
      "Ζξ'": 9699,
      "ΖV'": 9700,
      "ΖJ'": 9701,
      "Ζp'": 9702,
      "ΖN'": 9703,
      "ΖΕ'": 9704,
      "Ζξ,": 9705,
      "Ζ1j": 9706,
      "Ζ25": 9707,
      "ΖζX": 9708,
      "Ζqt": 9709,
      "ΖHΧ": 9710,
      "ΗF": 9711,
      "ΗR": 9712,
      "ΗW": 9713,
      "ΗX": 9714,
      "Ηr": 9715,
      "Ηt": 9716,
      "ΗΒ": 9717,
      "Ηυ": 9718,
      "Ηc'": 9719,
      "Ηt'": 9720,
      "Ηψ'": 9721,
      "ΗB'": 9722,
      "Ηε'": 9723,
      "ΗΝ'": 9724,
      "Ηt,": 9725,
      "ΗXΜ": 9726,
      "ΘQ": 9727,
      "ΘY": 9728,
      "Θb": 9729,
      "Θn": 9730,
      "ΘΓ": 9731,
      "Θη": 9732,
      "Θι": 9733,
      "Θψ": 9734,
      "Θh'": 9735,
      "Θξ'": 9736,
      "Θη'": 9737,
      "ΘΓ'": 9738,
      "Θι'": 9739,
      "Θh,": 9740,
      "Θι,": 9741,
      "ΙA": 9742,
      "ΙJ": 9743,
      "ΙP": 9744,
      "ΙT": 9745,
      "ΙΠ": 9746,
      "ΙΦ": 9747,
      "Ιο": 9748,
      "Ι**(": 9749,
      "Ιt'": 9750,
      "ΙΦ'": 9751,
      "Ιω'": 9752,
      "ΙJ'": 9753,
      "ΙΗ'": 9754,
      "Ι)),": 9755,
      "Ι)**(sqrt(": 9756,
      "Ι**(sqrt(": 9757,
      "ΙEα": 9758,
      "Κj": 9759,
      "Κs": 9760,
      "Κs'": 9761,
      "Κτ'": 9762,
      "ΚΥ'": 9763,
      "Κ)/sqrt(": 9764,
      "ΚΚ,": 9765,
      "Κ29": 9766,
      "ΚyH": 9767,
      "ΚRψ": 9768,
      "ΛA": 9769,
      "ΛJ": 9770,
      "ΛM": 9771,
      "ΛΕ": 9772,
      "Λ)**": 9773,
      "Λ)**(": 9774,
      "Λk'": 9775,
      "ΛM'": 9776,
      "Λο'": 9777,
      "Λτ'": 9778,
      "Λμ'": 9779,
      "Λ)),": 9780,
      "Λο,": 9781,
      "ΛxW": 9782,
      "Μ1": 9783,
      "ΜB": 9784,
      "ΜI": 9785,
      "ΜY": 9786,
      "Μu": 9787,
      "ΜΕ": 9788,
      "ΜΗ": 9789,
      "ΜΘ": 9790,
      "Μ)**": 9791,
      "Μl'": 9792,
      "Μσ'": 9793,
      "ΜΘ'": 9794,
      "Μu'": 9795,
      "Μw'": 9796,
      "Μb'": 9797,
      "Μ)**(sqrt(": 9798,
      "ΜN'": 9799,
      "Μ5'": 9800,
      "ΜN,": 9801,
      "Μσ,": 9802,
      "Μb,": 9803,
      "ΜWΕ": 9804,
      "Μωη": 9805,
      "Νg": 9806,
      "Νm": 9807,
      "ΝΒ": 9808,
      "ΝΔ": 9809,
      "ΝΝ": 9810,
      "Νγ": 9811,
      "Νι": 9812,
      "Ν_Β": 9813,
      "Νσ'": 9814,
      "Νa'": 9815,
      "Νη'": 9816,
      "Ν)*log(": 9817,
      "Νι'": 9818,
      "Νa,": 9819,
      "Νv,": 9820,
      "Νι,": 9821,
      "ΝTK": 9822,
      "ΞJ": 9823,
      "ΞV": 9824,
      "Ξt": 9825,
      "Ξv": 9826,
      "ΞΘ": 9827,
      "ΞΣ": 9828,
      "ΞΥ": 9829,
      "Ξφ": 9830,
      "Ξχ": 9831,
      "Ξ)**(": 9832,
      "Ξc'": 9833,
      "ΞΠ'": 9834,
      "Ξt'": 9835,
      "ΞΑ'": 9836,
      "ΞΣ'": 9837,
      "ΞΥ'": 9838,
      "Ξ)/log(": 9839,
      "Ξ)*sqrt(": 9840,
      "Ο6": 9841,
      "ΟI": 9842,
      "ΟL": 9843,
      "ΟN": 9844,
      "ΟT": 9845,
      "ΟΥ": 9846,
      "ΟΧ": 9847,
      "ΟΨ": 9848,
      "Οο": 9849,
      "Ο)/": 9850,
      "Ο**": 9851,
      "Οσ'": 9852,
      "Οα'": 9853,
      "ΟΤ'": 9854,
      "ΟT'": 9855,
      "ΟN'": 9856,
      "Ο*log(": 9857,
      "Ο5)": 9858,
      "Ο**(log(": 9859,
      "ΟT),": 9860,
      "Π/": 9861,
      "ΠH": 9862,
      "Πl'": 9863,
      "Πυ'": 9864,
      "Πh'": 9865,
      "ΠK'": 9866,
      "Π)*log(": 9867,
      "Π)),": 9868,
      "Π2'": 9869,
      "ΠH'": 9870,
      "Π)/2)": 9871,
      "Π/2),": 9872,
      "ΠΕ)))": 9873,
      "ΠfΒ": 9874,
      "ΠλΒ": 9875,
      "Ρ6": 9876,
      "Ρ8": 9877,
      "ΡG": 9878,
      "ΡJ": 9879,
      "ΡΗ": 9880,
      "ΡΨ": 9881,
      "Ρ**": 9882,
      "Ρυ'": 9883,
      "Ρκ'": 9884,
      "ΡJ'": 9885,
      "ΡQ'": 9886,
      "Ρ5'": 9887,
      "ΡH'": 9888,
      "Ρ6'": 9889,
      "ΡΒ'": 9890,
      "Ρl,": 9891,
      "Σ1": 9892,
      "ΣJ": 9893,
      "ΣR": 9894,
      "Σg": 9895,
      "ΣΔ": 9896,
      "ΣΜ": 9897,
      "ΣΡ": 9898,
      "Σγ": 9899,
      "Συ": 9900,
      "Σα'": 9901,
      "ΣZ'": 9902,
      "Σξ'": 9903,
      "Σκ'": 9904,
      "ΣΝ'": 9905,
      "ΣO'": 9906,
      "ΣI'": 9907,
      "Σ2'": 9908,
      "ΣΖ,": 9909,
      "Σα,": 9910,
      "ΣKL": 9911,
      "ΣΞq": 9912,
      "ΣγT": 9913,
      "Σ3p": 9914,
      "Τ6": 9915,
      "ΤC": 9916,
      "Τh": 9917,
      "Τk": 9918,
      "ΤΑ": 9919,
      "Τψ": 9920,
      "Τ1,": 9921,
      "Τk'": 9922,
      "Τx'": 9923,
      "ΤΠ'": 9924,
      "ΤR'": 9925,
      "ΤC'": 9926,
      "ΤD'": 9927,
      "Τ)**log(": 9928,
      "Τ)*sqrt(": 9929,
      "Τ8'": 9930,
      "Τ)/2))": 9931,
      "ΤΖ,": 9932,
      "Τnk": 9933,
      "ΤAΖ": 9934,
      "ΥW": 9935,
      "ΥΑ": 9936,
      "Υγ": 9937,
      "Υο": 9938,
      "ΥW'": 9939,
      "Υυ'": 9940,
      "Υ**(": 9941,
      "ΥΞ'": 9942,
      "ΥΖO": 9943,
      "Υ6v": 9944,
      "Υcι": 9945,
      "ΦZ": 9946,
      "ΦΣ": 9947,
      "Φ_Β": 9948,
      "Φf'": 9949,
      "ΦJ'": 9950,
      "Φ)/log(": 9951,
      "ΦO'": 9952,
      "ΦI'": 9953,
      "ΦI,": 9954,
      "Φz,": 9955,
      "ΦΝ)": 9956,
      "Χs": 9957,
      "ΧZ'": 9958,
      "Χν'": 9959,
      "ΧX'": 9960,
      "Χp'": 9961,
      "Χ)*log(": 9962,
      "ΧE'": 9963,
      "ΧΞ'": 9964,
      "ΧJ,": 9965,
      "ΧRI": 9966,
      "ΨB": 9967,
      "ΨG": 9968,
      "Ψa": 9969,
      "Ψh": 9970,
      "Ψp": 9971,
      "ΨΚ": 9972,
      "ΨΤ": 9973,
      "ΨΦ": 9974,
      "Ψ2,": 9975,
      "Ψt'": 9976,
      "Ψh'": 9977,
      "ΨΘ'": 9978,
      "Ψa'": 9979,
      "ΨΦ'": 9980,
      "Ψκ'": 9981,
      "ΨL'": 9982,
      "Ψ)*log(": 9983,
      "Ψ)**log(": 9984,
      "Ψ2'": 9985,
      "ΨΞ'": 9986,
      "ΨH'": 9987,
      "ΨΣ,": 9988,
      "Ψκ))": 9989,
      "ΨL,": 9990,
      "Ψ/2)": 9991,
      "ΨZΔ": 9992,
      "ΩΒ": 9993,
      "Ωυ": 9994,
      "Ω2,": 9995,
      "Ωs'": 9996,
      "Ωυ'": 9997,
      "Ω**(": 9998,
      "ΩΥ'": 9999
    },
    "merges": [
      [
        "m",
        "l"
      ],
      [
        ":",
        "m"
      ],
      [
        "m",
        "ml"
      ],
      [
        "mml",
        ":m"
      ],
      [
        "/",
        "mml:m"
      ],
      [
        "<",
        "mml:m"
      ],
      [
        "<",
        "/mml:m"
      ],
      [
        "i",
        ">"
      ],
      [
        "r",
        "o"
      ],
      [
        "w",
        ">"
      ],
      [
        "ro",
        "w>"
      ],
      [
        "<mml:m",
        "i>"
      ],
      [
        "</mml:m",
        "i>"
      ],
      [
        "o",
        ">"
      ],
      [
        "<mml:m",
        "row>"
      ],
      [
        "</mml:m",
        "row>"
      ],
      [
        "s",
        "u"
      ],
      [
        "y",
        "m"
      ],
      [
        "o",
        "l"
      ],
      [
        "S",
        "ym"
      ],
      [
        "b",
        "ol"
      ],
      [
        "Sym",
        "bol"
      ],
      [
        "n",
        "c"
      ],
      [
        "d",
        ">"
      ],
      [
        "e",
        "nc"
      ],
      [
        "e",
        "d>"
      ],
      [
        "f",
        "enc"
      ],
      [
        "fenc",
        "ed>"
      ],
      [
        "su",
        "b"
      ],
      [
        "sub",
        ">"
      ],
      [
        "<mml:m",
        "o>"
      ],
      [
        "</mml:m",
        "o>"
      ],
      [
        "n",
        ">"
      ],
      [
        "<mml:m",
        "fenced>"
      ],
      [
        "</mml:m",
        "fenced>"
      ],
      [
        "p",
        ">"
      ],
      [
        "su",
        "p>"
      ],
      [
        "<mml:m",
        "sub>"
      ],
      [
        "</mml:m",
        "sub>"
      ],
      [
        "r",
        "a"
      ],
      [
        "e",
        "x"
      ],
      [
        "t",
        ">"
      ],
      [
        ")",
        ")"
      ],
      [
        "c",
        ">"
      ],
      [
        "f",
        "ra"
      ],
      [
        "fra",
        "c>"
      ],
      [
        "E",
        "q"
      ],
      [
        "<mml:m",
        "n>"
      ],
      [
        "</mml:m",
        "n>"
      ],
      [
        "s",
        "q"
      ],
      [
        "sq",
        "r"
      ],
      [
        "<mml:m",
        "sup>"
      ],
      [
        "</mml:m",
        "sup>"
      ],
      [
        "i",
        "n"
      ],
      [
        "s",
        "in"
      ],
      [
        "t",
        "a"
      ],
      [
        "t",
        "ex"
      ],
      [
        "tex",
        "t>"
      ],
      [
        "ta",
        "n"
      ],
      [
        "c",
        "o"
      ],
      [
        "co",
        "s"
      ],
      [
        "ex",
        "p"
      ],
      [
        "o",
        "g"
      ],
      [
        "l",
        "og"
      ],
      [
        "sqr",
        "t>"
      ],
      [
        "e",
        "r"
      ],
      [
        "<mml:m",
        "frac>"
      ],
      [
        "</mml:m",
        "frac>"
      ],
      [
        ")",
        ","
      ],
      [
        ")",
        "*"
      ],
      [
        "n",
        "d"
      ],
      [
        "e",
        "ro"
      ],
      [
        "u",
        "nd"
      ],
      [
        "v",
        "er"
      ],
      [
        "ero",
        "ver"
      ],
      [
        "und",
        "erover"
      ],
      [
        "underover",
        ">"
      ],
      [
        "i",
        "v"
      ],
      [
        "<mml:m",
        "text>"
      ],
      [
        "</mml:m",
        "text>"
      ],
      [
        "log",
        "("
      ],
      [
        "))",
        ")"
      ],
      [
        "t",
        "("
      ],
      [
        "<mml:m",
        "sqrt>"
      ],
      [
        "</mml:m",
        "sqrt>"
      ],
      [
        "sqr",
        "t("
      ],
      [
        ")",
        "/"
      ],
      [
        ")*",
        "*"
      ],
      [
        "a",
        "t"
      ],
      [
        "S",
        "u"
      ],
      [
        "m",
        "("
      ],
      [
        "<mml:m",
        "underover>"
      ],
      [
        "</mml:m",
        "underover>"
      ],
      [
        "Su",
        "m("
      ],
      [
        "D",
        "er"
      ],
      [
        "e",
        "("
      ],
      [
        "iv",
        "at"
      ],
      [
        "iv",
        "e("
      ],
      [
        "Der",
        "ivat"
      ],
      [
        "Derivat",
        "ive("
      ],
      [
        "l",
        "("
      ],
      [
        "sub",
        "sup>"
      ],
      [
        "n",
        "t"
      ],
      [
        "I",
        "nt"
      ],
      [
        "e",
        "g"
      ],
      [
        "ra",
        "l("
      ],
      [
        "Int",
        "eg"
      ],
      [
        "Integ",
        "ral("
      ],
      [
        "*",
        "*"
      ],
      [
        "<mml:m",
        "subsup>"
      ],
      [
        "</mml:m",
        "subsup>"
      ],
      [
        "_",
        "Β"
      ],
      [
        "Q",
        "_"
      ],
      [
        "Z",
        "_"
      ],
      [
        "F",
        "_"
      ],
      [
        "h",
        "_"
      ],
      [
        "3",
        ","
      ],
      [
        "ξ",
        "_"
      ],
      [
[...]
